#version: 0.2
a n
e r
Ġ d
e n
l a
Ġ m
Ġ s
a k
Ġ t
Ġ k
Ġ b
a r
a t
i n
an g
Ġ p
a h
Ġ .
a s
u n
e m
a m
a l
a d
Ġd i
Ġ ,
y a
i t
i k
a p
Ġs e
en g
u k
a la
Ġ y
o n
Ġ n
i s
Ġk e
o r
u r
Ġ h
l e
Ġy ang
Ġ S
in g
Ġd an
u s
Ġ j
e s
Ġ M
Ġ P
k an
Ġb er
u t
e l
Ġ A
Ġ c
g a
Ġ K
i r
Ġ r
u m
i d
ad a
Ġm en
i l
i a
e la
Ġ in
Ġ la
e k
Ġ B
Ġ ak
u l
e t
Ġp er
Ġ T
g i
i h
Ġt er
a b
i m
ar i
Ġ g
Ġ w
t i
a j
Ġm em
Ġ #
Ġ l
an d
a w
Ġt h
Ġ o
e d
n ya
ak an
ala m
a u
Ġ I
Ġ D
en t
ar a
a i
un g
u d
o m
Ġ f
u p
Ġ (
Ġm eng
Ġak u
o k
Ġ un
Ġ 1
eng an
o l
Ġ R
Ġ a
u h
la h
Ġ 2
t uk
Ġ :
a ya
e b
en d
Ġse b
am a
Ġin i
an t
Ġd engan
ala h
as a
it u
Ġ J
ang an
le h
Ġ )
Ġd alam
Ġ H
i an
o s
Ġth e
Ġun tuk
o t
a y
am p
Ġ L
e g
e p
em b
ik an
a c
Ġm er
an a
Ġ ?
Ġ C
Ġ N
or ang
at an
0 0
u a
Ġd ari
Ġt ak
a an
l u
at i
A N
ap a
Ġn i
as i
r o
on g
Ġ le
p er
ad i
Ġ at
an ya
k u
a ga
Ġmem b
p ada
Ġ "
u at
t a
uk an
Ġ itu
u b
it a
i b
Ġm as
Ġs em
i c
Ġt id
Ġk er
t er
Ġ and
a gi
Ġp en
Ġ ada
Ġ -
u la
Ġ ad
s i
Ġo f
Ġ G
u an
o h
am b
r i
Ġt o
Ġp eng
Ġj u
la m
ar an
o d
Ġtid ak
Ġ U
ap i
at a
Ġdi a
er i
Ġp ada
Ġt ah
ela h
Ġy g
ap at
Ġse k
em p
e c
Ġn ak
al i
al an
Ġ !
e h
Ġt u
Ġ is
Ġ orang
o leh
Ġ F
a g
Ġ al
o w
Ġ i
y ak
y s
Ġ W
i la
Ġak an
ĠP er
Ġ E
Ġ an
ah an
Ġke pada
ek a
Ġs t
at u
0 1
Ġju ga
ĠI n
aj a
aga i
it i
Ġmen j
Ġ as
o p
Ġp un
Ġad alah
Ġmen y
Ġ Y
Ġ e
Ġla gi
Ġb ah
ir i
Ġ /
a ik
Ġat au
er s
ĠI s
Ġ 3
Ġk am
in d
u j
Ġo leh
ang k
Ġ O
a f
e w
Ġk ita
ud ah
a in
ala ys
u c
an j
Ġb el
in i
ĠA l
b ih
r e
i p
Ġke s
um p
Ġber k
ela j
alays ia
Ġb oleh
Ġmer eka
Ġd ah
Ġt elah
ang g
en a
ar u
Ġs er
Ġm ak
ala u
Ġb agi
Ġ v
s t
Ġp r
ik a
E R
t u
uk a
u ah
Ġtah un
Ġ2 01
Ġs i
j a
Ġdi b
Ġp as
Ġp ro
v e
Ġk em
ah a
Ġn eg
ĠM alaysia
Ġle bih
Ġ or
Ġh ar
Ġb uat
h e
Ġ ya
Ġdi s
A H
ang s
ati on
an yak
ĠIs lam
Ġs aya
n i
Ġber s
Ġp em
g un
Ġseb agai
an c
Ġla h
Ġm ela
Ġ ar
is a
an an
t ak
la k
Ġ apa
y ar
Ġs atu
aw a
Ġs ama
Ġ ga
Ġp emb
as an
Ġn g
l y
im p
Ġj e
o b
Ġ on
am an
Ġd apat
is t
ing g
on t
Ġla in
Ġm in
Ġ '
Ġ1 9
ar kan
a a
es t
Ġ 4
Ġh ari
Ġ &
ing k
l i
Ġse d
Ġsem ua
g h
ar ang
Ġdi k
Ġp ak
ir an
Ġp end
e le
A R
up akan
Ġm an
Ġs o
Ġmen d
Ġ ia
Ġt api
Ġ 5
Ġa g
Ġ ;
Ġter s
Ġdari pada
p as
d a
Ġke b
e j
y at
ul an
A T
on s
Ġke t
Ġmer upakan
Ġk au
m a
Ġf or
o lah
um ah
in ya
Ġk al
h ad
in t
ang at
Ġs amp
g n
Ġse s
c h
Ġm akan
eb ut
elaj ar
Ġt r
Ġse per
Ġ ap
un ya
Ġj adi
Ġdi t
en c
p a
E N
Ġb i
Ġb ukan
I N
Ġseper ti
us t
id up
g r
ĠA n
ul u
Ġb isa
at kan
Ġm el
is i
ur an
in a
Ġkam u
Ġmenj adi
A L
Ġw h
Ġse c
y ah
Ġr e
Ġb aru
ang kan
uh an
n ah
Ġber b
im a
Ġm ana
A K
Ġb anyak
A ku
ĠIn d
Ġneg ara
Ġper t
v er
Ġan ak
Ġb e
A S
o u
ar ga
Ġseb uah
t h
Ġk aw
ap an
Ġs h
Ġk u
Ġk at
um b
ela k
aj aan
n a
ung an
y u
id ikan
ia u
Ġmen c
h ir
ih at
ah ah
g u
ac am
Ġke c
Ġk an
ar ah
w a
Ġk ar
Ġter b
Ġr umah
Ġb aik
Ġ aw
gun akan
o c
Ġk alau
Ġper k
ur u
Ġp el
un d
Ġ us
Ġc h
Ġber t
Ġs end
es s
A M
e e
Ġm au
ik ut
us an
Ġke p
ar t
Ġ2 00
Ġs en
m an
Ġ ant
Ġ ut
om p
i al
Ġ) .
Ġt emp
o g
Ġm asa
es ar
al ik
ur ut
Ġke d
amb il
Ġsec ara
Ġters ebut
u al
ang un
ing ga
ak at
ĠT er
Ġth at
k in
Ġmas ih
Ġt et
on es
i f
ĠAl lah
Ġse t
Ġ aja
Ġ it
AN G
Ġt an
m as
aj ian
Ġb eb
Ġ ab
er a
il ik
Ġp ula
Ġk en
Ġ 6
Ġh anya
Ġse la
il l
it h
Ġs udah
on d
or m
il ih
as il
h h
am i
s a
at e
s an
as ih
Ġs angat
or e
or t
ones ia
Ġsend iri
Ġk ena
m u
Ġ V
Ġ am
Ġmem p
ĠA b
t an
an ti
it y
us ia
er ah
on al
i z
Ġke lu
Ġker ana
u e
Ġm acam
Ġin d
Ġse h
Ġper lu
Ġper s
a at
al ing
el um
Ġkam i
Ġk ur
ĠB er
o ur
Ġdi p
r a
Ġat as
ol ong
Ġ gi
Ġi alah
Ġse j
ĠS h
em ent
Ġn ya
Ġker ja
P er
id e
ing gi
Ġ *
Ġt eng
Ġ 7
Ġk a
s s
Ġm ah
00 0
t or
Ġp ol
ĠC h
Ġmeng h
im b
d ul
Ġt ent
Ġsamp ai
ot a
Ġter us
as t
Ġser ta
u ang
u ala
Ġ 0
g an
Ġr asa
u ar
had ap
i v
an s
Ġr es
ĠR M
Ġm e
f f
Ġse p
ĠP eng
am ai
Ġper nah
gr am
a z
Ġt i
Ġb et
Ġp elajar
Ġs ah
Ġpen y
ak u
Ġt au
er apa
l im
ti f
er e
Ġh idup
ĠM ela
ut an
ĠA ku
ant u
Ġdi ri
un j
ĠP en
ent ing
ti on
Ġ Z
m in
Ġb aw
m at
Ġseb ab
us i
Ġbah awa
Ġd o
yar akat
o od
ol o
Ġter le
Ġa ir
Ġant ara
Ġsek olah
Ġk ata
ĠP r
Ġse l
Ġber d
Ġe x
ar d
ur uh
Ġ x
un t
Ġk h
n g
Ġter hadap
Ġk om
al kan
an i
Ġs p
ti v
Ġ ing
in e
I S
un ia
Ġs ay
Ġdi per
Ġs alah
ek at
Ġ um
k w
i i
Ġ z
ĠMela yu
Ġa c
Ġ) ,
on e
Ġse le
Ġm ur
in c
Ġ ib
Ġia itu
en ar
ul is
unya i
ak yat
Ġh ati
Ġbel i
Ġd ulu
Ġ ek
Ġber j
E L
aj u
Ġd ua
ir a
at ang
ac a
ak ar
Ġk ak
al l
c m
ai an
Ġter d
Ġs u
ĠK er
lu i
ĠInd onesia
Ġmemp unyai
ed ah
Ġ1 0
ed ia
os t
Ġt e
Ġse orang
eb ab
uat u
ela s
Ġw ith
Ġbel iau
Ġg ak
o v
E M
ih ak
h a
Ġber p
Ġmas alah
Ġf r
Ġn ot
ĠN eg
Ġ ah
Ġs uka
Ġb alik
Ġy ou
m p
ad an
Ġtah u
Ġdi j
O N
Ġker ajaan
Ġt im
Ġar e
gh t
atan ya
U N
l is
la t
ĠS t
Ġbeb erapa
elaj aran
ik at
Ġb esar
Ġb ang
ĠA s
Ġseb elum
Ġmem per
an y
Ġse g
d er
Ġ 8
Ġmas uk
Ġh a
m ent
A l
m ad
uk u
Ġn y
Ġmas yarakat
2 0
ent uk
Ġber h
an k
il ang
Ġterle tak
on om
Ġc er
g ak
ĠA r
Ġk ali
ti ap
Ġ 9
ek er
Ġp ar
olo gi
Ġdi r
ung kin
Ġs k
Ġt em
it ik
Ġ en
e ar
Ġman usia
A P
Ġd gn
Ġse tiap
Ġ2 0
m m
ar at
p r
Ġper b
el ang
agi an
o o
Ġke j
angs a
Ġ %
el i
I n
eng k
Ġb ila
u it
Ġs up
ac h
Ġ em
Ġs ik
Ġsek ali
Ġd ep
I T
Ġke k
a v
Ġj alan
Ġbers ama
Ġtemp at
Ġtid ur
l ow
ing an
Ġmen er
Ġw ak
Ġd e
ik e
Ġmela lui
i j
Ġkaw asan
Ġmela k
Ġ201 9
g t
g e
it an
in an
Ġmemb uat
um an
ingk at
Y A
o us
aw ab
Ġla lu
Ġh ad
Ġb ut
en er
T he
Ġp ihak
ĠS ek
Ġp e
ĠS em
j ek
Ġke la
Ġh al
Ġk ul
Ġj am
ĠP ro
Ġmeng gunakan
Ġm es
Ġsek arang
Ġber m
Ġj angan
om e
h am
T er
Ġd ekat
un c
um a
Ġd a
am un
ĠK uala
Ġla ma
ud uk
in ta
angs ung
Ġk anan
Ġpun ya
Ġor g
et a
Ġkal o
Ġb o
om b
amp ung
Ġket ika
Ġdi d
er ikan
Ġ up
ep at
unj uk
Ġp aling
is m
Ġand a
ah kan
Ġse lam
o ga
A n
ik ir
, "
Ġg uru
angun an
Ġh e
at akan
ek n
Ġbah asa
S ela
Ġber la
Ġke h
h at
Ġmeng en
g er
w e
s h
P ada
t ar
Ġd unia
Ġtent ang
in k
Ġhar us
Ġm od
Ġk ajian
Ġberk ata
ur e
ia o
l o
ent eri
es i
Ġt inggi
ter n
Ġpak ai
anj ang
Ġdi m
end a
ĠD i
and ar
ĠM oh
ud a
Ġd em
il an
Ġw as
as ar
E S
ĠM en
l ik
Ġs us
Ġdi lak
d e
ist em
A D
Ġbaw ah
Ġneg eri
Ġst r
Ġ ]
mas uk
ump ur
t r
Ġag ama
Ġc an
ad ah
Ġmend apat
ĠA m
ĠU n
I K
d i
ak ap
Ġd r
Ġkar ena
Ġb ulan
q u
Ġr aya
U K
s o
up a
Ġke l
ap kan
c e
v ers
Ġmem ang
Ġr akyat
ec t
ac k
lak i
ĠY ang
Ġm amp
et ah
ĠB ah
ak in
en si
Ġl o
U R
ant ik
i e
am u
w an
e i
as kan
onom i
Ġp enting
Ġth is
Ġ udah
le k
os es
ant an
Ġm alam
Ġs ini
aga im
en is
ah aha
Ġmemb eri
Ġpert ama
um lah
Ġdi l
ĠL umpur
Ġter k
ul t
Ġm cm
up un
Ġsela lu
u u
Ġtan pa
Ġs y
ur un
or i
I ni
Ġ19 9
ar k
r y
Ġtet api
Ġm ula
Ġk o
ad ang
Ġfr om
' s
Ġn k
ingg al
Ġpend idikan
Ġp es
eng ar
B er
Ġc o
E T
ĠP end
Ġn o
Ġb ud
Ġn ama
p t
un ga
ab ila
ih an
Ġc on
ĠM as
Ġm a
ak s
M en
Ġper gi
f orm
d uk
u g
ĠM enteri
Ġdi gunakan
Ġm ain
Ġk atanya
ar e
n y
Ġle pas
Ġw or
Ġs aja
D i
Ġm at
ak it
ul ang
Ġg o
and a
Ġbet ul
Ġc ont
l m
er ian
e y
Ġm ata
Ġn anti
Ġl iao
Ġp agi
ĠS ela
Ġbel um
ot o
am ad
Ġak hir
Ġb eg
aya an
elang or
Ġw an
u i
Ġle laki
ut i
Ġj ika
Ġn asi
a ikan
Ġg r
au h
il lah
us lim
Ġl i
ilik i
ung g
Ġter t
e z
amp ak
Ġk asih
Ġis u
enc e
o ut
Ġm y
ĠA h
b agai
il i
Ġseh ingga
eng ah
Ġs os
Ġter masuk
r ang
us kan
id ang
aj aran
S em
ab is
emp uan
ab atan
ĠI b
Ġdep an
p ak
Ġp and
us nya
ab at
ĠT ak
Ġh ingga
Ġib u
Ġs aat
Ġl angsung
uk up
S eb
er t
ap p
ĠS elangor
U M
Ġp os
I M
aj i
ĠT he
ĠD at
Ġl uar
Ġsele pas
T ak
ut a
l um
Ġd atang
ab ar
Ġ u
D alam
amb ah
Ġmur id
en ang
I L
i ah
m atan
Ġk r
Ġw ar
) .
emp at
ati f
Ġkelu ar
angk a
Ġtim e
id ak
Ġteng ok
Ġl ike
ĠK eb
Ġst ud
Ġla p
U S
Ġb ay
ĠU ni
S aya
Ġbang et
el l
Ġ il
' m
and ing
ab i
Ġp ara
Ġhar ga
ilih an
Ġut k
Ġk n
Ġwak tu
ump ulan
ah un
it ar
un gi
Ġc ara
h i
Ġ ala
ed i
ĠM ah
Ġaw al
Ġt adi
aw an
. .
al is
ab ah
ĠS y
aj ar
Ġp et
ic e
Ġo k
Ġkec il
p ek
ĠA k
umb er
Ġkem ud
" .
aj ah
ah iran
unjuk kan
Ġpro gram
aw at
Ġd uit
u as
Ġr amai
Ġmamp u
Ġp ut
h er
h an
Ġked ua
yar ikat
Ġ Q
Ġ [
ib a
asa an
ung gu
ĠA d
it as
Ġsah aja
ala upun
ub ah
Ġb r
ol low
as e
el u
ur i
5 0
ar ik
v el
Ġs ih
an ak
Ġsay ang
00 6
Ġc akap
ation al
e orang
Ġm ungkin
Ġs istem
ind akan
ĠPer s
d ang
Ġpel bagai
Ġdi h
ad ar
Ġn e
Ġb aju
uj ud
as arkan
Ġses uatu
angs aan
am e
Ġkaw an
Ġut ama
Ġon e
at us
ebab kan
u ai
K alau
1 9
Ġ +
Ġk emb
Ġpula k
Ġmeng g
Ġing in
Ġkom un
Ġberla ku
Ġg ue
tiv iti
Ġk ons
st r
B el
Ġkul it
id en
ingg u
ap ak
) ,
aw atan
emb er
y am
Ġter j
ti c
Ġo b
Ġin t
IN G
Ġs ur
Ġpak e
Ġb uah
is h
o y
ĠP ER
Ġmakan an
Ġ1 2
Ġkur ang
U L
san akan
Ġt p
ĠJ oh
ub ungan
eker ja
h id
Ġkelu arga
AH AH
Ġ: (
Ġper empuan
v en
Ġpen j
amb ar
Ġb ak
Ġpas ti
Ġn aik
Ġs b
ar is
ĠAb dul
Ġc uma
Ġpr oses
or an
ala s
Ġm ele
Ġh asil
Ġr ep
ong an
ĠT api
o la
Ġmemb antu
ic h
Ġal l
m i
ad ikan
ĠUni vers
d in
Ġla k
ter i
ur usan
Ġap abila
Ġ leh
ada an
ub uh
s e
Ġb ag
j id
Ġper c
Ġr as
U n
Ġpen c
Ġmem iliki
ur a
Ġb adan
Ġin s
ingk atkan
Ġc om
ham dul
ĠPend idikan
Ġterd apat
k k
ĠD an
Ġpol itik
Ġha ve
Ġken apa
ĠKer ajaan
Ġ es
r ah
end ah
1 0
Ġbi asa
al ly
ila yah
Ġ alam
Ġt angan
Ġsi apa
ĠM uh
Ġkal ian
ĠK et
Ġmel ihat
Ġt urut
I a
Bel iau
Ġb at
Ġw e
al u
Ġmak a
Ġpemb elajaran
Ġb elajar
Ġg un
I R
ap un
us at
ent s
A W
Ġres p
O R
A Y
Ġ imp
ĠNeg eri
ĠK es
Ġsed ang
er b
Ġmen unjukkan
p un
Ġs m
ement erian
Ġpro duk
akar ta
Ġsem p
Ġwan ita
Ġmengen ai
Ġpeng gun
Ġl upa
Ġm us
Ġag ar
Ġp in
U T
it al
Ġt olong
ĠD r
Ġ eh
angg ung
Ġek onomi
j i
I D
I A
od oh
p ort
Ġsos ial
er int
T h
Ġb ahan
st it
uc h
3 0
ĠA z
Ġil mu
Ġper m
Ġb y
amb ut
am anya
Ġmeng ikut
Ġdilak ukan
Ġperk ara
Ġp ela
ĠP em
ĠP ar
Ġd in
Ġj enis
Ġj uta
S ek
am mad
ib at
Ġ1 5
y ang
Ġ0 8
t ur
Ġ1 8
l an
re e
Ġm udah
Ġs akit
Ġk iri
Ġmelak ukan
Ġcer ita
Ġb enda
m b
Ġ? "
ul d
n ing
Ġw ill
al o
Ġ1 1
ak a
O L
Ġc ari
ic k
Ġdi c
e f
uj u
ĠT r
t ara
ĠP ol
ide o
le s
S et
Ġker eta
Ġ et
r u
Ġkemb ali
Ġti ga
ek s
Ġmeng ambil
ah am
Ġsem asa
hamdul illah
ĠM eng
Ġteng ah
ĠP emb
ĠS i
A B
s u
Ġm uka
Ġselam a
idup an
aj ib
E K
Ġs c
Ġseb anyak
Ġt ekn
la i
ub a
angk ah
b er
Ġ. "
Ġo p
le d
Ġb entuk
alan kan
Ġla gu
ĠS et
Ġb l
Ġm aj
u asa
alam an
ob a
Ġb as
Ġda erah
Ġseb enar
ĠS ep
ap ai
agaim ana
y an
Ġdi g
Ġus aha
A J
Ġh as
Ġd ok
el ur
Ġb ant
Ġber ada
ĠA g
am ah
O M
oh on
EN G
Ġc omp
n e
Ġin f
ĠP as
r it
Ġmemb erikan
Ġsup aya
Ġn ih
es an
A G
ĠDat uk
Ġsem ula
Ġh is
aw ak
Ġk ok
ic al
ĠP ak
s y
uh i
os e
ĠA lam
kw k
Ġkemud ian
Ġtet ap
Ġberk a
j u
er eka
Ġc ukup
ĠNeg ara
Ġk ot
Ġr o
ĠH ar
Ġd ap
ut up
r an
Ġmin ta
ant ai
Ġber as
ik al
Ġ1 4
Ġf ak
Ġm o
P eng
p h
ang i
ĠT an
Ġd es
o ok
Ġb atu
Ġs ub
Ġb uku
ik in
la lu
l in
P en
ĠK em
Ġthe ir
K U
Ġt w
anc e
Ġtan ah
Ġh ak
Ġk ini
Ġm ati
Ġh abis
ik asi
m en
Ġtah ap
D ia
Ġkem ahiran
Ġb idang
ar y
Ġdik en
Ġb u
Ġberk en
w at
Ġni lai
Ġj umlah
ila i
er l
am il
Ġah li
ur ah
Ġk ont
ism e
Ġs a
Ġb in
and i
or d
Ġal so
we et
Ġm is
ump a
it e
end ak
A da
ust ri
ĠK ementerian
Ġf il
Ġkela s
Ġke per
k er
ĠD ia
end er
ĠP ut
2 01
ĠJoh or
d uc
Ġthe y
d ana
Ġb uk
Ġpeng ajaran
en ti
n ak
Ġsi ap
ur n
um i
Ġdi ter
Ġ |
es iden
g k
Ġb gt
ah w
Ġkn ow
Ġt anya
Ġsej ak
Ġk orang
ĠM uslim
Ġmak lum
it am
Ġter l
asi onal
Ġkeh idupan
iv id
Ġl em
im an
w ah
Ġk os
ĠK e
Ġm edia
olong an
1 2
ia ga
ĠK alau
Ġ =
ĠT h
Ġk ampung
ek ut
ĠD I
Ġt indakan
ih atan
Ġ uj
Ġ ed
Ġb ek
Ġp an
elak ang
Ġp la
Ġju gak
Ġg u
T api
ik iran
Ġa yat
Ġset elah
Ġj auh
Ġm u
Ġ3 0
t e
ul tan
r is
Ġses eorang
Ġbeg itu
Ġa yah
Ġ X
ĠK h
Ġad ik
Ġk omp
is ah
Ġy our
ĠS eri
Ġan j
Ġkh us
Ġses uai
ĠH ari
or y
f er
Ġ el
Ġb andar
b a
Ġak tiviti
imp in
Ġ angg
Ġ ikut
Ġo ut
Ġg itu
Ġberka itan
eng gan
Ġsel uruh
Ġj elas
au d
ĠK el
al nya
J angan
Ġd h
ĠI N
i le
Ġm alah
Ġke adaan
ang ga
Ġpemb angunan
ang is
Ġp on
Ġbi ar
ab le
Ġn ampak
eng g
ay ah
anj ut
Ġk on
ĠS ar
ĠKeb angsaan
Ġtak ut
Ġk ay
oc k
ok ok
Ġ1 00
en apa
Ġber c
Ġ19 8
er ti
Ġp at
Ġk umpulan
P R
Ġh ahah
m ana
ew an
Ġsik it
Ġgi la
Ġberken aan
ak ah
Ġor der
Ġl or
Ġber g
ĠBah asa
r at
ĠP R
y o
Ġberj aya
ak hir
f at
edi akan
unga i
w ak
Ġmes ti
Ġj ust
Ġc antik
Ġ aj
ĠK ar
Ġber at
ĠSek olah
v i
p e
Ġw a
Ġt iba
Ġmener ima
Ġ ik
Ġp h
ĠSh ah
er n
Ġh i
Ġsek itar
Ġkal angan
ain s
ut usan
Ġind ivid
Ġmen ingkatkan
ung k
Ġk ap
Ġin ter
Ġk uat
Ġper ingkat
A A
us aha
Ġ" .
ik it
l d
ir kan
Ġt inggal
n o
un tuk
em u
ĠS er
Ġk aya
t s
Ġ ud
es e
Ġn amun
Ġg er
Ġwh ich
Ġs ambil
Ġsem akin
Ġwh at
k t
Ġam at
Ġs is
e kan
ĠT im
ĠK E
ĠMuh ammad
Ġf ollow
us ah
en s
Ġ q
emb angan
Ġka um
ĠR T
o uld
Ġ1 3
Ġg ambar
Ġv ideo
Ġc epat
Ġtr ans
i ght
angk at
Ġb ar
ĠA da
Ġberd asarkan
Ġter p
ec h
Ġsb b
ĠD alam
Ġb arang
* *
Ġd uduk
Ġtu j
w ay
Ġseg ala
aa a
m g
Ġmeny atakan
ro w
ana an
uk ur
Ġb aca
ĠR p
Ġk ira
Ġl g
et er
ĠM in
elak a
r es
t em
ver y
Ġt ok
Ġp ilihan
ĠS o
hid matan
ĠMoh d
Ġju al
k s
Ġwh o
Sela in
i g
ĠJ abatan
ib atkan
Ġmin yak
Ġm ul
ĠN o
Ġker j
ĠM aj
uk ar
D A
eh e
Ġ1 6
ĠT un
ĠM ak
Ġber ikut
il angan
Ġj er
Ġke w
Ġs uatu
Ġap p
Men urut
ĠAh mad
Ġka edah
Ġs itu
in si
Ġmemb awa
Ġp ed
p or
ind u
Ġti ada
ĠB ER
b an
Ġb ikin
ind a
Ġy e
P r
y e
Ġi f
ĠIslam ic
1 5
Ġser ing
Ġm ew
Ġ1 7
Ġw alaupun
Ġpeng h
ing s
at uh
O S
Ġs yarikat
I P
d ah
Ġterb aik
k n
und ang
Ġtem an
Ġt urun
Ġsed ih
Ġf ir
Ġa yam
Ġmin um
it ter
ast ikan
ĠE n
Ġb ur
Ġr em
ant ung
ĠM ar
iti f
al s
Ġth en
t t
uk um
o ol
Ġh ubungan
ur ang
Ġpas al
ud i
O T
ow n
Ġh er
ĠS eb
z ah
enggan u
op i
ĠPer t
Ġd ong
Ġ im
ag ia
Ġb ilik
j ak
Ġd lm
Ġor gan
s er
i ap
l ine
Ġw ilayah
A s
Ġmaklum at
ĠA S
f i
Ġd ata
M as
at ik
Ġsus ah
ol d
O K
amp ir
th er
el idikan
etah uan
Ġ20 20
Ġter ut
ro p
id ik
as anya
Ġla t
Ġb elakang
ĠS aya
ah agian
ek i
1 4
Ġz aman
Ġter lalu
in ar
A d
uk ul
N ak
ur kan
j awab
Ġku asa
Ġaw ak
un y
Ġh uj
A p
w ai
ĠAm er
ad e
Ġs ana
Ġar ah
Ġ: )
eker j
yak it
ĠIn i
Ġtak de
Ġgun a
ong k
N amun
ĠR e
Un tuk
ĠPen y
Ġ( @
yat aan
Ġk t
Ġmendapat kan
Ġmas ak
ĠUnivers iti
Ġ ide
Ġs al
ĠA ir
r g
ula r
Ġmula i
Ġd asar
ula u
Ġp anjang
Ġpenggun aan
Ġb is
Ġg olongan
c o
ĠS abah
ĠPer dana
g as
ap e
ku asa
alah an
K et
uc ing
Ġmemb er
ad b
ulis an
n n
ungg uh
is an
A U
a ir
ara an
Ġas pek
ur us
Ġbah agian
Ġper ub
k i
ĠM a
s el
emb aga
Ġpen uh
Ġc ar
Ġc uba
Ġ5 0
em en
aw i
Ġ ikan
w as
ak si
eg ang
Ġpem erint
c i
ĠIn g
k a
Ġp ent
1 3
ed a
Y ang
Ġb est
k ah
Ġmas ing
Ġr endah
Ġpro f
ap ati
Ġs ar
Ġl u
al iti
Ġkak i
G A
Ġwar na
w ar
Ġing at
Ġm ore
Ġmen arik
K er
ad ian
ĠInd ia
I H
Ġp elak
K ita
Ġp art
Ġs umber
Ġv er
al ian
E B
it er
b ar
Ġs emb
ul lah
ĠJ akarta
ĠAr ab
Ġm inggu
Ġdib uat
Ġbah wa
or eng
EN T
if e
re ad
os i
Ġindivid u
un an
at ur
Ġr ela
angg il
Ġb enar
ĠN ak
Ġ 01
ul i
Ġs imp
ay ang
E P
Ġj umpa
ĠM an
Ġmeny ebabkan
m ar
g al
per asi
ti ons
uj uk
ĠM elaka
O D
ap atan
ĠJ angan
us e
Ġbud ak
4 0
Ġt uh
ĠS ultan
Ġber n
Ġkep utusan
ĠM at
Ġsed ikit
ad u
b ah
Ġm uda
l l
lu an
f a
Ġdib erikan
ah ami
ek atan
ĠR aya
ent ukan
ing ap
Ġpar ti
Ġbak al
l ic
s anaan
M eng
M ereka
ekut uan
ĠT ahun
Ġf ac
ag e
anggung jawab
Ġc al
ant ikan
ĠR as
ĠAn da
ĠR ep
Ġg ini
E D
any akan
adah al
ĠA pr
Ġb ab
Ġj a
Ġs ia
ĠA c
Ġp op
ĠD AN
A k
ĠK ep
Ġp ul
Ġmem astikan
Ġth em
ĠD is
ĠK ota
Ġg ua
Ġum um
ĠM em
D ari
asil kan
elur uhan
Ġsu ami
ĠA N
Ġw arga
s es
Ġk l
ik ian
ud din
A C
al ang
angg ap
ula i
re am
Ġpend uduk
ĠU M
ĠW A
Ġm ot
vel op
D an
ah u
u anya
ĠJ alan
d ay
Ġper n
Ġt a
A pa
n er
Ġst ill
ant au
ad akan
Ġs eri
B agi
Ġre z
c ik
Ġh ilang
ĠK ita
Ġsebenar nya
ĠP ulau
A I
ent u
as h
Ġmenc ari
Ġant ar
Sela mat
Ġmenc apai
Ġaw am
Ġr ambut
i o
and ung
ĠK edah
Ġ2 5
Ġter ima
Ġth ere
Ġse si
z a
as ama
ok asi
ĠUn tuk
ĠB arat
Ġper j
D engan
it ed
ĠB ers
Ġw ere
Ġm arah
Ġm ut
Ġ ambil
Ġpeng etahuan
Ġag ak
ok ong
Ġb ec
r ib
o i
si on
Ġind ustri
ik um
ĠB el
Ġt en
ĠPer ak
ez a
ĠApr il
Ġb ekerja
Ġmel ibatkan
b aik
I s
ont on
Ġb os
ĠL i
ga wai
ĠTer engganu
Ġp l
Ġk it
Ġput ih
Ġp uasa
anc is
UN G
ĠR es
Ġum at
Ġb ot
at ed
op le
Ġtem en
ĠJ un
Ġkes an
Ġmah u
ĠM e
Ġun dang
ahw in
ĠW an
Ġ ~
Ġkons ep
EM B
Ġ201 4
ad em
Ġb uka
g g
tern ational
Ġkep ala
Ġw at
Ġked ai
Ġpro jek
ay ar
r ol
ĠP et
Ġli at
alis is
1 1
ad ual
anj ir
aw al
T AN
Ġ201 8
m y
Ġk or
ari ah
yar at
Ġkes eluruhan
s us
Ġof f
uh kan
ok ow
Ġh ahaha
er ta
Ġma af
Ġm et
lim en
c a
ĠK L
Ġtekn ologi
Ġtemp oh
at aan
am at
ĠKel antan
Ġl emb
ĠD ar
os p
uk tur
" ,
N O
Ġj d
Ġp ot
Ġ2 4
Ġseb elah
Ġmenj adikan
anj i
Ġperc aya
O leh
uj uan
Ġn ik
Ġ201 0
t ed
ĠY a
c k
D ah
ĠKet ua
Ġbant uan
Ġt ua
Ġcont oh
Ġmak in
ER I
ĠB r
up at
ĠAmer ika
Ġr t
Ġb angun
anc angan
ĠA p
y y
Ġke ti
a ut
anj a
iti on
ĠE ng
ĠCh ina
ĠD ewan
Ġj awab
Ġv ir
Ġk ucing
Ġdib eri
Ġresp ond
Ġb ilang
Ġper atus
ah ang
Ġsen ti
Ġtuj uan
Ġex p
Ġso al
Ġper l
Ġsed ap
Ġm ay
is asi
Ġh aha
h o
r en
Ġas al
u f
Ġp o
Ġc inta
Ġperk hidmatan
Ġsenti asa
Ġum ur
Ġ ang
ĠH arga
Ġtr ad
Ġl angkah
Ġberm ula
Ġp ulang
Ġbud aya
Ġakhir nya
J ika
Ġs amb
ĠS M
Ġfak tor
Ġdilak sanakan
el y
ĠO rang
Ġm andi
Ġkeper luan
Ġpas tu
Ġb awa
im e
Ġne ed
S i
t ih
elu arkan
Al hamdulillah
Ġon ly
uc i
on a
Ġmen t
ny ata
x t
Ġfor m
Ġmak s
Ġb odoh
en al
ĠK om
ĠK ab
s ur
B ila
Ġcom m
a it
00 7
Ġdil ihat
ab angsa
hat ian
ĠM ei
er h
J adi
Ġsem angat
ul kan
t as
ingg alkan
y um
Ġpin tu
S o
Ġsamp e
Ġpem impin
ri p
ĠSar awak
okow i
form asi
2 2
Ġh ampir
r as
ub ung
Ġ eng
ĠT ER
Ġ id
Al lah
Ġdi am
Ġc r
Ġpel uang
f aat
stit usi
Ġw ajah
at as
Ġj aga
ĠC ina
T I
la in
le c
ot e
t ing
Ġr is
ol og
Ġan y
Ġa ut
ingk atan
etah ui
Ġper asaan
eb at
ro up
alam i
b u
Ġo ther
aa aa
ul um
ĠPers ekutuan
Ġp ost
Ġs ome
Ġes ok
Ġt el
Ġf oto
Ġsej arah
Ġangg ota
Ġt k
Ġt unggu
Ġmak e
ew a
ĠA pa
ah aman
ant ar
h ar
Ġsela in
Ġ19 7
Ġsu ara
Ġmelak sanakan
Ġ ent
00 2
ation s
o f
K em
Ġrez eki
ĠB aru
er ang
Ġg ood
k amah
Ġen ak
Ġr ec
R E
ar uh
P ro
1 8
Ġt d
Ġb es
Ġser amai
Ġpan as
Ġber f
Ġin c
ri end
Ġis i
ĠM ala
ta in
Ġfil em
AR I
Ġt ip
Ġm mg
Y a
at hir
Ġwor k
eg ara
ela matan
Ġp ukul
Ġb us
aks ud
j ah
Ġd ar
w al
Ġ empat
ĠA L
ung si
Ġpr om
Ġd pt
Ġper ang
ing in
Ġj atuh
ĠMaj lis
Ġb angsa
enting an
am atan
Per t
iv ers
r al
Ġac c
Ġberb anding
ĠD a
agaim an
ĠA KU
Ġmas jid
Ġs uruh
r r
amil y
I C
ĠB uk
la s
Ġc ab
Ġg oreng
Ġdiken ali
Ġp usat
ow er
l em
at uan
imp inan
Ġpas ukan
k h
ekerj aan
Ġd ay
g et
Ġpand angan
Ġ qu
ĠAl i
ĠB ukan
Ġth ink
ent ang
Ġmod el
ik m
ib u
ĠPr esiden
Ġn ew
Ġmer ah
Ġd on
Ġlat ihan
Ġs abar
Ġh im
agaiman apun
Ġfir st
or k
ĠPer ancis
Ġselam at
lis h
Ġdij alankan
Ġb antu
ari an
ĠS en
ir anya
Ġr et
r ak
Ġpen yakit
amad han
Ġt eg
Ġd ag
i q
Ġsen ang
Ġd eh
O P
in al
Ġmur ah
l and
ĠT e
ĠM ac
Ġe very
R I
Ġpen er
ĠP in
Ġperub ahan
Ġto p
1 7
ĠT uhan
ĠAs ia
Ġanj ing
Ġmeng had
Ġ. ,
u alan
Ġj i
ili on
r asi
o und
Ġbag us
ing at
d an
Ġg ot
Ġpeng en
uny i
Ġ aman
Ġmemb aca
Ġstud y
ĠD ah
Ġab ang
Ġk as
Ġw ujud
Ġf aham
a q
M em
ump ah
ĠK o
ala k
ur at
Ġ* *
app y
Ġas as
Ġterj adi
A YA
od e
Ġsep anjang
ĠS ri
U AN
amb ahan
ĠU s
b ang
ĠJ aya
ej abat
Ġc ap
Ġle ar
Ġmeng ur
Ġh endak
Ġt ep
Ġh el
ak ai
ear ch
ĠR ah
Ġte ach
Ġpol is
ĠSela tan
Ġwh en
ĠG r
est asi
Ġs orang
ĠR aja
Ġt ik
kan ak
Ġc ik
Ġar t
Ġit s
ĠT idak
osp ital
ĠT uan
Ġc ons
d apat
d ua
os a
Ġam alan
o lak
Ġd ak
Ġk adar
Ġpe ople
ĠI S
ele s
Ġk isah
Ġse gi
Ġc am
elas kan
ud ukan
Ġso alan
Ġt ubuh
Ġk ota
ĠJ ep
Ġpeng alaman
ĠB esar
ĠM er
Ġ2 2
ĠM es
k en
iaga an
Ġek s
ti ve
Ġb od
ad uan
Ġk ac
Ġm al
d h
Ġc or
ĠD e
engk ap
ala l
Ġok ay
i um
Ġs at
anj ung
et ik
Ġis t
Ġf it
I B
P A
Ġkan ak
Ġf e
as is
ĠM emb
ama an
p en
ĠJ er
Ġt gk
Ġj ah
Ġg w
ĠO r
Ġdem ikian
Ġh itam
sa ikan
Ġseg era
Ġberb eza
ĠTim ur
Ġin v
AR A
c om
r ik
er an
un uh
t w
Ġala t
Ġ2 1
Ġper anan
ĠI m
h y
u z
ĠF eb
ir im
Ġperk embangan
ar ap
Ġp i
Ġga b
Ġj abatan
Ġg ener
K AN
Ġs ok
Ġb agaimana
kw kw
Ġmeny ediakan
Ġmem ilih
Ġdem i
a il
Ġa f
Ġg et
Ġd ri
as ikan
Ġl ima
or g
Ġs ch
Ġr uang
Ġber apa
ĠJ an
Ġh and
r aj
Ġj awatan
ik ulum
Ġj gn
ul l
Ġtert entu
Ġbay ar
ON G
hh h
ac t
Ġt weet
6 0
Ġ amb
ĠU N
re at
Ġya a
Ġn ow
ĠA t
Ġgu ys
emb ang
ss alam
K e
Ġhi gh
ĠUM NO
Ġman is
Ġcon f
i es
Ġt ele
uh u
am in
201 9
V E
Ġst art
Ġb apak
ĠK ec
ĠS e
Ġh ukum
ont oh
Q uran
ub ungi
Ġla st
al k
Ġso lat
as s
Ġab out
Ġbek as
Ġterd iri
Ġken al
ak ala
Ġsem oga
Ġga ji
ĠP AS
E H
t y
ĠR akyat
ak e
Ġp ap
us h
I I
ĠN or
Ġmen ulis
Ġc m
K ami
a use
in aan
Ġun ivers
Ġla a
Ġkay ak
K es
Ġperk ataan
u atan
Ġs eng
ĠK au
Ġbah aru
ingg it
2 1
Ġng gak
ĠT aman
is e
ab u
Ġg ad
al im
â Ģ
Ġp elajaran
Ġmen urut
ĠSem oga
ĠPar limen
an nya
Ġrespond en
Ġb ener
and ang
Ġbo la
Ġb ilion
Ġber l
ĠIb n
em a
um en
ĠAb u
Ġw kwk
uk ai
p ir
Ġter akhir
Ġb apa
il ing
uc k
Ġb ank
ĠS ingap
eli gi
O rang
Ġdi la
Ġp ekerjaan
ma il
o a
ih kan
ub uhan
Ġy ear
ĠS ungai
H ahah
P em
was ta
Ġmeng atakan
Ġsamp ing
Ġken yataan
Ġd ur
lik asi
Ġc all
emp atan
rah im
ow o
velop ment
ia ya
ate gi
ĠMah athir
h ari
ĠS k
Ġt epat
ĠAn d
mas ing
Ġp ekerja
Ġ ula
Ġmer asa
Ġla ut
Ġ2 3
Ġc la
Ġse ter
aj uk
ĠI P
Ġtu gas
T S
Ġk opi
B ukan
insi p
Ġb ack
Ġber ubah
Ġ200 9
ĠU tara
Ġsa id
Ġla mp
t on
Ġman akala
amp ai
ĠPer k
u gh
Ġg ela
Ġkh as
angk ap
aw ah
ĠN ew
Ġs ing
R T
in j
Ġpos itif
Ġtemp atan
Ġs gt
Ġh ow
ĠT inggi
Ġh or
Ġtr y
Ġn angis
ĠL eb
ar ak
P M
ĠJ adi
ul it
Ġpelak sanaan
ep as
l ob
E W
Ġ ali
ĠP H
c aya
Ġb ir
Ġs ib
H al
Ġterl ibat
2 5
ĠT ekn
adb iran
t ikan
Ġm eh
Ġy uk
n ot
Ġd engar
Ġbeb as
Ġsik ap
er ita
Ġ, "
erl ukan
Ġkew angan
Ġdi ambil
Ġdis ebabkan
Ġkak ak
Ġmenj alankan
le bih
es anan
Ġl ang
" )
and ungan
Ġm ilik
Ġ201 7
uala ikum
Ġmot or
t g
ĠM us
ut ang
Ġsh ould
am s
f ore
Ġe v
Ġuj ian
ula si
Ġr ek
Ġp ur
Ġas ing
Ġt uk
Ġkep entingan
ore a
S T
b e
Ġdi anggap
n is
Ġs he
ech n
Ġtw itter
un i
ec ah
ĠP ahang
AM A
af tar
uc u
Ġis teri
op ee
Ġak ibat
Ġdes a
Ġmenj aga
Ġm unc
le t
ĠTan ah
Ġr akan
Ġmem erlukan
Ġl ink
Ġseb arang
ĠA w
k e
Ġp ilih
Ġmem ahami
Ġ4 0
b i
Ġare a
o in
K M
Ġd ek
ujud kan
ac e
Ġten aga
Ġcon c
ĠN asional
Ġsem alam
I AN
A r
ĠK ampung
ANG AN
im u
ar in
Ġseb ahagian
Ġb anjir
1 6
Ġse e
angan i
Ġ201 3
ĠP usat
ĠB i
S ed
em uk
K enapa
Ġn as
ok us
Ġter c
Ġf amily
ik s
Ġseter usnya
Ġkhus us
Ġr u
s app
Ġmen inggal
Ġb ro
Ġla w
ĠE duc
O H
lek tr
ĠS al
re en
ak t
n t
4 5
Ġkej adian
Ġ uc
Ġ201 5
E G
ele saikan
Ġpeng urusan
Ġbah agia
Ġw ang
orm at
Ġkhus usnya
Ġbi asanya
Ġhuj an
umb uhan
Ġad e
as akan
ĠS T
ai z
Th is
ut nya
Ġmemb entuk
Ġl anjut
ep er
and u
Ġberj alan
ut er
Ġmen ang
ot el
l ang
Ġle wat
Ġo ver
ĠK ed
Ġbe en
it s
ati ve
Ġsek tor
ĠB andar
b at
Ġpem ain
ĠK u
m ur
gi atan
Ġbah kan
T idak
ĠK ami
Ġlap oran
ĠS ej
Ġc ol
s et
Ġin stitusi
Ġmengh asilkan
Ġk adang
Ġdi ff
Ġm ark
en uhi
f r
Ġdah ulu
4 3
Ġl ife
K ar
Ġtah an
Ġem as
Ġ201 2
j ana
Ġmela yu
ĠC o
ĠS yarikat
Ġkes ihatan
t en
U P
Ġkeb anyakan
ĠB atu
Ġs ila
Ġm b
Ġ201 6
Ġmeng alami
Ġsen i
upat en
k r
Ġkes elamatan
Ġlak i
Ġ end
EN D
ĠPro gram
Ġpend ekatan
w n
ap aian
sy en
om en
os s
esi gn
s ek
ad angan
uj i
af i
Ġw eh
Ġr inggit
Ġpern iagaan
et y
Ġsk rg
Ġmunc ul
ĠL e
Ġs uk
U H
ĠD unia
any i
7 8
Ġmem as
Ġb unga
ay at
ĠN ur
Ġber usaha
ab il
Ġper p
vi ew
Ġperb and
id ah
Ġde f
Ġstud ents
Ġe ff
Ġl ihat
ak i
er d
9 9
I t
Ġpem ikiran
Ġas li
aris an
Ġkur sus
Ġter nyata
Ġf ree
Ġcal on
ec k
am akan
amp aikan
Ġp ub
ii i
Ġle tak
ind ak
ĠBuk it
ĠB h
om m
olog y
S t
Ġg roup
n ik
ĠR am
p an
Ġm ar
r on
Ġhad ir
v ing
Ġsah abat
Ġb en
el an
Ġmin at
Ġmus im
ru ari
Ġper hatian
Ġm ob
raj aya
alan an
2 3
la r
Ġgi ve
Ġus ah
ger is
Ġj en
ind ah
ik h
il d
Ġpela b
Ġber si
ĠJep un
Ġh utan
et apkan
g o
Ġberb agai
Ġl ong
ele pas
u ga
Ġem ang
m urah
Ġke ku
ĠH aji
Ġc k
ph one
ĠMoh amad
Ġdim ana
um at
Ġd uk
lam at
Ġ emp
A ssalam
amp ur
s ama
Ġked udukan
ĠM od
Ġe ven
id i
Ġter uk
ĠE k
ger ak
ut e
ĠAh li
Sem oga
Ġr m
Ġkec amatan
Ġtrad isi
u ara
ur angan
Ġter pak
Ġp ay
Ġpas angan
Ġ2 7
Ġver y
Ġk m
Ġth an
ila ian
Ġj g
Ġbay i
K eb
Ġf i
ump ul
udah kan
Ġ2 8
Ġin tern
Ġmaks ud
ik u
Ġb arat
Ġd arah
p ing
ic s
ĠD ari
ĠK amu
ent ara
ĠJ am
U D
ĠIn s
Ġk ahwin
et ul
s on
Ġsur at
ĠG uru
J om
Ġs ains
ah aya
untuk an
or ong
B aru
Ġpro v
ĠC on
Ġ19 6
Ġhar ta
ĠPin ang
z e
ĠIng geris
alik nya
y yah
R M
ĠS ur
ol l
Ġla mb
ĠP K
ta gram
at uran
is ang
ti an
imp i
' t
Ġmemb angun
b um
Ġti ap
Ġ urusan
Ġm ed
YA AN
c s
led ge
ĠK am
ri pt
Ġber ter
Ġf ood
Ġd om
AN T
Ġr indu
Ġpet ang
s ai
Ġla ri
Ġpend apatan
Ġkap al
Ġn orm
Ġmend apati
af s
Ġbaw ak
Ġ201 1
W alaupun
h al
A b
Ġlain nya
ement ara
Sek olah
Ġmen teri
Ġpe gawai
ĠY ANG
Ġd own
Ġk ang
Ġga gal
Ġun t
Ter dapat
Ġak h
ys tem
le ase
imb alan
Ġm alas
Ġketi ga
u ari
Ġch at
ĠRas ul
Ġterut ama
r ed
ist ik
AS A
Ġterb ang
Ġt as
Ġf ikir
Ġp okok
ĠJ av
ĠMas jid
An tara
Ġmener usi
ĠI t
ĠIn ternational
Ġdi si
it kan
o on
Ġy akin
us s
Ġtent era
Ġsh are
m e
Ġud h
end ang
ĠAbdul lah
Ġ uk
Ġ2 6
Ġsed ia
Ġsus u
Ġhar ini
Ġt ud
Ġs wasta
ara i
Ġre ad
w i
h ip
Ġdir inya
aud ara
t he
Ġh ij
Ġpemerint ah
Ġp ant
Ġt angga
f t
d ag
Ġt ol
Seb agai
ok lat
ĠS ed
in s
Ġp ad
ĠSela mat
Ġpenggun a
Ġkerj asama
Ġala san
ĠG o
T A
Ġc at
A h
a is
v is
Ġkeb angsaan
Ġkar na
S ej
Ġm ust
ĠB oleh
er k
ĠD AP
ĠPemb angunan
Ġb g
ĠN i
om et
ĠIb rahim
ĠFeb ruari
r s
Ġs aw
Ġ( "
Ġun d
aw asan
ab ung
ĠN ov
ken alkan
ĠH as
Ġsem entara
Ġng an
as c
ela r
002 000
T M
M ak
Ġg am
f ul
K au
p ec
Ġs ud
v ed
Ġga ya
2 00
b aru
Ġpeng ajian
j adi
Ġter h
ĠR umah
ust om
ĠPER TAN
Ġaj ak
c ess
Ġmod al
AS I
em ahan
ĠP i
f or
Ġo tak
9 0
Ġber ita
5 5
Ġm il
t le
Ġditer ima
3 8
r et
Ġsemp at
ĠH am
2 4
ĠIb u
Ġpent adbiran
Ġide a
ĠSingap ura
ir ah
Ġpeny el
Ġker as
iti es
l uk
ara f
P as
Ġsi fat
Ġun it
al ikan
ez aan
ou gh
I tu
c ayaan
Ġm or
2 7
ĠY us
Ġterpak sa
Ġt eh
Ġj anji
Sem ua
ĠI ran
ti lah
E C
Ġk ut
ent ar
n al
us ter
2 8
f o
ol usi
end iri
Ġit em
Ġab is
Ġpr es
aj ak
kan d
S ebab
Ġgi mana
Ġs ab
m er
Ġs uch
ĠEduc ation
i ga
ag u
p s
ĠP e
um kan
S I
Ġk ab
Ġv ia
id a
Ġro ti
ikm ati
gun a
S ep
Ġkem as
Ġp adahal
adi ah
Ġpro b
Ġt angg
H ari
k ira
id er
in asi
Ġmemb ina
ĠS ab
ĠK a
ĠP al
Ġ uang
as aran
Ġwor ld
Ġmah al
la w
Ġm alu
Ġh ai
embaga an
Set elah
ga b
H e
Ġmem inta
Ġhad apan
L ap
Ġ api
ĠJ okowi
Ġe lektr
pak ah
S h
Ġ200 8
at ing
Ġla r
ĠW ar
asis wa
Ġr ah
Ġke ter
Ġl ip
y en
ir l
k aji
Ġc ek
per t
Ġb a
Ġh ehe
es a
Ġbur uk
un da
Ġle vel
ĠS a
ĠB ank
Ġ200 1
U B
Ġberk esan
O W
at asi
âĢ ¦
ik o
oleh kan
ĠS ub
Ġw ant
Ġk andungan
Ġb alas
Ġt ar
ĠE x
erah kan
ĠU S
Ġte am
Ġh ere
l ukan
ĠPERTAN YAAN
ĠT H
Ġkar ya
Ġw ay
Ġseh at
in kan
ous e
ĠH e
or s
af ah
C h
ĠJ awa
Ġr eligi
ĠPeny elidikan
ĠS ains
il em
im ak
Ġw ajib
O k
Ġlear ning
Ġaf ter
on i
at ian
s yar
Ġsek iranya
w ard
uh nya
ep an
er it
inc angan
p d
Ġatau pun
Ġkes alahan
anc ang
Ġpe kan
ĠKab upaten
Ġl okasi
ah h
Ġin st
ĠUnivers ity
AD A
Ġsele sai
int ang
ĠU t
Ġ ep
Ġdij adikan
Ġsem uanya
Ġs mp
D is
jek tif
S y
ĠJan uari
Ġdik atakan
uk i
Ġmer ujuk
al lah
Ġtak nak
Ġsok ongan
Ġterut amanya
ala t
angg ar
p o
d o
ai b
ĠE h
Ġpemb inaan
P P
Ġt ambah
B i
Ġed uc
2 6
Ġut ara
ec ara
ĠM AL
omp ok
ĠK ur
ot her
Ġak tif
Ġd eng
em ui
l ing
erh ana
ĠB e
Ġterk enal
Ġr eg
Ġr ight
k ar
Ġre al
Ġberh ubung
ele k
Ġmengen al
d asarkan
af t
Ġhar apan
Ġmaj lis
h ing
Ġh mm
Ġp s
Ġper is
r om
Ġpeny elidikan
ala gi
id ur
o ot
er al
Ġsep ak
Ġng ga
gun aan
aj uan
Ġpen at
Ġ2 9
Ġterb uka
Ġperj alanan
ĠU m
z z
ert ai
ĠAg ama
Ġmenghad api
Ġlamp u
ĠAz iz
Ġint o
Ġv i
Ġdo a
Ġd aya
Ġmen ingkat
M alaysia
asc ript
B oleh
Ġd ec
U A
Ġsi ang
ĠM ana
ĠJav ascript
Ġmenj elaskan
ahan an
and ungi
Ġpand ai
Ġdis c
Ġm ama
Ġh id
ĠW hat
ĠT ok
Ġlem ak
ĠK ajian
inc e
Ġbert ujuan
ĠAb d
Ġke giatan
inc angkan
amp us
Ġrem aja
Ġdr ama
Ġkek al
Ġp re
Ġn af
dag angan
= =
K uala
Ġe ar
Ġst at
Ġper ut
ĠM akan
Ġorgan isasi
iks aan
ĠS up
uru f
aw arkan
Ġdo ang
N i
elu arga
Ġter m
Ġh uman
Ġw ell
Ġp antai
ĠD engan
Ġf riend
and ard
ĠW ilayah
ĠIs mail
es h
Ġpas aran
Ġm uslim
ĠI tu
Ġdiff er
Ġst atus
ĠTer ima
K ep
at au
we en
ar ti
Ġm om
Ġap akah
Ġd kt
N ya
ak ak
Ġs un
S eh
Ġt anggungjawab
Ġb au
an ian
or ry
P emb
ĠB N
Is lam
f it
ip ta
7 0
Ġsesi apa
Ġdis ebut
Ġt eb
Ġb angunan
Ġ ur
Ġman y
Ġb ac
als afah
ĠR amadhan
Ġs ent
Ġd m
Ġck p
en angan
Ġs ungai
ĠP M
P end
Ġp us
Ġinf o
Ġc uti
Ġbec ause
Ġberas askan
un a
ubuh kan
Ġperband aran
Ġ6 0
aw ang
ĠN asi
Ġpla y
por kan
Ġantar abangsa
ĠY B
ud ian
unt ut
ela m
ek alkan
Ġseb aga
omb or
Ġstr ategi
j ect
Assalam ualaikum
Ġap e
Ġnik ah
ro ugh
ep t
AL A
Ġdap et
ant ara
AL AN
al e
ĠD ir
Ġsh ow
et api
ENT ERI
tak kan
Ġm angsa
b o
Ġbut uh
Ġh ang
Ġmend engar
Ġmin tak
Ġm alaysia
Ġk alah
ir m
O C
Ġberh enti
angg up
op e
el anj
Ġak un
u ali
N YA
d r
Ġpenc apaian
Ġmin it
Y AT
Ġbagi an
uti on
Ġk i
Ġmenj awab
Per k
Ġpend apat
Ġseh ari
lah kan
Ġsep en
ak wa
Ġtim ur
ĠN abi
Ġth ese
ir ing
m ah
ad ik
ok e
Ġl engkap
Ġan ti
Ġhar ap
Ġi ya
Ġpes erta
syar ah
ip ut
umb ang
enc ana
ir e
Ġre qu
Ġpemerint ahan
Ġt ek
Ġmem enuhi
Ġc iri
Ġmis kin
Ġmen uju
eg ah
ĠJer man
Ġ er
Ġm ost
lob al
imb ang
Ġsebaga inya
ĠB ud
b b
Ġpin j
Ġpr insip
ent era
Ġmeng ajar
ib adi
Ġk ant
ir ian
Ġras anya
s en
ĠSem ua
engar uhi
Ġm aju
Ġb abi
Ġp lan
es en
AM P
M a
m eng
ĠPut rajaya
Ġp ingg
In d
Ġdi adakan
Ġl ib
Ġs yarat
Ġ amp
Ġlah ir
Ġpers ek
Ġs ihat
ĠM ad
Ġdap ur
ud e
Ġper untukan
und i
am kan
Ġp engan
es ter
Ġsay ur
AT AN
4 4
Ġbers ih
em ua
Ġla yan
Ġc oba
Ġw ould
ĠAk ta
ĠA man
Ġm i
K W
ĠO R
S ementara
urun an
o alan
le ss
E E
Ġb ad
eg ori
Ġmeng andungi
b ut
Ġac ara
and ingan
ĠK an
ĠT ah
Ġh utang
Ġc l
Ġmemb olehkan
Ġseri us
Ġs aling
Ġg anti
um ur
a ih
Ġl og
Ġn ga
ĠK ej
Ġb aj
alak kan
hh hh
eh atan
Ġras mi
af e
e ver
ong si
ip t
AN A
Ġimp ort
j o
eri al
Ġn onton
3 3
is s
ul us
ni f
Ġpol it
Ġbet ween
ver n
as atan
Ġs ta
ast r
Ġe f
ĠKom un
ĠPro f
Ġt g
Ġk lo
Ket ika
le j
Ġtent u
Ġ" ,
H ahaha
AT I
it aran
Ġter g
Ġp ac
Ġth ose
Ġb umi
z i
p ro
Ġb akar
T uan
Ġt anda
Ġab ad
Ġt aw
Ġni e
Ġmemper t
Ġon line
H ar
ĠSep t
Ġmen inggalkan
ĠR az
Ġy ak
Ġtuk ang
Ġy o
Ter ima
Ġy ah
Ġt utup
es is
ĠB isa
b ack
Ġkont eks
Ġn a
Ġh p
em erl
Ġpen ingkatan
Ġmeng etahui
Ġis lam
Ġte kan
enc i
Ġdis ini
en ya
Ġlo ok
ent er
ĠN as
Ġh appy
ew asa
aw apan
en arkan
AG I
ĠB ahan
unc i
K amu
ĠA ust
Ġc le
o ve
Ġ200 7
Ġula ma
Ġkul iah
ul uh
8 8
oh ong
m ak
oc ok
Ġc ond
ĠTekn ologi
ĠN g
ob er
ed aran
ĠPeng ajian
Ġo perasi
Ġn amanya
v es
ĠS emb
Seb elum
Ġc oklat
Ġsib uk
Ġang in
kw kwk
Ġt un
b y
Ġs l
yu arat
er ing
Ġ! "
Ġt ambahan
us tak
Ġtep i
Ġberm ain
esi onal
Ġf okus
Ġp u
um ahan
Ġknow ledge
ĠS EM
em uan
ĠRasul ullah
Ġlo ve
Ġber ku
as nya
Ġm ag
Ġdan a
Ġb agaimanapun
eh at
Ġdiper oleh
Ġi g
Ġc adangan
our nal
Ġg ame
Ġmaj or
edia an
S es
Ġterb esar
Si apa
K ed
Ġsup port
ian ya
Ġmew ujudkan
ĠO n
ar ing
ĠP el
Ġbe fore
b r
ĠDa erah
p p
ĠAn ak
ĠB in
Ġas s
5 7
Ġken e
M au
Ġres earch
al angan
as on
Ġ200 6
Ġbi o
Ġop en
Ġsi g
c ial
H asil
Ġberp end
lek si
Ġt ulisan
ic ara
M aka
Ġker tas
Ġsed ar
ĠAc eh
Ġbersi fat
Ġb or
1 00
Set iap
ĠM EN
ej ut
v ice
tu al
T ER
Ġsch ool
Ġmemb uka
at or
ĠS el
ter a
Ġres ult
K alo
ti ba
ĠB ila
ĠN ajib
Ġo ur
os ed
ju angan
Ġkemud ahan
uk ung
ang e
Ġk ad
Ġpel anc
L AH
3 6
ĠI I
ump ang
Ġber usia
ain kan
Ġberh arap
Ġl oh
Ġdiper lukan
em ukan
Ġa z
Ġc our
l us
uster u
K L
Ġag ensi
Ġ: '
ĠKer ja
ĠD M
ĠS atu
Ġat t
anak ala
Ġkit ab
Ġth rough
Ġmeny elesaikan
C T
ĠF ak
Ġman faat
f ah
Ġperb ezaan
ĠK enapa
Ġk ond
Ġto o
ga in
Ġ200 4
ĠA M
K ajian
Ġkam ar
ug erah
Ġp al
Ġp isang
al itas
Ġn on
em an
ung kan
ĠT engah
Ġre f
G I
H H
S elepas
Ġle pak
ĠMah kamah
om a
ĠSept ember
Ġpem er
on y
Ġt arik
AN D
K atanya
Ġl uas
Ġber per
ahah aha
Ġun der
.. .
J A
Ġr un
in ess
Ġmer angk
ĠM ENTERI
ay an
Ġa v
Ġmen entukan
ungguh nya
Ġla yak
Ġus ia
Ġs ukar
ĠSem inar
Ġmut ualan
Ġ3 1
ip as
ula kan
Ġb row
um aat
Ġker ing
P ER
Ġmen ambah
ĠSy ariah
Ġr i
Ġtak e
Ġsitu asi
il ity
j ur
elah irkan
Ġmen eg
Ġa q
ĠB at
ĠB ar
t ah
Ġpen ulisan
usah aan
ĠDat o
ĠS H
Ġcik gu
y ukur
S atu
eb ook
ill s
Ġunivers iti
ers t
Ġkur us
Ġind ah
ee e
Ġt enang
Ġmen angis
Ġr est
Ġad min
9 5
4 8
Ġsem ata
g os
er usi
Ġmeng aku
Ġcomm un
Ġus e
3 5
rit ish
ĠB agi
Ġal bum
en aran
Ġf in
ind onesia
Ġb la
Ġw ah
Ġm uk
ak kan
ain an
ta z
Ġh uruf
ĠF ac
b or
Ġkem atian
Ġp ah
Ġprob lem
Ġad anya
Ġh at
Ġtik et
Ġh ospital
on ik
am ak
ĠS es
B anyak
Ġt ukar
Ġkeb aikan
oleh an
ĠTr ans
t au
F or
Ġmul ut
Ġseb ulan
ĠH ad
ind ungi
anc arkan
Ġkac ang
ĠP h
H arga
ĠD asar
imp an
Ġmeng eluarkan
Ġ ec
t inya
os k
ĠA B
Ġsp ec
umb angan
a un
Ġmengur angkan
Ġng er
ib le
apat kan
m ata
Ġpeng g
UM P
Ġber i
Ġm impi
Ġk re
or a
ah asa
Ġberas al
Ġj oin
Ġmengikut i
Ġbab y
Ġdib awa
anj ian
amp uan
emuk akan
Ġbert emu
Ġpert anian
Ġ _
Ġp uas
Ġle b
ur na
Ġdid apati
pir asi
im ana
erint ah
ik el
ĠT a
angg u
Ġel ok
Ġbern ama
Ġkomun iti
enc es
Ġb ilangan
Ġb uang
Ġmen ya
ĠNov ember
Ġp anggil
ĠPol is
Ġt at
Ġtw o
en j
l ok
ul ti
Ġla ku
Ġj arang
ong s
ĠK orea
Ġdi had
Ġ200 0
ĠP EN
Ġfe el
Ġcla ss
Ġh ebat
Ġber ani
Ġkej ayaan
us un
min at
im ah
Ġment al
Ġkeku atan
Ġter asa
adem ik
lek s
Ġr ed
y ung
Ġseb aliknya
lah an
p ut
eng ok
Ġle g
Ġc re
im in
Ġberm aksud
Ker ajaan
ĠEk onomi
M in
P ers
ĠIm am
Ġs anggup
en e
Ġc ustom
Ġtid o
Ġmen unggu
re ak
Ġwe ek
Ġk ain
Ġs ystem
Ġs ame
Ġket ua
ĠJ ika
Ġd at
f on
om ong
angg an
s k
il and
Ġte ori
Ġr apat
Ġle ad
r aya
9 6
r b
Ġkec ik
Ġbes ok
ĠPer l
Ġsah am
Ġper form
ĠL ap
Ġji wa
ĠR o
Ġku aliti
Ġperb incangan
5 00
n ess
Ġc he
al th
ĠC or
ĠPen ang
B N
S alah
uk aan
y le
lebih an
M anakala
er as
Ġf at
Ġdik eluarkan
ĠS un
Ġind onesia
ĠB ur
ab owo
ed ar
y ou
Ġt ingk
g ement
Ġlap angan
A F
Ġmeng adakan
Ġs audara
ĠT indakan
Ġkeh ilangan
ĠS ya
ĠM au
om o
h az
g anya
Ġlemb ut
Ġen am
Ġlem ah
.. ..
ĠF at
ir on
Ġali as
ĠKar ena
am ar
c c
Ġmin uman
Ġmemb eli
Ġm ade
Ġt y
Ġp ower
Ġm elahirkan
amb a
Ġ200 5
ĠB ritish
P K
Ġdis ediakan
Ġpen ilaian
Ġperb uatan
Ġl ist
ĠH AHAH
Ġpas ar
k ip
Ġsig nif
lin ik
Ġh m
Ġset ahun
alays ian
S alam
ter s
Ġs w
el uk
Ġmob il
n d
ĠIn stit
ĠE d
M es
ĠM AS
ĠJ l
ĠT ur
Ġpak aian
isi on
Ġem osi
L E
ĠTer bang
Ġkela pa
Ġso cial
il u
ĠB ag
ĠM y
Ġt imb
k alau
Ġkos ong
ĠO kt
Ġde velopment
im al
engg ara
Ġju alan
ĠY g
ent al
d ia
y ik
Ġg eng
uu u
M ela
Ġsepen uhnya
ĠG er
ĠH i
ond on
AL AM
en ek
H ai
Ġj emp
y id
Ġbat ik
ĠS ah
ahw inan
ĠW ah
Ġp ri
ĠS p
aj ikan
Ġc ur
Ġmat lamat
ĠT i
is u
ĠAn tar
Ġt amp
em as
B uat
AK AN
Ġkeper cayaan
ic t
m n
ĠRah man
I ya
k at
yat akan
ak na
um umkan
ender aan
in er
Ġdip ilih
Ġbuk ti
n am
law anan
ĠM el
7 7
Ġnasi b
eg itu
Ġkomun ikasi
eb erapa
Ġlak ukan
Ġre ally
ha iland
Ġs kin
lu ar
Ġdag ing
Ġsed erhana
ĠH idup
Ġstr ess
astr uktur
Ġme an
Ġ ulang
up anya
ĠB as
Ġhahah aha
Ap abila
Ġ200 3
eles aian
at ure
Ġf ull
Ġs ya
B M
Ġin san
Ġd adah
Ġb and
ad ilan
Ġg k
AR AN
ĠJ ulai
um e
Ġd eg
ay akan
anc ar
Ġgi gi
ĠWan ita
Ġet nik
Ġberg antung
S er
Ġpert umbuhan
Ġp ejabat
w itter
8 0
Ġa gain
Ġh alal
ĠR AK
ĠW ak
anya an
Ġas k
Ġc ew
Ġmeny okong
p et
r ian
Ġpat ut
Ġs umpah
Ġbel anja
Ġg ula
int aan
ap er
ua ge
P S
P ol
Ġc ukai
d n
on o
ar akan
ĠL at
Ġch eck
inc ang
ĠT imbalan
Ġg el
Ġbert indak
ĠM o
H i
Ġd ll
aw ay
isi atif
Ġ ub
om or
Ġdi e
T ah
Ġtd k
oh or
elaj ari
il angkan
ĠSi apa
em e
Ġr ingk
Ġpers oalan
Ġmen ikmati
ĠMen engah
Ġm ov
Ġr aja
d ak
Ġsamp ah
Ġj ak
Ġb al
ad anya
s ia
ak h
Ġkont rak
Ġ ajaran
Ġdi orang
h ati
ĠT AK
ay u
Ġmeny el
n egara
et uju
on ya
4 6
Ġtekn ik
N I
ĠP ENG
Ġresp ons
Ġberter usan
Ġn ombor
angk utan
Y g
ĠP at
ĠSemb ilan
Ġfit nah
J usteru
elanj aan
c al
Ġl ingk
Ġdit etapkan
C ontoh
ĠS oc
ĠS EL
Ġsen s
Ġsud ut
ek ah
Ġk lik
Ġset uju
vern ment
Ġke lak
Ġk ah
ĠG A
ph et
Ġdib ina
ĠDis ember
Ġin str
ala y
Ġperang ai
Ġvir us
t o
Ġk un
Ġc ome
Ġya itu
Ġg ed
Ġberk embang
Ġk end
Ġpo int
i am
ĠPeng arah
Ġpen syarah
ĠRAK YAT
Ġtr us
ep si
Ġsebelum nya
Ġbod o
ĠK at
M an
ĠAs li
Ġm uch
Ġl iter
Ġmeng am
Ber dasarkan
im um
W alau
ĠB TS
ĠM ed
Ġt ulis
ĠA D
Ġberm akna
Ġ7 0
ĠHar apan
Ġs ol
ĠF or
ela san
y akan
Ġdi f
Ġsep at
Ġmemper oleh
ĠA W
ĠK alo
Ġj awapan
2 9
ĠOkt ober
ĠP T
Ġpr ot
Ġap likasi
Ġap apun
Ġt uan
os ial
Ġlamb at
Ġt ump
Ġmen olak
ĠO N
ĠK on
Ġpr estasi
Ġf a
Ġex c
Ġpes an
Ġt est
ti wa
M emb
kip un
Ġgener asi
Ġan alisis
Ġst ory
ĠO gos
t api
Ġpend ek
ĠBah agian
Ġbo le
Ġt ungg
ad angkan
Ġkeb enaran
Ġbers etuju
ud ayaan
Ġmele bih
ti ce
Ġp ayah
ĠY ah
Ġkom en
ĠIN I
Ġf ungsi
Ġjer awat
it ahu
ĠH an
ĠT hailand
Ġbe ing
ĠH al
ar m
Ġby k
Ġd esign
UK AN
Ġ angkat
ĠG od
uas ai
Ġis tilah
Ġbeg ini
Ġun sur
Ġdapat kan
Ġth read
au an
ok rasi
ĠPer lis
S IA
Ġso ci
Ġ ajar
Ġp a
ĠInd ustri
er g
Ġpr akt
Ġal iran
el ian
am ed
ew s
L agi
angk ang
Ġsem inggu
Ġco unt
uk tikan
st ik
ĠK ap
Ġf av
eb uah
ĠF r
ĠAl hamdulillah
ak aran
ĠN G
ĠSh opee
Ġpe gi
d y
Ġhar am
ĠS ch
Ġt umb
ja zah
Ġbert anggungjawab
T an
ic ation
Ġmod en
006 5
ĠBer h
ĠAn war
ur al
Ġbet ter
ĠS ebab
Ġkel ompok
Ġs omet
ĠS I
lam a
Ġmenj ual
Ġpro duc
Ġsemp urna
id ent
ut h
ĠP ilihan
Ġm ant
B ers
S udah
Ġkes ehatan
ĠB IN
ub ur
Ġ era
ĠMen y
ri f
Ġw eb
elu aran
ral ia
ah agia
r ia
Ġrep ly
aj in
T UK
E h
ud ang
ĠC ar
it or
Ġmo tiv
ĠY ou
ĠH AR
up ayaan
5 6
Ġsing le
ĠAntar abangsa
Ġber gerak
ist an
il y
Ġ200 2
ĠPro v
imb angan
ay angkan
Ġprof esional
Ġs ukan
Ġmeny ebut
Ġsaw it
in et
Ġg as
ub lik
Ġber kuasa
e x
ungkin an
ĠK ak
Ġsen yum
Ġl ine
amad un
gi an
h od
Ġset ia
ĠI d
ĠN ama
Ġal lah
ah ari
Ġtak kan
way s
Ġper i
and angan
ent angan
awatan kuasa
ing ung
Ġberf ikir
Ġd tg
Ġm un
im at
ab aya
Ġinf r
Q ur
ĠSet ia
ĠK it
ot ong
Ġsup er
U U
Ġel emen
ĠL a
Ġo wn
I ng
Ġdur ian
et ak
uk kan
ĠM ereka
Ġmerangk umi
Ġle t
b ur
om an
Ġl ol
Ġmemb a
ĠB ak
enc y
uj ukan
Ġni at
e ad
au di
sh op
Ġb on
Ġsel f
Ġg en
AP A
Ġp eper
et ing
il li
M ungkin
Ġpes awat
Ġh adiah
Ġmeny ertai
e o
Ġud ara
Ġm ohon
N g
ĠD em
Ġne xt
ĠS umber
I F
Ġf iz
k es
T r
at eg
S ecara
ĠMas yarakat
p l
ĠPi ala
An d
k ata
Ġp eg
ĠB uat
Ġpers onal
ahan kan
Ġ3 5
Ġpelab uran
ut uskan
Ġmu z
Ġd osa
IS AN
Ġterl ihat
Ġwh ere
v an
Ġpeng aruh
at is
Ġr ak
b le
ĠM ay
Ġdib uka
Ġmelebih i
ĠB ab
al in
Ġmen entang
int ah
er aan
en yum
y er
g ar
eh ehe
Ġhendak lah
j in
Ġund erst
h u
Ġmen engah
il la
Ġs umbangan
ĠK U
Ġt ot
fer ence
eb ar
one y
Ġsej uk
el it
k au
Ġz akat
Ġc ase
ĠT p
ĠP ada
Ġk enderaan
Kar ena
ĠPer b
ĠP ay
Ġkur ikulum
ĠI a
Ġph one
u aian
um iput
Ġt emb
B uku
Ġb unyi
Ġku ota
Ġberb uka
Ġab ah
Ġik h
Ġeduc ation
Ġr os
Ġpen ulis
k g
et an
4 7
ĠT V
i ence
ĠR os
P N
on an
ism illah
ĠS c
Ġng omong
Ġak ademik
c es
adi um
ĠM asa
Ġg irl
ĠC ik
ĠK ew
Ġsp e
Ġsela tan
s c
Ġd ewasa
Ġpak ar
M akan
Ġan al
Ġm ac
ĠC ol
Ġnasi onal
Ġsimp an
ir u
Ġpr em
Ġpr ac
le y
Ġp lease
ant as
k ut
m al
Ġbers yukur
i et
K K
Ġmeny er
Ġus ed
anj aya
Ġw is
Ġd orang
ĠPen er
Ġser angan
AY SIA
tak at
Ġc u
ĠH ak
Ġex per
ni ah
Ġbukan lah
alan i
Ġpand ang
Ġamb ik
Ġmen imb
Ġhel p
Ġbrow ser
Ġr ibu
v ent
Ġh ubungi
Ġstud ent
ĠP ub
j aya
Ġpeny elesaian
ĠF ollow
ĠK AM
Ġ8 0
Ġs isi
Ġpr esiden
Ġpersek itaran
itam in
Ġbuk ak
ou ght
ind ing
Ġse takat
s em
Ġbukan nya
amb arkan
ĠD EW
Ġmeng atasi
Ġcab aran
EMB ER
rop ah
g us
Ġkat egori
IT A
Ġ ianya
Ġper dagangan
Ġj og
Ġmeng uasai
Ġr ib
Ġg em
Ġwh y
Ġc ult
ĠB o
Ġper aturan
ank s
L eb
s ed
ut r
ĠSy ed
P T
untuk kan
Ġbo ok
Ġl ucu
ĠB EL
Ġwak il
i ak
Ġp aham
il o
ia an
Ġpar k
Ġper juangan
ai p
ub e
ĠB ut
int ai
Ġger akan
af ik
N asi
Ġh otel
uk uman
Ġk im
ohon an
is kin
ud in
caya i
Ġme ja
M A
Ġny aman
eta il
ĠP enc
Ġmes in
urun kan
m em
Ġj asa
ĠB u
3 9
el d
Ġyear s
Ġmeny ampaikan
Ġtert inggi
Ġpop ular
ĠE l
gr ap
Ġb ul
Ġpenj ara
ter aan
Ġper lawanan
Ġdil antik
ih i
ĠSt r
Ġmen angani
Ġkec uali
amp ang
r ama
anding kan
Ġg lobal
ik ap
or ld
el iling
Ġo m
in o
mm m
Ġco uld
et ap
M asa
Ġbis nis
Ġp ecah
ĠAust ralia
r ep
and at
t ir
sh ip
Ġtud ung
ar usnya
Ġg ar
id il
ĠE ropah
Ġt eks
out h
Ġ9 0
Ġmeng ubah
Ġantar anya
Ġbag inda
ĠIs t
ĠM uda
Ġperk ahwinan
Ġkon f
S H
ĠF il
Ġt ingkat
Ġc ampur
as at
Ġtok oh
d ate
ĠLi ga
Ġb eh
el ih
Ġef ek
od a
ĠA min
Ġam ong
ĠW P
Ġcan not
Ġkep impinan
Ġrep ort
al anya
Ġ0 2
Ġper h
Ġsi al
un ch
Ġp adi
Ġk ipas
ĠP D
iz ation
ĠSek syen
Ġso alnya
Ġas yik
ag am
u am
Ġbot h
ĠS EK
am er
Ġap alagi
Ġprom o
en anjung
at er
ic a
Ġjah at
ĠUN TUK
il kan
lo ad
Ġterle bih
ot h
ĠB uku
uk ti
ĠT enggara
gr afi
Ġpol isi
ĠS m
Ġpen erb
ĠI T
Ġg ol
M acam
p u
Ġdib awah
Ġneg atif
Ġlap ar
ĠPar ti
omb a
Ġket emu
Ġbert anya
um ent
Ġla wan
ii ii
ĠDar ul
Ġnorm al
Ġm on
ain ya
Ġkem ampuan
ĠC ent
ĠP ela
Ġmak na
Ġmeng emb
Ġsed angkan
Ġ4 5
ĠIn t
x i
Ġdij angka
Ġbas ed
Ġtangg al
Ġperb elanjaan
Ġ urut
Ġsi asatan
ĠUn ited
Ġkay u
ind ungan
P ak
b enar
umiput era
Ġdit emui
S S
Ġla man
A AN
Ġhai wan
oo o
ĠI l
Ġar ahan
Ġ est
at o
eb asan
AH AN
Ġmah kamah
ir ik
Ġuk uran
Ġmas ker
Ġmemp engaruhi
ĠL epas
Ġses ebuah
L epas
ĠMAL AYSIA
c t
en i
Ġaman ah
Ġintern et
Ġwhat sapp
ĠPak atan
Ġt gh
Ġsh op
Ġpinj aman
Ġi z
Ġker usi
Ġterb a
ĠMala ya
Ġar wah
Ġs idang
w aan
Ġkr n
Ġqu es
angg uan
Ġre v
Ġmengg alakkan
Ġdiffer ent
om un
ĠK AL
ay aran
as hi
Pert ua
Ġfil m
h en
Ġmen ilai
af f
D ulu
li ght
Ġgad is
Ġtr ain
Ġber akhir
emp en
Ġs alam
Ġm ood
Ġl engan
Ġp ikir
Ġ% )
ĠT as
ari f
Ġob jektif
g en
Ġkem ent
Ak hir
ĠP P
Ġf ound
Ġmeng an
Ġun di
Ġtak da
read y
A pakah
Ġr ancangan
Ġberl angsung
Ġtingk ah
Ġ3 6
id ing
Ġ:' )
Ġj in
p ar
Ġdiken al
Ġstr uktur
Ġsele sa
Ġw rit
ĠI G
Ġpel anggan
ĠM et
ula s
Ġs ince
p on
Ġ ama
Ġs ang
Ġint eg
Ġv al
ĠKes ihatan
ĠSek arang
ul ung
Ġcer min
Ġsar jana
iq h
ĠRaz ak
C C
ĠK lang
at es
ĠM ur
Ġn et
IK AN
Ġdak wah
iz e
en ing
ĠQ uran
Ġd un
Ġc el
Ġmew ak
us a
ej ah
Ġapp ro
ĠJ awatankuasa
t ok
ĠP ejabat
ĠM alaysian
h ab
Ġper ak
4 1
ĠL o
Ġk enc
Mem ang
Ġj angka
ĠS eg
ĠT ol
Ġr ele
Ġseb agaimana
Ġbek alan
Ġberd iri
Ġkem arin
amp ing
Ġku ih
s ok
sel f
iv il
ĠPert ama
ĠK r
Ġbant al
7 5
Ġad d
T olong
ĠP elajaran
AH A
od o
Ġ199 8
p oh
Ġsepat utnya
ĠDEW AN
le x
im i
Ġrequ ir
Ġkek urangan
Ġk apan
Ġinfr astruktur
t ab
Ġdef in
ad at
enang i
ĠM EL
ind ahan
ĠT ID
Ġkeb erk
Ġkement erian
as ana
r ic
Ġj om
Ġl im
Ġ? !
n ti
ĠO k
A IN
ĠL im
ĠE m
ĠS ay
: .
b el
Ġmembangun kan
ris tian
ĠT entera
ĠPerl embagaan
ĠProv insi
ĠP os
Ġr awatan
Ġj ud
Ġtimb ul
Ġmeng elak
Ġpula u
Ġkemudian nya
ĠA yam
unj ung
ac ara
O n
Ġk asi
Ġ5 00
Ġanak nya
Ġm ikir
ĠK omp
Ġpar tic
Ġst andard
an as
UMP UR
er j
ons ep
Ġtradisi onal
ic ial
la y
ee ee
Ġperm ainan
Ġs am
ĠB ant
ĠN anti
Ġst op
ĠS u
ut in
co unt
Ġgela p
Ġj odoh
pr es
haz ali
p ect
Ġinc l
Ġdig ital
Ġp ek
Ġn enek
echn ical
asil an
j angan
Ġ3 8
mur id
M oh
Ġmen it
ĠB ang
afs ir
ula t
H anya
ĠS O
ĠB anyak
Ġeng gak
ĠL UMPUR
Ġl ok
Ġd er
Ġr eb
Ġjen ayah
Ġ' .
Ġid ent
Ġmen yak
Ġt ab
unt ungan
ĠL aut
( (
b as
Lap angan
ĠKem ahiran
Ġm kn
tuk ar
ĠB I
Ġas et
Ġmele takkan
ĠC he
Ġalam i
Ġpert anyaan
Ġters enyum
omb ak
AP AN
j ian
Ġkej e
ĠI D
Ġdih asilkan
Ġpand uan
Ġdip akai
9 8
adb ir
Ġped uli
Ġj ob
es uaian
ĠPet aling
ĠPr ess
Ġper usahaan
Ġst ay
urn al
Ġmemper k
an n
ĠOr der
Ġt elur
Ġ angk
ĠA yah
Ġmelak a
ag ar
Ġc ocok
amp iran
Ġb enci
Ġbi g
Ġdip anggil
Ġberb entuk
Ġr endang
ak nya
Ġ199 9
per k
Ġbar eng
form ation
Ġtan aman
AT U
Ġdar jah
AD I
k adang
ĠQ ur
ĠP es
ad inya
Ġin isiatif
ov asi
AM B
inc in
Ġm c
s w
any ol
uruh anjaya
ik ah
ĠZ ain
Ġpers on
Ġsu asana
T etapi
ĠZ ah
Ġp ec
ĠS ukan
Ġs uku
U C
fit ri
ĠM asih
ĠA DA
end ing
Ġb ala
c iri
Ġb ed
Ġmewak ili
ĠW a
Ġs in
yak inan
D ER
ut ur
ĠN AK
ĠKew angan
Pen y
Ġr ajin
pec ial
Ġhuj ung
Ġbir u
Ġris au
enar nya
Ġb ingung
ĠJ om
Ġg aris
Ġb ib
n ow
ual ity
Ġlalu an
O B
Ġmen u
Ġl and
Ġhij au
int ar
ang nya
d un
Ġsec ond
ĠL agi
Ġ engk
Ġp n
ug as
Kem udian
m ed
ĠDi pert
ĠB akar
ĠL ab
ĠR endah
Ġd g
Ġseb aik
Ġp ort
ĠM B
Ġ) :
Ġkes edaran
Ġkor ban
Ġvir al
c are
Ġv ari
Ġj ur
Ġh ukuman
Ġberd ua
Ġmal em
ĠB en
ĠC omm
Ġw kwkw
b uat
Ġterk ini
ĠH ospital
ant aran
ward s
ikut i
ul usan
Ġt unjuk
Ġs iri
Ġak ak
imak asih
K ampung
Ġp lat
Ġk irim
Y uk
is ik
Ġc uri
Ġdi v
Ġib adah
ar en
tir af
Ġitu lah
ĠJ adual
af ir
ĠY A
Ġmem ulakan
Ġb eda
ĠT olong
Ġmem ainkan
amp ilan
Ġj ar
Ġke f
Ġak al
ĠC H
Ġpas ang
ĠS alah
ri g
Ġne ver
ad z
l er
Ġm ai
p eng
Ġcons ider
Ġg emb
ĠH ahaha
Ġb ela
elak i
ond ok
ĠPal est
A m
Ġmenj alani
orm ati
at usan
Ġdi w
M ana
Ġperp aduan
Ġkur ung
7 6
Ġam ik
Ġad il
ĠE ks
ĠS ci
S M
ĠD ep
Ġmah upun
ĠD ua
Ġl oc
M enteri
Ġlang it
5 8
ĠS udah
ec tion
Ġc are
Ġt unt
Ġter per
F ilem
Ġda un
et engah
ok o
r af
Ġw kwkwk
em ah
ala tan
Ġsek s
un sel
Ġk uk
c le
hat ikan
Ġker ap
Ġperm intaan
Ġseb ut
Ġhal us
Ġl an
Ġbos s
IT AH
0 8
ĠS osial
aft aran
Ġpun ca
Ġhar d
Ġmenimb ulkan
Ġber arti
O G
Ġpro cess
Ġakh lak
on ok
Ġf ind
Ġs apa
Ġseh arusnya
at h
av i
Ġmem andang
An ak
Ġla ju
Ġb reak
ĠPeng erusi
Ġmeny es
Ġras uah
and akan
Ġke g
ĠP antai
Ġal ways
Ġal ready
el uar
Ġdit ubuhkan
ĠPer ang
Ġch ar
er v
Ġtungg al
t ahun
ur uan
Ġup date
eg eri
Ġtr s
ĠL ISAN
aik i
ĠB ek
ĠBers atu
ist en
ĠP and
ĠTur ki
and angkan
g asan
Ġsel idik
Ġbac aan
Ġd ada
Ġpop ulasi
ĠC ity
U s
on en
al ur
ĠT witter
Ġseng aja
Ġ: .
th ing
aw ar
Ġo t
ĠS iti
ul k
R A
ĠA K
ol i
ed it
ĠAw am
ar apkan
B agaimanapun
Ġli ght
Ġpeng eluaran
ik tiraf
it men
Ġa y
Ġber asa
war na
Ġmer asakan
Ġj ari
Ġsub jek
Ġdiper t
ay angan
ĠW IB
ila t
ord ing
Ġla wa
Ġs ungguh
H aha
l t
Ġw omen
ta g
K ej
ĠM c
ĠS K
J adual
ĠG un
ĠS ula
Ġpem andu
ĠSub ang
ab uk
Ġtekan an
P osk
Ġdi min
Ġbert ambah
EMBER ITAH
wak tu
3 4
Ġmau pun
Ġmuz ik
l ib
Ġdi le
Ġdi al
angk it
ir st
ĠRep ost
Posk od
I m
Ġr ac
Ġmem udahkan
ĠE X
Ġp d
ĠK as
ĠC omp
ĠKh as
Ġper ancangan
Ġdik etahui
Ġsej umlah
ĠP elajar
baik i
Ġt aman
ĠE mp
Ġses ama
Ġpel ik
Ġd oc
Ġh uhu
Ġwat ak
Ġgr ab
Ġke upayaan
ĠL embaga
Ġpem enang
Ġn der
v iron
Ġpemb entukan
K a
idil fitri
Ġr upanya
f ood
Ġr ej
Ġmen utup
ov el
ir iman
Ġkes empatan
ot an
Ġuc apan
ent uh
o lat
Ġpal su
Ġl ancar
ĠAt au
c an
ak sa
Ġb esi
ĠG UK
viron ment
in ter
Ġperm ohonan
Sek arang
Ġtuj uh
Ġr a
ok a
Ġk unci
Ġdo es
il in
Ġnas ihat
q ue
Ġsah ur
k o
Ġsamb ung
Ġr oh
ĠK ela
Ġbers atu
ĠW e
Ġt v
Ġh amba
Ġmem egang
M asih
uu uu
Ġkomp uter
ĠPemb elajaran
Ġtump uan
Ġpemb angkang
ĠAn g
Ġbaw ang
s eb
Ġbay aran
3 7
ĠPK R
Ġc ent
Ġmen awarkan
ĠUm um
Ġs ure
us ak
Ġsekali gus
Ġmel ip
Ġmener uskan
Ġmemas uki
ĠN I
adi o
Ġdi et
Ġger ak
Leb ih
en y
ela mat
ĠMala y
S P
ger akan
ĠFac ebook
Ġpap er
Ġmor al
ĠS P
ĠMes ir
Ġver si
ag o
ĠB ANG
Ġber lak
ĠB adan
Ġs dh
ag ama
N A
em atik
ĠK ER
Ġo per
le e
Ġtermasuk lah
ĠS w
ip an
ĠMan usia
tu ally
iti ve
ait kan
Ġsmp ai
es si
ku an
Ġv s
Ġsh ah
ĠDipert ua
Ġper ibadi
ĠD ALAM
Ġh antar
as m
Ġb engk
eng ku
ĠS alam
ĠH asan
IN I
end am
ih ad
en om
Ġb elah
g uru
s ikan
asi at
Ġmen tion
Ġa is
ĠHas san
Ġteng g
ĠU k
Ġberh asil
Ġpar ents
ĠK P
ĠY uk
ĠH anya
int as
Ġpak cik
Ġm ad
ent ikan
M ah
Ġk ag
Ġs aiz
ĠBh d
O O
ĠLeb ih
ag ikan
ĠD AR
anc ing
Ġsp ir
Ġt on
r id
Ġs adar
Ġdib angun
ĠS uruhanjaya
Ġv is
Ġwor d
Ġwh ile
Ġg elak
Ġin formasi
tan ian
Ġbod y
ĠDe velopment
ist s
r t
uc apkan
ĠU T
Ġpemb elian
Ġlang uage
Ġm ind
Ġkaw alan
lu b
ĠL uar
ĠUn dang
ĠMa af
ĠMoh amed
Ġrela tions
n ilai
AA AA
ekn ik
ĠK im
Ġr ata
Sej ak
B ut
l h
Ġsej enis
Ġp adang
Ġvi ew
Ġkem ajuan
at her
Ġr um
ĠM u
Ġk g
Ġser vice
M alah
ĠD AT
anjut nya
ĠB and
ĠHi gh
] ]
ĠD ip
Ġperis tiwa
Ġpelak on
Ġkem ana
Ġmemb ers
ic i
ek aan
ĠP L
Ġc ina
ĠSab tu
ĠS E
k rip
Ġco ver
Ġab g
af iz
Ġm eter
ĠG a
ĠN a
Ġm n
Ġbu y
Ġgo vernment
ĠPers atuan
RE E
Ġpub lic
Ġf alsafah
Ġsk ills
Ġk ilang
re et
Ġkre atif
Ġp lak
Ġsek alian
emerl ang
fa atkan
b oleh
Ġse wa
im en
Ġec onom
em ak
Ġkem enangan
Ġh ib
Ġberb eda
Ġt apak
M at
end ol
ot or
ejah teraan
Ġsk or
Ġmemb ayar
ĠRep ublik
i ya
amb ang
Ġkef ahaman
Ġhari an
aw anan
Ġd ream
Ġmemb incangkan
Ġpla stik
ĠF ar
l or
end alikan
Ġdit ulis
Ġs d
Ġd oh
Ġuj ar
Ġmah asiswa
A z
6 6
Ġk ol
pek tif
ĠA fr
- -
utr isi
ĠK or
Ġfiz ikal
Ġdiken akan
Ġbot ol
Ġpl us
Ġput us
ac y
Ġk linik
Ġc uci
ing a
ĠP art
B eberapa
3 1
ĠBerh ormat
Ġf ar
Ġg angguan
anjut kan
k et
ĠK ing
T u
pas ti
Ġj ela
Ġkel ihatan
Ġpeng kaji
Ġj antung
L I
Ġmemb uktikan
M e
ĠIP G
Ġtr av
I b
ĠA y
4 9
Ġtip s
S aat
p m
th man
u asaan
Ġsek adar
Ġmem akai
ĠA mp
is ter
ĠN ik
E AN
KU ALA
angk aian
ur ga
ĠT u
Ġber minat
5 2
Ġj arak
Ġj ap
amb ing
ĠPeng urusan
Ġfak ta
Ġcour se
ĠS PR
Ġsi ze
Ġperub atan
Ġan other
D B
up uk
Ġdin yatakan
Ket ua
Ġdeng er
Ġps ik
ĠD esa
ĠPr abowo
k on
y n
ĠM or
iskin an
Ġhe ad
Ġkot ak
Ġperj anjian
C A
ENG AN
Ġper und
Ġke had
Ġcom el
ĠSep anyol
ĠI r
ĠH ARI
ĠJ enis
E F
K ementerian
N ama
ĠH a
ĠPe gawai
Ġak aun
Per nah
imb ing
K ata
Ġdi ikuti
ĠKh al
K u
aj ang
ĠY G
b and
Ġak ses
h or
5 9
er o
ikir kan
Ġsh opee
Ked ua
p es
ĠPut ra
Ġpot ong
Ġmod ern
ĠIt ali
am anan
ĠBel anda
ĠD in
ĠSet iap
ĠIn tern
Ġlingk ungan
Y e
Ġpres ent
Ġpac ar
Ġpel an
ĠH us
Ġberk ahwin
r in
U dah
Ġg etah
y k
U AR
ĠInstit ut
Ġb ohong
ĠIn fo
ri ed
ĠBah ru
ĠK M
Ġt uhan
Ġ ir
Ġdok tor
ĠS us
Ġ3 2
Ġmengam alkan
Ġo h
ti ga
W ah
v o
ĠS istem
alay si
Ġpem ilihan
Ġris iko
20 20
ĠM al
H ow
Ġdok umen
Ġlepas tu
ĠT anjung
G B
M aj
In s
O h
ĠS EB
Ġmeny us
l ement
ĠA P
Ġc uman
ĠAl or
ĠW orld
Ġg ap
ont h
ĠK UR
Ġp indah
Ġsi lam
en angkan
at al
K an
Ġmemb unuh
Ġdib ah
y g
ing inan
Ġkem ungkinan
Ġmem utuskan
ĠKed ua
AN I
K adang
Ġmet hod
ustak a
ud uh
Ġme ans
Ġmeng ekalkan
Ġb n
ĠB U
Ġpem ilik
Ġsoci ety
ĠB est
P el
Ġsemp ena
ĠA f
Ġdap atan
ĠJ ournal
Ġex t
Ġp m
ĠD o
ĠAn gk
Ġtet ep
ĠRam adan
ĠM ark
Ġtele fon
Ġkond isi
Hahah aha
Ġdo akan
Ġh y
Ġdij ual
r ong
D N
ĠH ahah
Ġsomet hing
Ġmeny umbang
am al
Ġset engah
hid mat
Ġmemb ah
Ġe ach
Ġstr ateg
d engan
o perasi
Ġun ik
el iti
man faat
ce ed
Ġdiper cayai
W e
Ġdila porkan
Ġbo y
at im
y ani
Ġt alk
Ġ >
ĠP anjang
ep et
Ġs ir
Ġmen ekan
ag ang
ĠEng lish
) )
C ara
Ġmelip uti
m emb
Ġw alau
Ġt araf
ĠM uk
sy ch
Ġini lah
Ġmenc at
Ġ199 7
u w
Ġse olah
Ġsep aruh
Ġob or
h luk
ĠA ri
og le
an ah
ok asional
Ġpot ensi
y es
ut uhan
Ġmes yuarat
M er
mas alah
Ġch i
eh eh
Ġbar angan
Ġberc akap
ik sa
Ġent ah
or n
Ġ3 00
i asaan
ĠAd am
Ġkerj aya
ĠEn d
Ġkeh endak
ĠPas ir
Ġmak l
Ġny anyi
Ġg amb
Ġmb ak
ĠA ss
Ġh us
Ġm ari
itu al
Ġm ala
Ġmemper kenalkan
ĠN amun
Ġst ok
ĠIs ra
mas alahan
Ġp egang
ro und
Ġpos isi
ĠBers ama
Ġn nti
ej ar
H AHAH
Ġkec ewa
S ampai
inc i
ĠP ustaka
ĠH aha
ĠM aha
s at
Ġpihak nya
Ġs isa
Ġb lm
Ġp ip
Ġdihad api
Ġto day
S ama
Ġgo jek
Ġkeb un
d om
Ġmeng andung
Ġub at
ĠF it
D ua
ĠP ekan
ĠM edia
Ġins tagram
atur al
Ġmeny i
Ġberf ungsi
ĠB AR
W hat
imp unan
j ata
N ah
Ġ199 6
emb an
um si
o ff
eb ak
Ap p
Ġl ot
Ġimport ant
ĠK ET
Ġgun akan
iri p
y anan
ak tor
D em
i ve
Ġper alatan
ga g
b itkan
Ġberpend apat
Ind onesia
Ġm amak
iaya an
Ġpla ce
Ġt amu
M ar
K I
emb ahan
s b
Ġdag ang
Ġkehad iran
ĠS umat
Ġo ld
ĠO tak
ĠSt udi
b ila
umb a
Ġberikut an
Ġke lebihan
id d
Ġke untungan
ant s
Ġad at
Ġst ate
ul ihan
Ġper asan
Ġdiper kenalkan
ĠY ork
Ġt ajuk
Ġkej ar
B ag
h ak
Ġcustom er
Ġkaw in
ĠA T
S A
p os
Ġsuk ses
Ġt itik
ES T
Ġr ingan
EM P
up an
anc h
ark oba
Ġk asar
In ternational
Ġtunt utan
ak lum
Ġmak cik
Ġmeng ut
Ġm ulu
A IL
Ġelektr ik
G a
unc ak
Ġg ara
Ġped as
Ġkonf lik
eb u
R es
Ġper lahan
uj ur
Ġs ate
Ġak si
ĠG R
ĠUt ama
ul uskan
EMBERITAH UAN
Ġf re
Ġbert ahan
m o
ĠS AW
la d
amb ung
Ġterk ejut
ĠK ata
Ġmeng kaji
ĠR est
Ġb end
Ġengk au
Ġtumb uh
it is
R asa
id angan
im au
ĠJ umaat
edah kan
Ġterb aru
j an
I VE
Th ere
ĠPro duk
id o
Ġmenj elang
IS A
Ġmem enangi
Ġl anggar
IN E
a iran
echn ology
Pro gram
Ġbers edia
Ġh ome
Ġdit ahan
ĠK EL
w h
Ġs asaran
ĠG u
l os
Ġmen emp
us antara
is ip
Ġn d
Ġs im
ĠM acam
Ġs low
S e
Ġteach ers
ah ulu
Ġd n
Ġteg ur
Ġev ent
Ġst yle
th day
Ġart is
l ike
kk k
f riend
alis asi
Ġdi an
Ġop ini
KW KW
Ġs ore
as ti
Ġke yakinan
Ġk la
ult im
ow ok
si la
da erah
b ab
Ġkes ian
Ġs n
Ġmeneg askan
v a
eg ahan
Ġan c
Ġmul ia
Ġber adik
ya Allah
Ġbeb an
Ġmempert ahankan
Ġdalam an
Ġkel antan
Ġt ag
ĠPro phet
ela yan
Ġbos an
h aha
Ġkun ing
Ġseg ar
lib atan
as ai
el lo
Ġn umber
G uru
Ġpen umpang
Ġbi jak
Sep erti
e or
ĠPer tanian
Ġket urunan
enom ena
Ġr ujukan
ĠM enc
Ġter ang
Ġteach ing
A ng
ĠM all
ys is
M P
Ġuc ap
uk uhkan
m acam
Ġnik mat
ĠAr t
Ġw s
Ġmel indungi
lah irkan
n ama
ĠS dn
g es
arga i
inc ip
Ġ199 0
as y
I su
Ġreligi ous
ĠF oto
Ġt l
Ġg il
od y
ĠJoh n
ĠDir aja
ĠR ed
ar ta
ĠM ari
k m
ĠB aik
Ġkel emahan
ec tive
Ġumum nya
Ġkomp et
Ġw ajar
Ġmajor iti
ĠB andung
9 7
Ġd rop
ĠK ek
O V
ar ed
ĠPR U
B ER
Ġ $
R e
An da
Ġmeng anggap
r aga
ent ak
all eng
P ener
un ter
engk api
Ġpers epsi
Ġper umahan
t p
Ġle ast
Ġpert andingan
ĠTan pa
Ġc ita
Ġsignif ikan
uat ku
ekut if
ing atkan
un ei
f e
Ġc ahaya
Ġret i
Ġist im
Ġf b
ep ak
Ġdi atas
Ġmen untut
Ġmas akan
Ġkela b
Ġelektr onik
B egitu
ak wah
Ġket idak
ĠS uk
Ġpenj elasan
Ġa ff
Ġny ata
ok s
ir ikan
u gian
Ġn ovel
Ġl ow
ĠM ul
Ġg ant
Ġi jazah
ĠU KM
Ġinter est
ic es
ook s
Ġmeng umumkan
Ġh ab
Ġs ubuh
omun ikasi
Y AK
as ing
ĠAk hir
up aya
v al
Ġrelations hip
ĠS W
j am
i y
ab aran
ĠO ne
ĠJ AW
pr ess
Ġmat ahari
Ġmus uh
T i
Ġh ist
Ġde velop
I bu
ĠL ondon
M uh
ad uh
ĠS he
ĠS ampai
s aya
ema ah
5 3
Ġb s
IR I
ih ah
ob i
id s
F C
ĠRes earch
ĠPerk hidmatan
M ur
apa in
ĠK ong
at ap
IT I
Ġp angg
Ġf ut
Ġevery one
l ick
Ġyak ni
Ġm s
ĠI mp
ĠP adahal
ĠKo lej
Ġcomp any
is tic
Ġd ont
Ġkes emua
Ġl ulus
ub ang
Ġpet ani
ĠSej arah
og or
Ġus ing
T e
arah kan
Ġkom itmen
ĠK en
angk awi
B etul
Ġpur ata
Ġto lak
k awan
Ġmeng awal
al il
imb ingan
6 7
Ġsy ariah
aik kan
Ġh app
Ġp ola
Ġh om
Ġs ad
Ġep is
p op
i TM
k eb
K A
ed ahan
ĠC ara
ĠL ee
elih ara
M od
Ġsemp adan
Ġdit ambah
ĠIns tagram
ali z
ear ning
f l
Ġbern ilai
Ġmem ohon
n es
an kan
Ġber ikan
Ġi i
Ġunt il
Ġbib ir
ĠL aw
Ġg reat
Ġket awa
ek si
Ġkang en
Ġd lu
Ġs op
Ġli ve
Ġb ekerj
Ġpen ubuhan
osed ur
if i
ĠC r
D I
Ġdur ing
Ġth ought
is y
Ġg t
Ġread y
m akan
Ġb eng
ĠA PA
Ġa yo
Ġkem alangan
usah awanan
Mela lui
ri es
Ġal ih
p ed
ain t
Ġtem a
asi c
l s
ĠP adang
4 2
Ġal tern
ĠKu antan
Ġb intang
B uk
Ġtrav el
Ġn am
Ġ1 50
Ġwith out
P ara
ro om
Ġk abar
ati c
ĠK umpulan
Ġwat er
Ġtot al
ĠAg ong
Ġpro per
Ġtak leh
Ġberh ampiran
AL AH
Ġd ingin
ingg alan
Ġkeb ajikan
ĠI kh
ĠC al
Ġth ings
k urang
Ġm onth
Ġmeng apa
om i
Ġp arah
s ebab
ĠK ok
Ġdri ve
Ġv ol
Ġkeb ebasan
Ġmenyel uruh
M ari
Ġan eh
Ġb anc
Ġconf irm
Ġth ing
Ġtp i
Ġmo ve
i lah
p is
ĠSh ari
Ġc incin
Ġpem ahaman
S el
Ġl um
ĠSet elah
ĠP ap
P H
ĠM ungkin
c ak
Ġber umur
pt op
Ġb ual
Ġperl indungan
Ġber operasi
c el
u angan
Ġunt ung
ĠB aju
ar ia
A la
Ġk ampus
ĠSup er
Ġn anya
Ġfac e
j en
Ġikh las
Ġpert emuan
Ġmenc egah
Ġsen eng
Ġg us
Ġgemb ira
erd ekaan
Ġpenerb angan
Ġd aftar
Ġla aa
ĠD ENGAN
Ġet c
ĠG ood
ud u
Ġmemb enarkan
Ġmengg ambarkan
Ġaw ay
Ġag enda
Ġk ind
Ġberj uang
Ġkeb udayaan
j il
ch ie
Ġbang ga
ĠT o
3 2
ahagia an
K h
ĠSi ap
Ġ3 7
ĠA R
oo oo
Ġtip u
Ab dul
ĠK anan
ĠO h
ĠPalest in
Ġsp es
Ġkej ap
Ġ5 5
ip s
Ġpenyel idik
Ġoff ice
Ok ay
at nya
Ġs ulit
AN AN
imb angkan
Ġf am
Ġber warna
Ġla tar
Ġn omor
kr im
Ġs ap
ĠAs h
Ġdem okrasi
imp ulan
AN J
Ġpeng undi
af ikan
ĠAl l
ĠM AU
Ġdim iliki
ĠM end
ĠFak ulti
ĠR E
Ġhanya lah
R ep
Ġk us
Ġt ulang
ams ung
le ep
ĠA idilfitri
Ġs orry
ti onal
Akhir nya
amp u
Ġkac au
en ak
Ġberj umlah
ĠMin yak
Ġbus iness
Ġo l
Ġpenj aga
d eka
Ġ eg
Ġmend alam
Ġrek od
Ġmenyak sikan
it ra
or o
Ġmotiv asi
Ġmela wan
str uc
Ġkeb utuhan
hi le
ur ikulum
Ġper g
Ġkem iskinan
Ġju jur
Ġ4 2
ĠK ES
ni es
Ġsen jata
Ġques tion
aj am
Ġb h
ĠBer had
at angan
ss s
ingap ore
Ġj us
E ng
emp or
Ġm oney
ĠMuslim s
ĠK orang
ĠH asil
N o
Ġakhir at
ut kan
Ġke ep
Ġpr ia
Ġdik emukakan
Ġc emerlang
ak tif
es ok
X L
it ung
Ġf inal
Ġsen arai
AN C
str uk
n in
and om
Ġdiperoleh i
ĠP ark
Ġg ampang
ekan an
Ġmeny ed
n an
ud ak
Ġber manfaat
ny e
ous ly
Ġker en
Ġbah aya
Ġmem er
ender ung
ĠIsra el
p lin
0 5
Ġr amadhan
Ġp k
ĠD IS
Ġ' ,
omb ong
Ġros ak
Ġdic apai
la ss
ĠTID AK
ĠP a
b ukan
Ġkomp onen
oh an
c ed
ai la
id in
ut uhkan
amb utan
Ġses etengah
id es
ĠR asa
b on
p ool
Ġbers ep
Ġj aj
g ing
Ġ ongk
Ġper masalahan
Ġpat ah
l op
s p
z im
Ġd one
Ġbi ji
Ġmak hluk
ha ir
Ġper intah
os iding
Ġmeng ec
Ġkec antikan
Ġberb uat
unj ungi
Ġmend orong
w ati
Ġberk ongsi
ĠMod el
j ol
ub ahan
Ġf un
Ġb unuh
gab ung
D r
la ck
ĠC ont
s ue
Ġd u
Ġt inggalkan
j alan
Ġh ol
Ġj adual
Ġter had
J akarta
vers e
Ġhad is
Ġmen emukan
Ġr am
B ismillah
Ġtop ik
Ġpri v
B A
ir man
Ġr okok
az ar
Ġdib enarkan
IP ADA
Ġl ho
ĠB AH
Ġpingg ang
Ġku alitas
ĠS ET
ak aian
ĠR om
ĠUn it
ta f
Ġya aa
per s
ĠF REE
pas kan
emp ut
ĠR abu
Ġsimp le
S tr
Ġm ud
O r
Ġf ew
ĠSem enanjung
== ==
ĠSetia usaha
c ara
Ġcer it
Ġk afir
ĠM alam
Ġkant or
T R
m au
el b
ob at
T H
aklum kan
Ġcont act
ĠH otel
ĠK eluarga
ĠN y
Ġen vironment
Ġters endiri
ni vers
Ġber guna
emb ah
ĠIn ter
Ġn ah
Ġg ur
Ġgun ung
elam atkan
r or
ĠAg ung
Ġnger asa
amb ahkan
Ġgad uh
Ġw ife
tu gas
ĠWar na
Ġmay be
ib er
ĠP AK
Ġj iran
ashi on
Ġmengg antikan
ingg ah
Ġs uc
Ġ4 8
ĠM inggu
Ġbekerj asama
ĠJ a
Ġj amb
et ua
W ak
Ġindivid ual
H a
ĠI ya
uit e
Ġmis alnya
Ġbeli e
ir us
Ġb agai
ĠPub lic
Ġal hamdulillah
ur y
Ġs uci
006 1
Ġor ig
el da
Ġro le
ĠU r
ĠDAR IPADA
Ġch ild
eb arkan
B isa
Ġpolit ical
Ber ikut
ipt akan
H idup
ĠTer us
x y
Ġm abuk
Ġsal uran
Ġh ouse
Ġr ap
Ġmen ahan
ĠB umiputera
ĠP EM
Ġal m
d en
ement s
Ġsar awak
Ġx de
Ġgive away
tor s
Ġberku aliti
Ġl antai
Ġhak im
Mas alah
Ġw es
Ġdis ampaikan
ujud an
ĠPen j
eng ahan
Ġob ser
ĠAS EAN
ĠM IN
Ġn unggu
6 5
Ġdi lahirkan
Ġg itar
ĠE r
M u
Ġkes ejahteraan
Ġsur ah
Ġpemb ayaran
ĠUk uran
oh anan
gh at
Ġb iaya
ĠBer b
ĠMeng h
a o
M y
M alaysi
urut eraan
ah ar
Ġt amat
Ġseh arian
ik i
Ġkeberk esanan
Ġth ree
Ġse waktu
gu g
and as
ĠC ontoh
Ġc ak
f ord
ĠR AYA
engar uh
Ġgab isa
ĠYus uf
Ġtok o
Ġmer ek
Ġdim ensi
Ġleb aran
Ġsi gn
as ihat
Ġn er
Ġst ock
Ġdik et
ĠS imp
red it
on c
Ġh aji
H ad
ĠA pakah
e ikh
Ġiz in
b ank
d is
uj ung
ĠK in
any e
Ġsc reen
em aran
Ġ199 5
Ġmeng al
ku at
ĠPol it
p in
Ġcond uc
Ġmenc adangkan
Ġsemb uh
as inya
ĠL u
ut ar
AW AY
Ġdi pas
Ġha ih
Ġl uck
Ġlear n
is nis
Ġhad ith
Ġter ingat
ker ja
ĠT en
Ġmem at
ta ge
ungk us
ĠSen i
el s
ĠP or
ĠK EN
ĠH is
ĠTer baik
ala i
ny k
Ġk pd
ect ed
Ġcle ar
Ġj an
or ban
Ġas pect
er y
id ed
Ġketer angan
ĠH P
Ġspec ial
Ġkim ia
ĠL okasi
ĠOR DER
Ġ Ð
K P
' .
s App
Ġas am
Ġmela porkan
r akan
Ġar ound
Ġm ba
Ġdid akwa
ĠH ij
Ġbet apa
s al
Ġsila p
ĠJ en
Ġt urn
s idi
er usnya
p em
Ġdem am
ĠS is
ĠL ah
ed d
Ġdin amakan
Ġs il
o int
Ġh alaman
ut amaan
S eg
sh sh
Ġmenj ej
f ik
ep i
R amai
ĠN O
Ġni ght
Ġle k
ĠUs taz
Ġt alian
Ġbur ung
Ġm irip
adem ic
o e
os ok
Ġart ikel
Ġk ari
ĠJ U
Ġmakl uman
Ġla m
Ġpeng uasaan
Ġmend akwa
th ers
ĠM ENG
ĠMoh on
Ġusah awan
Ġfriend s
Ġkeb er
I V
Ġk empen
ĠS audi
Ġpas s
ĠKec il
6 8
ati v
ĠL AGI
ub le
ĠB eb
t ik
Dari pada
Ġpul sa
ĠKer eta
oc ational
Ġsamb utan
ĠS aat
usia an
e an
ent uan
Ġbers alah
Ġr utin
Ġkas ut
j ust
Ġin stit
Ġse w
gu e
Ġdep a
Ġtg ok
N ew
ian a
Ġmes kipun
K el
Ġincl ud
Ġpant as
fi q
Ġappro ach
Ġint elek
Ġng n
ĠD ARI
ĠB ali
Ġb angs
er si
in ese
m ula
Ġm inda
p le
li g
l oma
ĠB ad
G G
Ġk op
ĠPer h
ĠB ulan
ic y
ol s
aw angan
ĠK eh
Ġg atau
ukup i
lah raga
ĠIst ana
elit ian
Ġh ala
Ġpus ing
ĠPol itik
ĠX L
Ġ3 3
vis yen
Ġb t
Ġak tiv
Ġst esen
Ġpes akit
ĠG ak
Ġm antan
Ġterb ukti
Ġakh bar
Ġbuk it
E d
ĠI kan
es ti
anc am
pr et
ĠB UKAN
Ġik lan
aj at
az a
Ġb oc
Ġdisi plin
o x
it angan
b anyak
al em
os ir
Ġmov ie
Ġ199 4
E O
Ġob at
ara ya
ĠBh aru
Ġmem andangkan
ej ala
ub ern
Ġb ub
am n
Ġny ari
ĠSy eikh
M alam
unt ing
ĠB eli
k em
Ġga is
M us
ĠW al
Seb enarnya
umb u
og ja
ĠD ay
Ġre ason
d ari
uat kan
ĠSch ool
ĠM U
ĠO f
eng er
Ġme kan
Ġbla ck
Ġle bar
ar anya
Ġmenghad iri
Ġr angkaian
or ak
ĠI CT
ĠKomun ikasi
ĠU dah
Ġj elah
ĠD es
Ġpeper iksaan
T T
Ġl uka
IM B
ĠB ola
Ġst abil
6 9
Ġn ur
apak ah
Ġ3 9
ĠSela sa
Ġr upa
eg ini
ab ut
Ġl ilin
Ini lah
Ġmem an
G hazali
M DB
ĠIN D
AN YA
Ġch ange
ĠR m
ent ly
ĠC uma
Ġ[ [
ubern ur
Ġb ulu
Ġ3 4
o ice
ĠT engku
am m
ver pool
Mas jid
ek or
oc us
Ġditer bitkan
ĠK ons
Ġpak et
Ġs angka
en tif
em at
Ġb il
ĠHAR GA
Ġdik it
est inya
ĠBr unei
s ara
Ġper dana
ip u
ĠK H
Ġdit anya
ð Ł
ek olah
Ġh amil
Ġle ss
Ġbas uh
Ġc ard
ĠB arisan
ultim edia
Ġber agama
ĠT AH
ĠUn d
Ġet h
ac tion
mm mm
f ir
p ol
Ġgab ungan
ĠTer b
Ġla ptop
unsel ing
angk itan
uk uran
Ġad akah
Ġke inginan
Ġc ivil
Ġdit utup
Ġem ak
lec tion
essi onal
ar ut
Ġgr aduan
- '
Ġh angat
ĠF in
ĠN e
Ġnaf su
el uh
Ġtem u
oy al
C H
ve y
Ġsome one
anj urkan
Ġkak itangan
Ġseg ini
Ġtet iba
ĠSeb elum
Ġk up
Ġd et
ĠV al
y un
ĠL ama
ers hip
unt ung
ut u
g ed
UK A
K ON
Ġmeng angkat
Ġstr ong
ut us
Ġmel ancarkan
Ġmat erial
Ġsel anjutnya
Ġged e
Ġh ot
ĠE c
ut or
Ġbel ia
ĠI poh
Ġs abah
and al
Ġrequir es
S eorang
Ġj ohor
K o
Ġhak ikat
elb aga
Ġform al
Ġg e
Sem asa
in ah
Ġlar ut
Ġngan tuk
ĠT R
Ġgo ing
OL L
Ġ enc
Ġberd oa
Ġk od
ĠU iTM
y ek
ot es
ĠSt ud
r am
Ġp il
Ġmer aih
ĠMar et
G ak
Ġmemper baiki
if est
Ġtrans fer
b ak
Ġcomp et
t idak
B B
up le
p at
ĠS ize
ĠY og
ĠP la
ers ihan
ĠK al
ĠSar jana
er gi
Ġeff ort
Ġd etail
Ġker ugian
ĠP uan
iz an
b ers
Ġsis wa
uatku asaan
Ġemp lo
ĠPut ih
ĠH ati
ĠIl mu
Ġt ela
Ġteg as
Ġt amadun
Ġ5 9
Ġp ack
c ond
I G
it atif
Ġj aman
Ġseb esar
Ġp apa
omb ang
ĠB ul
Ġj as
W eh
erit akan
ĠP OS
es sion
Ġberk hidmat
a ve
k it
Ġh ur
ĠS am
Ġkr itik
ĠBi ar
Ġr emp
ĠSeb agai
ĠMem ang
k enapa
Ġ: -
endak i
Ġkas us
Ġmen etapkan
Ġsek urang
es tiv
Ġmenc ukupi
Ġd ul
ĠA st
ĠPeng ajaran
Ġkon on
il os
und ur
Ġem g
C L
t ung
Ġ199 1
W ith
ologi cal
J okowi
007 4
Ma af
A t
Ġo thers
ant o
ĠK alim
Ġk amp
Ġtarik h
Ġperund angan
Ġac count
b l
Ġterk ait
Ġn mp
ĠAn ugerah
ĠOn line
yak arta
ĠBer ita
K at
Ġr og
Ġmemp elajari
Ġmengelak kan
Ġjah it
Ġk ub
ĠM i
ĠS at
Ġf asa
ach ing
Ġins pirasi
ĠP an
ĠA la
i on
Ġla wak
Ġmem erintah
ĠS ama
j ok
et ika
kand ar
ĠAfr ika
L IM
Ġdimin ta
Ġar as
Ġeff ect
ĠP ed
P agi
Ġmenc oba
ĠD R
Ġb icara
Ġp ohon
ĠB us
Ġm atang
ĠK ristian
Ġringk asnya
Ġk uah
pecial ly
ĠC ap
Seh ingga
ĠS eorang
it ude
Ġperc uma
ih atkan
Ġcor ona
ĠHak im
al ih
is ata
Ġc ream
la gi
Ġp am
Ġp intar
Ġkeb ahagiaan
Ġob jek
c ome
Ġsi lahkan
Ġw ei
ak ini
on da
m udahkan
ĠD UN
Ġt ell
ĠSumat era
as askan
Ġl iv
Ġterk ena
s ep
ĠTe am
Ġn elayan
Ġb kn
ĠU P
ĠR t
ĠWhat sapp
Ġmenekan kan
u asan
ĠK ulit
Ġp ic
et her
6 4
Ġp ikiran
et ulan
Ġs ak
ĠAn tara
Ġp ej
ami in
ĠB angsa
Perk ara
Ġmengh antar
Ġil m
Ġset empat
ĠC ari
Ġt anggung
Ġseb entar
Ġsela ras
ua ikan
ĠK EM
ĠM A
d k
Ġsch ola
Sed ih
uh h
ĠP agi
ib ur
Ġkem an
ud ara
ĠM uz
ĠE N
ic an
Ġv itamin
ĠC inta
Ġsamb al
Ġter iak
Ġcommun ity
Ġju ara
AK U
Ġper gerakan
M uslim
ĠP EMB
oto grap
Keb anyakan
Ġikut an
iti ons
ra z
ongs ian
tor y
Ġbl ock
aj ukan
ĠE ur
Ġpers embahan
t ua
ustak aan
ĠOr gan
is k
ahah ahah
Ġkek er
Ġmaj ikan
Ġcr ush
oc i
esi es
Ġhe alth
ur es
Ġs it
Ġpr incip
emp urn
d alam
P h
ĠH alim
Ġhahah ah
Ġto wards
ĠN ilai
Ġkena ikan
ef in
G ue
ĠD apatkan
ongk ok
Ġk ambing
Ġing et
ĠS um
ĠK ul
Ġreg ard
Ġterp ilih
Ġn ature
ĠHam id
Ġmer ancang
gag alan
Ġar g
Ġm isi
ĠJun i
ch i
ĠO F
ĠQ u
angk ut
ul ing
Ġist ana
Ġr eka
Ġmela inkan
ere ja
ne o
ay anya
ĠL earning
inj auan
Ġnorm ally
Ġ ubah
Ġint el
el la
ĠD it
Ġko lej
Ġaut hor
ĠY un
m ud
ĠK asih
in at
yar ak
unc a
estiv al
Ġib unya
The y
im er
Ġimp ro
ĠAL LAH
Ġanj ir
5 4
Ġmend ing
Ġkeb iasaan
0 3
Ġn tar
abis kan
uch ing
Ġprom osi
R ah
Ġd en
Ġmemb ant
Ġanc aman
ĠMen urut
Ġperk a
ap lik
Ġd est
Ġpeng angkutan
ĠP EL
Ġbel om
k ali
ĠSoc ial
Ġd ad
Ġistim ewa
Ġen able
Ġmen ubuhkan
Ġma x
Ġb an
ĠSt ar
W A
m ark
Ġsm art
Ġ angka
Ġtu gasan
Ġs ape
Ġsej auh
is ahkan
Ġh an
ab ak
AP I
or iti
ĠU mar
Ġp or
R aja
az hab
ĠD ib
ĠAz min
Ġketi ak
Ġperl ukan
ĠSPR M
f ikir
ĠP ort
kurang nya
; &
Ġdik asih
Ġmark ah
Ġpelanc ongan
Ġ199 3
Ġru angan
Ġc ut
Ġnya wa
yid din
AL I
s ik
Ġa chie
Ġw al
ir o
af az
Ġinter view
Ġmeng ucapkan
uc ap
t op
ĠB or
Per b
ad uat
Ġm lm
Ġsu am
Ġlor ong
ĠT el
Ġapp ly
Ġwat ch
ĠT ai
Ġb tw
Ġter n
Ġb ap
ĠD IA
Ġtak pe
Ġs weet
Ġpeny anyi
Ġke adilan
Ġq uite
un aikan
ilos op
os en
is ma
ĠAb ang
S O
Ġc amp
ĠR I
Ġsh i
ip ina
end ed
Ġcew ek
Ġmal es
h ahaha
art ment
ur ung
ell er
Ġinv ol
had apan
aks iran
elak sanaan
Ġpela tih
p n
Ġpela ku
Ġru gi
Ġper f
Ġdis ab
Ġs ong
ĠP asar
Ġwa it
Ġket upat
Ġb f
ĠTh is
amp aian
Ġmeng es
S en
Ġmark et
uk ah
Ġkuk uh
Ġf und
Ġcont in
Ġhand s
ag at
ĠA kan
ĠSM A
aut y
007 2
ĠNo or
Ġis su
Ġconc ept
Ġp ok
ir aan
Ġmenj amin
Ġprac tic
Ġtr ue
Ġm r
Ġk lu
th en
Ġmake up
amp ah
Ġr angka
Ġs g
Ġcla im
R indu
ind ahkan
H AT
M I
Ġup aya
ĠCent re
Ġex ist
Peng en
antau an
A g
ib ah
Ġwor ks
ĠBER S
Ġreligi on
Contoh nya
E n
it tle
Ġb nyk
Ġpangg ilan
Ġmeng emukakan
ĠB unga
Ġmend ukung
Ġdir imu
ĠS ER
ab lish
Ġex am
Ġke empat
Men y
Ġret weet
andat angani
E A
H A
Ġplat form
Ġ, ,
Ġhar itu
K orang
Ġb ok
ĠN az
Ġn ek
Ġh o
ĠT empat
Ġpen ya
ĠRest oran
ĠK ont
0 6
ĠK ali
ĠJ amb
o kan
S k
ĠM oga
r oses
ĠM ER
Ġty pe
Ġpers atuan
Ġj adikan
T ahun
ĠL angkawi
ur ther
ĠK emb
Ġ urus
l unya
b aikan
Ġkem erdekaan
Ġongk ir
E m
Ġked i
Ġw in
Ġni ce
Ġc op
z an
ĠG ue
end s
e on
ĠB AN
Ġpas ir
uit m
Ġkar angan
is is
ĠAm ir
ĠF ree
Ġdib entuk
ĠBer t
r il
0 2
Ġt it
Ġdek et
ĠMas alah
ĠMana gement
ĠM ag
ick en
Ġber upaya
ĠD ok
Ġc endol
uj uh
l angkah
Ġm ek
ĠPert ubuhan
ener al
ĠR i
Ġbir thday
Bi ar
Ġb ini
T o
Ġtekn ikal
Tan pa
ĠT abung
Ġtel inga
Ġcont r
Ġc enderung
Ġcont rol
Ġnew s
Ġc rit
im es
ipt aan
Ġmeng angg
Set erusnya
uj an
K en
ari at
Ġn atural
Ġsem ester
ara c
Ġjemp ol
C O
uh a
Ġbus y
Ġp anc
Ġs aran
K ini
M el
Ġ. ..
as tera
Ġ4 6
m alaysia
Ġc erah
ep atan
Ġmener angkan
Ġp ia
Ġmeny erang
d ir
ela i
Ġh ormat
ĠA wak
ant ina
How ever
Ġkedi aman
Ġresp on
Ġjar ingan
sat unya
Ġkomun is
ĠD h
Ġmel anjutkan
Ġis sue
AD Y
w ork
Ġ iman
Ti ada
ĠYus of
ec tiv
Ġ08 12
ĠSt adium
Ġtrain ing
ĠLat ihan
Ġp impinan
ĠD apat
Ġpos s
anc ur
Ġperm ula
Un dang
enti al
Ġmengaku i
r eh
C lick
alah kan
Ġt abung
id an
ay asan
AR T
Ka edah
B ahkan
Ġd ewan
u ff
ĠAir port
Ġpend aftaran
uc uk
ah at
Ġinf lu
Ġset tle
ĠPert ahanan
uran s
ĠV ocational
D AT
o ver
Moh d
Ġpap ers
b h
Ġf ans
out ube
tiviti es
Ġbec ome
Ġhus band
erd asan
ab alu
006 9
ĠHari an
gi h
Ġket ara
K ek
tic k
ĠF alsafah
Ġmob ile
S c
ĠR ob
Ġf ast
Ke adaan
Ġ ai
Ġpartic ip
Ġexp lain
lus if
si apa
Ġp adu
ĠL ib
row n
ap t
Ġcount ry
Ġawal nya
ur ian
Ġskin care
ĠT ers
ĠG old
Ġc a
Ð ¾
ĠS ec
el f
J K
eran si
B aik
Ġke utamaan
kk kk
Ġbener an
Ġn da
Ġbert entangan
Ġkh id
Ġdis ana
Ġpem esanan
Ġjam inan
ĠB arang
Ġs ant
n ey
ĠM erah
Ġke usahawanan
Ġgar am
ĠJ AK
ĠDi g
Ġmaj alah
Ġ4 1
ĠSM K
Ġefek tif
Ġ6 5
Ġin formation
agi h
iet nam
Ġber iman
Ġr adio
Ġsu gg
k ep
ĠM alik
ĠS ila
Ġc et
Ġk ite
ali fah
Ġkeb aya
Ġad v
Ġdif ahami
P at
S eri
Ġhar m
Ġp ink
en jak
ĠInd ah
or it
ĠPR OM
Ġb imbingan
Ġmesti lah
j ar
Ġbas ah
c antik
Ġinc re
Ġpr osedur
an am
v in
B r
ĠN ah
Ġma ut
ĠT eme
ĠG roup
ĠS ayang
ĠAn ti
j oy
itor ial
Ġsat unya
ak ibatkan
B eli
k ota
b in
ĠAN DA
Ġng eb
r umah
Ġmeny entuh
ĠAman ah
Ġd ate
ĠM ic
v ensi
Ġpeng arah
Ġmenc intai
U J
Ġkhid mat
g am
Ġsemb ang
Ġses ungguhnya
Ġpen ambah
Ġdr ess
B e
t ime
ĠT echnical
Ġpert engahan
IL A
b il
Ġd inding
Ġpeng libatan
ile t
la si
Ġsek eliling
ĠIs u
Ġtar get
Ġbut a
z en
Ġdi man
Ġin ovasi
Ġdit awarkan
ap uskan
lum at
ĠS D
ĠK ah
Ġsen se
Pr oses
Ġcew e
Ġan ugerah
Ġre aliti
Ġspe ak
B aca
os is
Ġpl s
D in
ĠT angan
Ġterd ekat
ĠMen j
ĠFil ipina
G u
um ents
irah at
Ġterper inci
3 00
ent angkan
amp as
ĠA yo
Ġor i
angk itkan
ĠBer at
Ġhat inya
Ġkelu arkan
ĠK anak
AR ANG
Ġla dang
Ġpes anan
Ad akah
Ġhi asan
as ed
Ġ ih
Ġsar apan
ir t
Ġber ulang
ĠM art
Ġn utrisi
Ġkar pet
di q
Ġber tukar
Ġ7 5
ĠWak tu
Seh ubungan
imb ol
Ġk il
B agaimana
s ana
R as
Ġinteg r
Ġgela ran
as ia
Ġpro ject
ij ak
b ahan
Ġcom ment
ĠR em
ĠG ab
ĠP ent
Ġmeng k
Ġdibangun kan
Ġsela gi
ij i
Ġh g
Ġr ad
Ġdisab led
ĠB ay
ĠPD RM
ĠR iau
ot ensi
ĠB aj
Ġt ong
Ġke amanan
ĠM ama
Ġb elas
Ġberb ahaya
ĠWhat sApp
ĠB agaimana
ĠO mar
c y
Ġbert anding
Ġes pecially
OT A
Ġmeny ambut
Ġdengan nya
or is
Ġn ar
Ġyo ung
Ġcontoh nya
ĠO leh
ĠP ad
min al
ĠL ang
uti ons
if ic
Ġr ob
Ġmis s
afs iran
Ġpen ampilan
Ġpers en
es ak
aa aaa
Ġdit unjukkan
ĠD ulu
Ġdib andingkan
Ġdes c
Ġcult ure
Ġgr atis
Ġp ele
J umlah
ĠMakan an
Ġr en
om eter
Ġe at
Ġc owok
K ec
Ġked ah
ert aan
Ġgant eng
ĠPer umahan
Ġle sen
Ġaut o
ĠU K
Ġmin imum
ambil an
t in
Ġmus ik
Ġc em
Ġkenc ing
ĠSer emban
ad ing
Ġdik aitkan
ad y
it z
Ġmer awat
Ġmembuat kan
ren e
P ut
ĠL elaki
Ġfa edah
AT A
ya p
ĠPro jek
la ku
lu e
Ġre fer
Ġinv est
ĠN EG
en am
Ġpemb iayaan
N anti
ĠH utan
Ġdiam alkan
Ġlaw atan
Ġpert ubuhan
im aan
es el
ĠKet ika
Ġdok ter
Ġhas rat
er at
Ġs ingkat
ir d
Ġ] .
ĠS ad
th is
Ġber hadapan
ĠH ukum
Ġw ish
Ġkela yakan
Ġwho le
k ini
Ġga jah
Ġac ademic
Ġf ikiran
Ġken yang
AJ A
Ġs ala
ob ile
Ġth ank
Ġteb al
n ia
ĠR ajah
Ġmew ah
s m
Ġmem ikirkan
ĠG ombak
T adi
Ġ uitm
Ġtu u
ĠIntern et
Ġterd ahulu
ĠIs kandar
R akyat
Ġmel uas
Ġ199 2
ot ak
Ġlap an
ĠKalim antan
Ġpel uk
Ġn nt
Ġperi od
ĠS urah
F ollow
f c
8 7
Ġagain st
Ġaltern atif
Ġs inggah
Ġpemb erian
ĠId ris
ĠYah udi
Ġmengemb angkan
k ita
ap arkan
Ġke ag
Ġgamb aran
ik et
ad anan
eb aran
Ġh r
Ġc epet
Ġeconom ic
l ian
at uhan
Ġpemer hatian
i arkan
ĠK ad
Ġpr ep
onal d
ĠSur abaya
Malaysi akini
ĠKes elamatan
Ġberk em
tar ik
Ġt ir
Ġs um
Ġdi ajar
Ġek or
Ġbat in
Ġpermula an
Ġac ah
Ġrac un
Ġs af
ĠPor tu
ud ul
6 3
or gan
omp et
Ġf enomena
eg an
Ġf ocus
ĠMas uk
es ta
m od
P ihak
Ġam al
Ġkep adanya
ĠKab inet
ĠD AH
Ġo pt
ĠIng at
Ġt ali
Ġist ri
Ġdib incangkan
Ġbin atang
ĠOR ANG
if t
Ġm atanya
Sek iranya
Ġperis ian
ĠP ur
en an
Ġ4 4
ĠY e
ĠSW T
p elajar
Ġh uh
Ġhe art
Ġb unda
ĠTer hadap
Ġsub sidi
Ġdi masuk
ĠB elajar
Ġk orea
Ġso ur
Ġdid alam
uj ah
E sok
lu as
Ġmes ej
T engok
Ġg f
Menurut nya
Ġtele visyen
ĠR oh
Ġkap as
anc ial
ĠO pen
Ġib n
ĠB apak
tem an
Ġkeb olehan
ĠH ab
ĠCh ar
Ġpengh asilan
ĠMe ow
U E
AM AT
ara ikan
Ġlak sa
Ġet ika
Ġc as
Ġkek ayaan
ĠN ational
uch ong
Ġsemb ilan
Ġmur ni
L ooks
R umah
k alo
or din
Ġ14 40
ĠRe al
ot ton
j e
B ahan
Ġpemb aca
Ġ:( (
b ag
ĠS bb
ula tion
ĠM AN
Ġbers ikap
Ġdis uruh
Ġmana gement
Ġac tivities
Ġshop ping
Ġke lah
Ġj akarta
D a
ew aan
Ġbl h
Ġexper ience
ĠLeb uh
Ġmant ap
n anya
G r
ĠT eluk
b al
ĠM un
Ġger am
ju angkan
Ġmen atap
ast e
Ġday s
Ġm oh
ĠH indu
gan asan
Pend idikan
.... ....
us uk
Ġest ablish
ĠM P
IN D
erb al
angk au
al ib
ĠS angat
os it
Ġla ter
ĠB l
Ġud ang
ĠKit ab
Ġco ok
ikm ah
Ġteach er
ĠR iz
Ġcar anya
Ġs ingapore
Ġpem ulihan
Ġng erti
Ġkeku asaan
Ġb ob
or th
Ġdibah agikan
m et
ar ch
Ġdit emp
Al l
Ġd eli
Ġhib uran
Ġident iti
Ġga y
Ġsek ian
Ġla b
Ġ ess
l ima
ant ang
aplik asikan
Ġl gi
lah ir
ĠG O
Ġnaf as
H ak
al la
Ġj alur
ĠV ietnam
a ing
ro duc
Ġg ug
s un
ĠHAHAH AHAH
Ġke le
Ġkep ad
Ġuj ung
ĠTi ada
Ġc ucu
id ence
P adahal
Ġsta ff
ĠL ike
ĠO b
Ġ% .
Ġtrans aksi
Ġ ungk
Ġmengh ormati
ĠGun ung
Ġdik ur
ng k
Ġro om
Ġberlak unya
Ġse en
Ġdeg ree
uk aran
os h
Ġket inggalan
Ġpar as
Ġberb ahasa
Ġmember itahu
Ġbl ok
ĠH ong
P J
ĠN usantara
Ġmend ek
Ber b
si gn
th at
Ġk ala
Ġof fer
ĠA had
oh n
Ġpelanc ong
Ġke ganasan
ĠS ing
ras ah
Ġpr a
Ġrest oran
m el
Ġmes ra
b etul
Ġh antu
M M
P elajar
Ġbanc ian
er min
ĠY ayasan
ĠM ata
la p
Ġsus pek
Ġthink ing
j ing
ĠKam ar
Ġj ubah
ir ut
Ġgr up
Ġmen ump
W an
Ġker abat
Ġl ik
ĠO ff
ut aan
ĠSep ang
Ġpemer iksaan
Ġj gk
M AS
Ġber upa
et ujuan
Ġbengk el
Ġ4 3
Ġken angan
Ġf our
Y ou
ul ly
Ġar us
Ġab ove
Ġd ue
ĠA q
amp le
ĠL ong
ĠG ar
Ġbah u
l ihatkan
Ġmeny elamatkan
ĠP END
Ġdir umah
Ġperform ance
Ġbis kut
B ahasa
Ġsamp el
B est
B S
Ġberj umpa
Ġmen emui
ĠE mas
Ġtr uth
m it
Ġberla lu
ĠMed an
ĠB L
Ġseni or
Ġg udang
Ġpert ahanan
Ġmela wat
ek tar
ver si
Ġ4 7
and s
Ġmeny impan
Ġmak i
Ġimp ak
Ġberikut nya
ĠT ar
IM A
Ġch ang
ĠG h
Ġdir ect
Ġdi st
ĠU jian
D ay
ĠP UN
Ġl unch
ent asi
is ian
Ġpeng ajar
Ġfac t
ĠH er
Ġkelah iran
ĠGer akan
Ġset an
adem i
f ollow
ual ly
J alan
es aran
Ġcap ek
Ġangg ap
Ġle lah
Ġmele paskan
U nivers
ĠI C
ĠT idur
Ġfut ure
as ter
Ġn ok
ĠJ i
Ġg emuk
uj ian
Ġm ini
Ġas alnya
Ġd ed
ek as
Ġj b
ĠJ gn
ag es
ĠBer k
ĠS eh
Ġf ail
K S
ĠPap ua
ĠK ang
Ġl uk
v il
Ġk endiri
Ġb ina
AJ U
Ġmengh ilangkan
ens em
Ġac tually
A ir
Ġem o
ĠM AK
amp e
ri ght
ump ulkan
f an
Ġbo x
Ġaspect s
Ġber ga
Ġdik aji
ĠMat erial
p asan
og an
A w
y ber
Ġmenjej askan
Ġkel ulusan
ĠSal leh
Ġkh abar
OL EH
ep end
ĠS yah
or itas
Ġl isan
ĠI z
ĠA G
Ġsekali pun
Ġp ep
P et
Ġte a
ist r
Ġtet angga
Ġringk as
Ġmengh alang
Ġmamp us
ah li
Pr esiden
J am
k amu
Ġinter aksi
Ġmen urunkan
P EN
Ġ6 2
I f
Ġbu atan
os an
ĠY O
Ing at
Ġt ampak
ĠT AN
arga an
Ġmengh argai
Ġsignif ic
edd ing
is lam
Ġb asic
ej ap
Ġke sila
ĠB anjir
ĠH itam
Ġ: ")
ĠF B
Ġmenyes al
ori es
Ġtep ung
et h
Ġsm all
Ġm and
S istem
AJ IAN
Ġs antai
ĠB angi
in es
i akan
Ġser upa
Ġad ek
Ġkat il
ian s
ĠS an
Ġwith in
% .
Ġng apain
Ġseb agian
ĠEh wal
Ġpers pektif
Ġwak af
D apatan
Ġpar limen
8 6
Ġkeseluruhan nya
Ġ198 0
Ġis ti
Ġw angi
Ġj ag
Ġsp esies
ĠMuh yiddin
ĠPut eri
0 4
r m
el is
ala ikum
7 9
n as
Ġm edi
ĠV ideo
Ġc ed
ĠL ine
ĠC epat
Ġka itan
7 3
unj ungan
ili ar
Wak tu
Ġprac tice
ĠG uan
Ġp ondok
Ġpun cak
Ġdiper untukkan
Ġseks ual
Ġm all
M is
Ġke ta
ula uan
Ġkn p
Ġcal led
Ġr om
Ġpen iaga
Ġberp indah
ĠSet ar
h ai
Ġmeng ajak
ĠUnd angan
Ġhasil nya
ĠPak istan
e ja
ĠU d
In fo
Ġpener ima
ad ak
it asi
eh endaki
Ġcer tain
O ne
Ġj ep
ĠCon ference
T idur
Ġpenc er
sek olah
ay ati
Ġpeng as
or der
A yo
ĠN aik
uduk i
p ond
Ġaw ek
Nasi b
Ġs ultan
Ġform ula
Ġnmp k
Ġw ong
am atkan
Ġg row
ul er
Ġperl embagaan
Ġsus ulan
as in
ine ering
Ġimp lement
ĠL ain
8 9
Ġp cs
perk ara
Ġhid ung
L angkah
ĠM EM
Ġto ilet
Ġq uality
emb ak
Ġcer amah
ĠSci ence
Ġdiper k
UM A
ai f
ĠS outh
our s
Ġt angk
Mur id
Ð °
up u
Ġng akak
u askan
u y
Ġs ma
aks ikan
Ġpr ibadi
ĠStudi es
ĠPem uda
8 5
Ġair cond
Ġdem o
ĠU p
Ġsel ang
ĠT au
Ġ ic
l ot
ĠI II
s g
ĠSela in
Ġp ew
B enda
Ġmen unaikan
Ġh ehehe
T U
Ġpen ekanan
iti onal
ad o
ĠT anya
Men j
Ġcomm on
IR AN
Ġkew ujudan
al urkan
elbaga ian
m ati
ĠM on
gi han
ĠTah ap
Ġmeng et
Ġmeny erahkan
el ia
Ġdim aksud
Ġmeng akibatkan
Ġkeb ij
ĠH az
AS AN
Ġst ar
Ġser ba
oa x
am uk
ĠF ood
ĠKep ala
ĠD ata
Ġditer uskan
f ar
Ġpen ing
Ġpenambah baikan
si apan
Ġdit entukan
i yyah
Ġp asi
ĠAs as
B ab
om atik
H AR
ud ung
e al
ĠR usia
Ġseb utan
Ġbers esuaian
Ġdis elesaikan
C R
Ġf an
AM AN
ANG K
Ġval ue
k lusif
A yah
Ġdr pd
Ġdih arapkan
Ġcor ak
it im
ĠS ir
ĠPela b
ĠV ol
ay y
A c
D apat
per nah
Ġmen ep
ĠBel ia
Ġunderst and
ff ee
Ġd el
ĠBU AT
Ġr antau
ĠH ai
C uma
Ġm adu
ind ung
Ġkelak ar
J ournal
em ahkan
Ġbul anan
Ġt rip
illi on
ĠKed ai
Ġg an
Ġhar imau
ĠJ umlah
ĠC ON
Ġwar isan
Ġmamp os
ĠP eg
Ġke gagalan
Ġis inya
ungk ook
ĠKin abalu
Ġsem estinya
ĠPas ukan
ĠKE P
amb at
Ġberh arga
las ik
E J
N N
Ġn an
Ġ uda
as al
x ic
ĠM udah
Ġrela ted
Tah niah
Ġni i
Ġ( )
ĠKur ikulum
Ġberd epan
Ġsb g
IS T
ĠSoc i
Ġng e
Ġdak waan
Ġg ejala
p i
Ġkesila pan
ĠH ol
mp au
ĠPER D
eli at
Ġmenc ipta
Ġmo tif
Ġprem is
um uman
wak ilan
Ġf la
ĠEks ekutif
z iah
Ġser onok
ahah ah
Ġle c
T V
ad ika
ĠK i
ĠL alu
Ġterle pas
Ġspir itual
ĠK KM
Ġlo ghat
n egeri
ĠT ab
Ġberper anan
Ġs aj
ri e
Ġbers emp
ĠH ang
Ġleh er
Ġmc d
d u
Ġn ational
Ġm ie
AC K
le pas
R aya
ĠI k
Ġaj e
y uman
ĠB il
Ġsh ort
unc ulan
Ġperk ongsian
Ġprem ium
Ġek str
Ġmengur uskan
m l
Ġleg end
kand ung
Ġpemb uatan
Ġmas k
Ġ0 3
Ġberh ak
B elum
ĠB on
Ġ197 0
Ġ2 50
C o
Ġsur au
Ġkar ak
Ġny e
ada ban
Ġpr int
Ġber w
arac ter
GI VE
Ġtangan nya
Ġm ik
J gn
ay ak
Ġbi as
Ġf unc
ek ali
Ġj ump
Ġunderst anding
Ġsep i
AY U
ac u
Ġinstr umen
Ġsel era
Ġber gabung
ĠW id
c ep
Ġng asih
Ġb uruh
Ġmeng ingatkan
Ġcor r
5 1
ĠPas tu
Ġberp eng
Ġj ua
Ġsend irian
c l
Ġjust ru
angk aan
W E
angk alan
ingg alah
UR AN
A mb
p k
ĠF re
Ġv an
olah an
Ġhahah ahaha
ĠTuan ku
ĠB ISA
it au
Ġch alleng
Ġt reat
ĠF elda
Ġhigh er
Ġ ul
Ġse x
m ore
Ġs iao
up si
ĠO l
em ar
Ġi v
unc it
Ġpul uh
Ġment ah
Ġbeh avi
ĠAlam at
Ġj ihad
Ġsub ject
P I
ĠD O
ĠH AIL
elak angan
Ġgi ven
land s
ĠO s
ĠAn gg
Ġmet od
isy tih
ĠT VE
ĠPr em
ant e
ĠKa edah
Ġdar urat
C inta
ada i
ĠH uman
ĠKomun iti
Ġs aksi
ĠM ut
id ay
Ġim ej
Ker ja
ĠP ang
Ġberla inan
ĠBANG ET
er ai
ab ang
em in
Ġprof essional
ĠB lack
Ġb incang
Ġso und
Ġbon us
Ġtahun an
anj utan
Ġanal ysis
ĠW h
L ihat
IN K
ĠA JA
Ġkeb oleh
s ela
Ġs olo
ĠMoh ammad
Ġkam era
ĠP aling
Ġpern yataan
Ġdi ku
ĠB an
ĠK ain
Ġm asi
ĠPeng h
k ec
Ġ ela
Ġre view
Ġkeluar ganya
Ġmemb eb
Ġalam at
Ġv ers
Ġku ant
L ah
Ġpen empatan
ĠE s
ĠHAIL AK
ĠL eg
Ġt ap
ĠB BM
ener nya
ĠRe v
T ren
Ġtamp il
ĠS PM
uar d
ĠTun ku
Ġpeny okong
Ġab le
Ġw on
ĠMus a
Ġber tugas
Ġc owo
Ġmaksud nya
M ohon
R ajah
Ġdi umumkan
ĠG ua
ĠK elas
Ġket at
Ġpeper angan
Ġb arisan
Ġkot or
Ġsuc cess
A tau
Sem alam
Ġdib ayar
ulk if
on f
ĠS ud
ead y
Ġser u
Ġf iqh
ĠA H
ĠLap oran
L AM
Ġkons isten
il m
aw as
Ġac tion
eter min
Ġweek end
Ġl angs
ag ue
Ġberb incang
Ġresp ect
u q
Ġbat as
Ġt angkap
Ġsela ku
nn nn
al on
Ġ ^
yar ham
Ġconsider ed
Ġloc al
ĠG udang
Ġser um
ĠPer dagangan
ila r
Ġm azhab
Ġdi str
Ġpen ang
Ġw ey
le ar
tan ah
Seb aliknya
Ġinter pret
at angkan
ĠK g
Ġre formasi
Muh ammad
Ġ4 9
ĠM ans
at ar
Ġbert ajuk
Ġh ina
Ġj di
Ġissu es
Ġm ok
Ġkr isis
Ġke li
ĠSEM UA
ĠM os
Ġsimp anan
Ġberd ekatan
OL ONG
Ġle gal
A Z
Ġorig inal
g ot
Ġh ah
Ġkomp leks
ad h
Ġdik ehendaki
Ġse luar
Ġdial og
Ġmeng undi
ug g
l on
UL AN
Ġkr edit
Ġcat atan
p al
ĠS ent
Ġberb agi
Ġmemper untukkan
et s
IN A
Ġsela ri
Ġpem uda
Ġd arat
Ġword s
Ġdil uluskan
Ġor ng
ron as
it alis
ĠK ena
ĠJ umat
eles ai
ĠK ON
ĠL ingk
us uhan
Ġst ep
6 1
Ġperm ukaan
e xt
Ġo cc
ĠT om
Ġsens itif
ku ad
ing atan
Ġt ur
arik h
Ġf l
Ġdih antar
ĠA v
Ġjemp ut
t ahu
Ġkeag amaan
em angnya
Ġdib aca
ap us
emp uran
D asar
I GA
L agu
Ġben ef
Ġmel anggar
ind aan
ĠB AGI
Ġdin ilai
Ġrumah nya
ĠG ST
Ġkom od
d on
Ġber lebihan
eg as
uga an
ĠS ol
ĠK ITA
Ġcam ni
v ement
Ġmem anggil
s ite
Ġk aca
Ġb akat
Ġmengg anggu
Ah li
imp ort
ĠK AU
Ġ5 2
l ov
Ġs udi
Ġterb atas
Ġsy g
Ġmeman faatkan
Ġke y
emp ar
abah asa
ĠS S
ĠIkh wan
Ġmeng endalikan
ĠU lama
ĠF EL
ĠK uching
Ġdes ain
Ġke lam
Ġhij ab
ĠA is
Ġf asil
ĠM ent
AS T
T ime
ĠS akit
Ġla uk
Ġres mi
Ġam in
Ġb angkit
Ġpeng usaha
Ġj umaat
IS I
r ess
8 00
ĠPer p
Ġpeny ebab
Ġamp un
Ġwas ap
it t
ĠB et
Ġ5 1
ĠPer j
B ar
b t
Ġprakt ikal
au la
ĠT U
Ġdik ira
Ġus taz
Ġberla ri
aris kan
E Y
ĠPer m
EB IH
ĠC OD
Ġv ide
Ġsep atu
Ġeng ga
p ose
ĠM il
el ola
ans er
7 2
ĠYog yakarta
ĠSah abat
at s
ĠSingap ore
K ena
j t
r ing
t engah
Ġpen elitian
ĠU st
Ġle ft
Ġbi arkan
Ġk umpul
Ġc up
Ġgu y
s atu
Seb uah
Ġs leep
Ġsh oot
K umpulan
Ġd ele
Ġdib eli
ĠJ ANGAN
Ġepis od
Ġked atangan
Ġorgan is
ĠP elan
Ġsl ot
art awan
Ġ) ;
ĠAziz ah
ĠB elum
ij rah
ĠA ut
Ġj antan
em asan
Ġex press
Ġmed an
il mu
ĠT aw
ti ar
gan egara
ĠYah ya
Ġt indak
ĠKAM U
re y
ĠPr es
Ġmeng ira
ĠB alik
iter ia
Ġlap isan
ok rat
Ġdi angg
Ġdalam nya
Ġmom ent
Ġla yanan
Ġ9 9
R o
Ġad uh
K ap
ĠC an
Ġked uanya
en ai
Ġmemb alas
ativ iti
ali ve
D ata
ult asi
L Y
ah tera
oc r
Ð µ
. ,
t anya
anj ar
reh ensi
Ġterb ab
Ġjawatan kuasa
ĠR ek
R AM
Ġl embaga
Ġcont rib
Ġstrateg ik
Ġj l
Ġkeman usiaan
Ġkr iteria
Ġhmm m
ĠN et
lu ck
W ow
t ure
ing u
Ġh ektar
ind er
Maj lis
Ġt ang
Ġha ving
ss ss
ĠTH E
Ġs an
ĠK amp
Ġko leksi
ĠG ambar
ub i
ĠB ook
Ġdile takkan
Ġs uhu
Ġre gi
Ġberka it
ag ing
Ġcu aca
Ġrele van
h rib
amp ilkan
ĠM OD
F at
Ġ198 8
Ġdil ancarkan
Ġber angkat
Ġc ac
4 00
ĠT emp
Ġkr itis
ĠPeng angkutan
Ġd gr
Pert uan
Pert ama
ĠSun nah
s um
ĠSm art
Ġs ide
ĠDig ital
Ġc ost
Ð ¸
6 2
Ġc os
Ġte xt
C oba
ari o
n et
Ġberb icara
ĠL ip
ĠO thman
und uk
ĠKE B
Ġz ah
Ġseh arga
Ġf ahaman
ĠTVE IS
Ġmenges ahkan
Ġka os
d ik
s ing
Ġmer e
p end
Ġpers etujuan
iden tif
Ġ198 9
Ġtud uhan
ad ari
y al
Ġpah ala
ĠAmp ang
us ing
ĠB uah
H ati
ĠKep ada
ed aan
ar na
ind ust
ĠPerk ara
c he
ĠS erb
Ġkes ayangan
it ud
Ġberk omunikasi
Ġc ute
Ġpak sa
Ġse imbang
Ġtr end
yy y
ĠP ri
Ġc ir
Ġneed s
iz en
ek apan
Ġas rama
w esi
Ġp aip
Ġgr am
erti an
Ġc anc
Ġdis el
ĠJun e
ĠS yarat
H appy
S iap
Ġdim akan
Ġbis ing
Ġpot ongan
Ġter tarik
Ġs imbol
ĠB R
ĠPer ingkat
Ġsc ience
Ġterb akar
ec i
awat ir
Ah mad
Ter us
ĠTim e
tt t
OC K
Ġh u
if ikasi
ĠK ual
r ata
Ġter as
Ġm l
alis asikan
ĠW ajah
tuk aran
ĠPas ti
ĠAN D
Ġtun ai
m ain
r ay
Ġrah sia
ĠD im
Ġr encana
Ġpsik ologi
ĠTak de
way at
Ġpas tinya
Ġpart y
ATI ON
ĠKing dom
Ġdo i
ĠM inta
Ġsi jil
ĠC ukup
ĠSen in
ĠT amil
Ġseri ous
lec t
S umber
f ast
Ġst ream
ob rol
Ġsed ekah
Ġc ash
Ġberp ikir
Tak de
ur aikan
ĠH y
Ġkep uasan
d ha
Ġs olusi
Ġmer ata
Ġg h
Ġpeny ertaan
Ġide ologi
O b
ĠR ES
Ġpu isi
Ġa e
ard en
Ġdiw ujudkan
Ġsy ukur
Ġgi g
L a
Ġg mn
Ġbu ild
Ġ5 8
ĠPr oses
Ġb atang
ĠS af
Ġo w
Ġdisc us
ew as
Ġi phone
Ġ5 3
engk apan
S ila
ith er
Ġkem aren
AS E
p agi
ĠB ES
Ġevery thing
ĠG el
Ġsugg est
Ġk w
ĠK awasan
Ġproduk si
Ġan n
ĠS AMP
ones ian
es or
Rep ost
U AL
ni e
ĠComm un
ic araan
Ġag en
v ices
y h
Ġj em
D o
Ġber ak
ump ai
Ġpeg angan
dr ess
n abi
Ġmend edahkan
Ġh ayat
L alu
ĠAn alisis
Ġter kandung
Ġpeng end
Ġst adium
Ġp ahang
Ġn is
omb ongan
Ġhist ory
Ġeg o
amp a
el ine
Ġimp ian
Ġha ir
Ġjangan lah
Ġsen yap
Ġso ft
K eh
Ġr unt
Ġdimasuk kan
Ġk ir
ĠR antau
Ġselam anya
S abar
us us
Ġmor ning
UT R
Ġberp uasa
Ġdefin isi
Ġdri ver
Ġd etik
Ġr andom
iz za
ĠH ahahaha
agi c
ub atan
Ġmat ematik
P aling
Ġsm ua
Ġga ada
ub aan
gr is
D AH
ĠG i
Ġpac aran
Sed angkan
S ayang
ĠD esign
Ġintelek tual
S umpah
Ġs or
j akarta
Pener angan
ĠS EN
OR M
' ,
gn itif
Ġtengg ara
gab ungkan
Ġt ai
Ġst and
ĠSt andard
Ġ198 5
ew e
ĠT ang
ot s
Ġton er
ĠR a
ver t
Ġgener al
Ġus ul
c epat
un sur
Ġ5 4
m uk
Ġke gunaan
Ġen joy
Ġstat istik
ĠK hair
ĠAngk atan
Ġw rong
Ġf ight
ap nya
Ġtim es
ĠR ay
Ġk ongsi
Ġpend idik
Ġgam is
Ġs ombong
ah abat
ac aan
ĠL angat
c ar
Ġc od
Ġb encana
ĠA J
Ġas asi
r ist
Ġmer os
ĠTen aga
em ikian
ĠP ara
aw it
Ġrep res
Ġpeng etua
ĠEc onom
Ġpul ih
AY ANG
Ġr usak
ĠZ aman
Ġn abi
f iz
Ġright s
ĠBud aya
C E
Ġpen urunan
Ġpem inat
Ġ9 8
Pr osiding
Ġher an
Ġc b
Ġada b
Ġstat ement
ĠKAM I
Ġt afsir
ab da
Ġmengh abiskan
al ihan
ĠM RT
fir ullah
inggi an
Ib n
ĠB intang
Ġ ust
Ġpeny ampaian
h um
Ġpeng ambilan
ind ari
ĠR et
ID IKAN
Ġ6 01
Ġb id
Ġtah anan
aila ble
la bor
aj arkan
Ġmeny ebarkan
ĠK un
Ġpen emuan
ond er
abil ity
Ġrequ est
Ġs ulung
is sion
Ġdib ilang
os ikal
0 7
Ġmela mb
S uka
Ġh b
ajar nya
ĠF C
ungg ung
J urnal
Ġs okong
M U
Ġch op
ul h
Ġmemper lihatkan
ĠP S
ari w
M AN
ĠLebuh raya
A y
ĠR AM
in ian
c r
is ikan
ING G
K ok
Ġ1 20
Ġlem as
ti p
UD AH
ĠC IMB
ĠID R
ec ess
Ġme as
ĠM aka
Ġmemb utuhkan
ĠK ajang
Ġs ara
K hal
Ġmend idik
Ġpes at
Ġpip i
ena zah
Ġkeb akaran
Ġpas tikan
Ġhad ap
Peng gunaan
Ġdisi arkan
eh yung
it ch
Ġco uple
Ġmengur angi
Ġbe za
uk un
Ġt om
Ġk yk
ĠSep erti
y ing
Ses ungguhnya
f ikasi
Ġ }
Ġm art
Ġro ad
Ġmod ul
ful ly
al uan
Ġr ehat
Ġc adar
ĠMes yuarat
ĠR u
re a
Ġf on
Ġkritik al
Ġde al
ĠGr ab
Ġmengal ir
ak iman
Ġmen ampung
Ġc omb
ĠD PR
Ġ8 5
ĠH ulu
un uhan
ĠB O
Ġdil engkapi
er ia
Ġkep em
ĠW es
amai an
ĠPR K
K ah
r ek
Ġg ender
w k
x ford
ĠR ec
il is
Ġdiper mudahkan
Ġb orang
M o
Ġcur r
ĠPer nah
w in
ĠW alaupun
ĠI man
Ġj awa
S us
ĠD KI
Ġch aracter
Ġ enggan
Ġ, -
ib ility
Ter nyata
Ġcre ated
M enc
Ġr ame
Ġpro gr
ĠP AR
Ġ5 6
Ġ1 000
PT N
b ulan
Ġdi tak
A kan
ĠBeb as
ĠW est
ĠAw ang
Ġp up
und ingan
Ġpener imaan
Ġad uan
ceed ings
c ur
Ġb b
M cm
el ut
Ġpeng uatkuasaan
aran kan
ula tih
Ġacc ording
ĠUd ara
Bers ama
Ġh ensem
ob los
Ġpend irian
oy ang
Ġak idah
af at
Ġr agu
Ġan im
J AW
ĠF i
ap s
ĠM ok
e at
Ġdi ab
b uku
Ġpet unjuk
Ġdir ancang
ĠBek asi
ĠD iv
ĠC el
Ġem ail
ĠKec amatan
Ġkec erdasan
T ujuan
on is
Ġr ay
ĠMur id
f ol
am ik
Ġas ik
Ġn or
omp at
Ġpus ingan
emerl angan
Ġgam au
Ġ| |
ĠM ain
Ġon ce
Sela lu
ip e
ĠW ang
Ġd amai
ulkif li
ĠS AMA
Ġm ic
li x
kah kah
Ġvari ous
Ġl angg
Ġm sh
007 3
Ġd engk
ĠM K
Ġide al
006 4
ĠT op
ĠM E
Ġed isi
Ġins urans
Ġsy urga
ĠNasi b
E x
end irian
ĠPay Tren
Ġmencat atkan
ĠPem erintah
Ġkil ometer
Ġpak ej
Ġm alang
Ġbr and
Ġtik tok
Ġcab ang
B alik
Ġ: "
V ideo
as ah
atik u
ĠC ek
Ġ198 6
Ġmemat uhi
ĠC om
ĠAN AK
Ġpengen alan
ĠK OM
Ġsed emikian
ĠM ES
ĠF ed
lat ih
ĠNas ir
ĠP ul
Ġter atur
Ġs inar
AP P
t k
Ġber aya
Ġ9 5
atuh kan
F irst
ala kan
Ġmengen ali
Ġpenj ualan
le g
Ġl ic
EP AT
eb elah
Ġkla u
ahar uan
Ġsignific ant
F A
Ġbi j
Ġr api
ij ik
ĠKem ajuan
Ġse em
Ġje lek
int eg
ul itan
Ġsc r
Ġchild ren
Ġsab tu
Ġph ys
t unya
Ġse ason
Ġmen eliti
ĠSoci ety
ac ang
ĠY o
is it
erj akan
ĠH alal
Ġdib antu
se in
ĠH ash
ani el
kand al
otograp hy
ĠD av
ĠSt ate
d d
af al
Ġ ump
imp a
Ġdip elajari
and ai
Ġlum ayan
Ġp angkat
Ġo lahraga
Ġdij elaskan
Ġmenc eritakan
Ġpenj awat
Ġkaw en
ĠA C
Ġol shop
Ġhar ganya
ot ik
Ġb un
ĠJ K
Ġberpend apatan
el ing
Ġfor um
ĠKhal id
P e
i yah
k l
ama ah
Ġsen yuman
Ġdis okong
ANG AT
Ġ0 4
emb uru
ger ia
ang a
Ġing atkan
201 2
Ġed it
Ġlib eral
Ġtaw aran
b uk
Ġbu aya
ĠS andakan
Ġ198 7
ĠB a
Ġc ity
ikan an
Ġpro phet
ĠSek ali
K onsep
c u
Ġn ear
Ġan sw
b ert
Ġdi antara
Ġberh ati
Ġse akan
Ġfollow ing
S ar
Sek ali
inj am
An tar
Ġfe ed
w o
Ġdi luar
bo ard
ag edi
angk ok
and er
Ġber isi
ĠSek itar
7 4
Ġbr ing
Ġs org
Ġdit angkap
Ġdit ayangkan
Ġex ample
Ġk uda
ur s
Ġmat eri
% ,
Ġm ess
Ġmeng erti
Ġthe ory
Ġdig elar
Ġli ar
ind o
k y
le ge
ĠSep ak
e ed
enti an
Ġproblem s
Ġsew ajarnya
Ġdis ahkan
T op
b ility
ro id
B aju
S up
ob il
ĠK AR
ĠV okasional
Ġkat akan
Ġter ingin
asm ikan
ĠAd min
Ġ4 00
D UL
Ġv alu
ĠA j
Ġf urther
ĠPer n
Ġkompet ensi
Ġkemas ukan
ang er
d g
ing ati
K ak
ĠS ecara
Ġters edia
ĠInt eg
ul y
ĠL angsung
M IN
Ġc ant
Ġpas t
ĠW arga
A li
Ġmes ki
W hile
Ġpenc emaran
tif ik
Ġbus uk
Ġi j
ĠAllah yarham
N G
uah kan
ĠKE C
g ent
Ġdul uan
y uk
Ġpers amaan
ah asan
ĠM aju
Ġpr ice
Ġsk ala
ĠPr ot
Ġmenc uri
aksud nya
unc il
Sem inar
ĠT API
Ġlah an
Ġmem antau
ĠI f
Ġj adinya
ĠH u
Ġorang nya
get her
ep al
Ġmela mpau
ĠM az
Ġje e
Ġl idah
ĠB OD
Ġhel d
eh h
G er
N egara
Ġmem eluk
Ġmain an
Ġp eta
Ġj il
Ġw o
Sela ma
ĠAk ademi
Ġat u
T aman
D M
eng aran
Ġsos i
Ġm ee
Ġj ati
Ġsab un
Ġmeng ab
ĠPERD ANA
Ġm ys
ĠS ERI
r esi
ĠP ET
Ġdo ing
ez akan
Ġing atan
Ġrespons ible
Ġpelab uhan
9 3
b et
Ġkes ah
Ġdit olak
Ġo il
ĠD en
ĠIS LAM
ĠC le
Ġdis ertai
ĠA Y
Ġfor mat
y m
Ġpem ilu
Ġterm s
Ġsa ve
ĠK os
ĠB engk
Ġpro p
alo i
rol l
Ġmen ikah
Ġfr esh
Ġprov insi
Ġg emp
Ġs aud
Ġlok al
ic arakan
Ġsk im
N ampak
Ġrec ord
Ġner aka
Ġal low
Ġst e
k om
asi la
ad ap
ĠK han
Ġli ga
S akit
Ġsay s
ek u
Ad ik
at at
B AT
ĠB OLEH
Ġak ar
or kan
Ġk ing
Ġmah ir
Ġme eting
so alan
Ġkayak nya
Ġim am
Ġse ku
ote in
Ġmel angkah
ĠP on
L A
Ġm ight
N y
Ġkr im
ab ad
Ġto gether
Ġind ic
Ġdat eng
ĠNG O
Ġced era
ab a
por at
ĠPer empuan
8 4
Ġhapp en
Ġmeng isi
ĠH appy
ert as
ingin kan
ri z
T p
ĠB ro
Ġper airan
AJ ARAN
en araikan
asi un
ĠSa id
ĠMem per
ain ing
men y
ab ot
Im am
af ar
Ġknow n
Ġhidup nya
ĠP il
ĠIs nin
Gu ys
Ġbin ti
Ġsh olat
g round
ĠPer gi
Ġph ilosop
ĠP IN
P EMBERITAHUAN
Ġh aa
ann el
c ap
w w
Ġjud ul
s ir
Ġh um
Ġen ough
ĠK AJIAN
ons or
ĠFEL DA
Ġtr ust
Ġtemb ak
ĠSt e
Ġkel iling
Ġlist rik
Ġj antina
Ġf ashion
min yak
Ġl er
Ġt echnology
ĠT NI
ag ak
os akan
Us aha
Ġme et
aku i
Ġtg l
es arkan
ĠPem ilu
ĠM UR
ĠF A
ĠPel anc
omp ak
Ġs aman
ĠTekn ik
Ġy et
ĠS AH
ĠS inar
Ġpen onton
L ama
Ġsep uluh
Ġker angka
Ġnot hing
Ġas sign
Ġn ang
aman sara
anj aran
Ġpers ekutuan
ĠL ub
Ġn om
ĠL ove
ĠO p
ur ing
unt ah
ek al
Ġy u
Ġbr u
N egeri
9 4
or b
ĠT iga
Ġf ly
i er
Ġperh ubungan
ek e
Ġw ent
aula tan
ĠM EMB
Ġc urang
emb angkan
ĠUt usan
GIVE AWAY
Ġth n
Ġp t
Ġsk ali
Ġexp ect
Ġpartic ular
B R
Ġber masalah
t im
Ġb ulat
ad er
Ġmeng urus
est ik
Ġman ifest
Ġap aan
Ġbur ger
Ġd etermin
Ġs astera
ons umsi
ĠA ssalam
Ġ6 4
s is
ĠT eb
Ġrad ikal
Ġmenc abar
Ġ7 6
Ġm ach
Ġl irik
B ahagian
m on
ĠV i
ĠSela lu
Ġpr im
engg araan
indust rian
Ġh ancur
ĠP anc
Mas yarakat
ĠMad inah
ĠIT U
ĠP U
ĠK ant
ĠL A
Ġstud ies
Ġmut ual
Ġrak aman
ĠA tas
ĠS il
ok al
Ġgr osir
Antar anya
D E
Ġt echnical
Ġmin imal
Ġbap anya
Ġp apan
Ġdip engaruhi
Ġear ly
ariw isata
ĠB umi
ĠJ AM
Ġ9 78
A bang
Ġar ab
af ul
Ġmenyi apkan
ĠIng gris
ĠT ingkatan
E nt
Ġkes impulan
Kem ahiran
Ġberku alitas
Ġn iaga
ĠM ultimedia
ĠP O
Ġterb ah
S ya
iv al
Ġwar ganegara
S un
eg araan
ubung kan
C M
Ġseb egini
ĠAb i
Ġn ame
Ġw alk
ĠEn cik
at alkan
ĠB y
ĠT amadun
D it
am as
Ġp ick
ĠD om
Ġpengh argaan
Ġmen ambahkan
ĠN K
Ġy atim
Ġconf ession
ĠB tw
T iba
Ġp ang
g asi
ĠTAH UN
ĠLi verpool
ĠS Y
Ġpers ediaan
US T
ĠKan ada
ard s
n ed
ĠS uka
Ġsuam inya
Ġperka uman
Ġter lam
Ġpet rol
k ala
aliz ation
und ing
Ġpet ugas
Ġsup p
Ġl h
Ġpinj am
ĠM AKAN
Ġmemb uang
r ul
o id
ĠL ink
lin es
Ġberc erita
ĠF iqh
lak sanaan
ĠMah mud
ĠJ ADI
Ġberd aftar
li er
Ġprov ide
Ġmenj auh
ĠB A
Ġbers aing
Ġu w
amb un
Ġbl og
Ġmengen akan
Ġmengenal pasti
ĠAst ro
ad is
Ġmas ter
Dis ebabkan
ĠB uka
Ġket enter
ĠDAT O
Ġpend edahan
AT IS
Ġkag et
Ġb oh
angk al
ĠNur ul
Ġk ubur
ĠR ancangan
Ġkep elbagaian
Ġschola rs
ĠP uchong
int is
ĠZ a
aw l
nn n
Ġfin ancial
Ġsem emangnya
Ġke tak
ĠI K
aran si
Ġmean ing
n ic
rat ed
Ġd amn
Ġb andung
ir al
Ġb om
k ed
Ġ <
ĠR is
Ġz on
Ġng eliat
ĠBer dasarkan
Ġdir ujuk
Ġdip ake
M Y
Ġpem akaian
Ġmem elihara
Ġmele pak
id z
ah il
1 50
h d
Ġ identif
ĠT empatan
ham is
ĠBAR U
P es
Ġdi ubah
on str
Ġg atal
ĠSula wesi
d uanya
Ġdip enuhi
ĠG lobal
ĠF orm
em ani
ĠBel iau
Ġkes ulitan
ĠEng land
C epat
ĠH mm
l en
ĠO rig
mp t
Ġmen ak
ĠD ik
ay be
ĠP uncak
Ġmem aklumkan
i ed
ya allah
Ġok e
ap ur
ajib kan
P L
Ġdic adangkan
Ġfeel ing
P ar
Ġbersama an
Ġpeg uam
J elas
D at
Ġtert awa
rr r
ANG S
F O
ĠSula iman
Ġe ver
Ġs ain
Ġ erti
it o
Ġl ori
j aan
ust ry
Ġmeng us
lec tr
p cs
Ġar my
ay o
Ġmak asih
et apan
ĠT eh
lat e
Ġko lam
Ġperband ingan
ĠJ awab
ĠN arkoba
Ġbers em
Man usia
Ġn emu
ĠJ u
C om
Ġmenyed ari
Ġk ia
Kep utusan
ĠArt ikel
ĠB al
Ġv okasional
ĠKo leksi
P D
ad isi
Ġmenj ana
Ġsemb ah
Ġpeng ec
ĠAk h
Ġka unseling
ĠKet iga
ĠP ilih
angg al
ĠTer j
uk e
Ġmasuk kan
Ġpenjaga an
er c
Ġla yar
Ġe asy
ala ya
Ġper atusan
Ġof is
ew ork
Ġmot osikal
Ġbes erta
ON ES
Ġdir iku
w ang
Ġmembers ihkan
il ikan
Ġpert amanya
Ġmeng ukuhkan
ĠS U
Ġper tukaran
ac ana
h ah
Ġwujud nya
Ġlan ang
H mm
Ġtak tau
ĠV an
Ġangg aran
ĠT aj
Ġread ing
ĠM AR
ĠC oba
Ġgil iran
ar angan
Ġla zim
P enc
Ġeh h
Ġk ill
ub al
C or
ĠS ED
Ġ198 4
ĠBant uan
Ġse ver
ĠD ist
Mes kipun
m ood
um my
C antik
ĠUnivers itas
ĠS ang
iv ed
S EL
gerak kan
ĠT ele
ĠK awan
L elaki
Ġper d
Ġmakan ya
li ed
Ġkec ekapan
ĠMEL AYU
uj ang
uj ui
Ġmend uduki
b ul
Ġm ara
ĠJam al
ĠS urat
ĠH adi
Ġcl ose
ĠN ote
ek alan
ant ap
Ġpos itive
Ġins iden
Ġmeng ejar
Ġkej ohanan
g ma
Ġlec tur
Ġy es
lu askan
engg am
Ġgirl s
Ġkan ser
in y
Ġp ati
Ġmeng ulas
Ġkh awatir
ele bih
Ġup on
Ġkeli atan
L e
Ġt arif
ĠH id
ist im
Ġt old
aj ahan
Ġmeny emb
et uskan
G o
ĠK opi
ĠK iri
Ġdir ek
Ġs uar
ĠI M
Ġmen urun
Ġdik irim
N ilai
ar ahan
ur ity
ib umi
ut ut
Ġcon struc
Ġp c
ih al
Ġmeng ingat
ĠPen ilaian
K anan
Ġsaya p
ĠP AD
Ġtert utup
Ġinv estasi
T AG
g ambar
Ġ Ġ
ump u
G T
ĠJ uara
ĠO perasi
ĠI ra
ĠD el
ĠD aud
kr itik
Ġdit emukan
Ġpersek olahan
m ing
ive away
Ġh on
Ġis yarat
Ġkap italis
Ġg elas
Ġ emb
er ap
ai jan
el uang
Ġmem impin
Ġsem enjak
ya i
ĠW ork
ĠPak ai
Ġinclud ing
Ġmer deka
Ġseg alanya
Ġtrans port
Ġbersemp adan
Ġmen afikan
os isi
Ġik i
Ġf isik
Ġdisc uss
int angi
Ġext ra
Ġag e
Univers iti
Buk hari
Ġh ous
As al
ĠPet ani
ud ahan
Ġsa ing
ĠHam zah
Ġalm ost
Ġe yes
ej as
ar aja
Ġc ic
ĠPER S
ĠSed ih
Ġa im
Ġg anja
on jol
abis an
Ġfollow ers
Ġdik esan
Ġpriv ate
Ġpem egang
iz ed
ĠB ogor
Ġpre fer
Ġpen utup
Ġt able
IK A
ila fah
Ġkek asih
A cc
Ġi ii
bah asa
Ġhahah ahah
Ġmat ch
AJ I
Ġkarak ter
ĠS ystem
Ġwah ai
Ġsos io
ĠG eor
Ġpas ca
c ita
Ġp ura
ĠMat ematik
ĠM OH
x x
ĠP EMBERITAHUAN
Ġbaj et
ew akan
Ġdream s
Ġ5 7
ING K
Ġsc i
Ġr asional
ĠB aca
Ġbag itau
Ġmer ajuk
Ġup load
L o
c la
Ġdi em
Ġselang or
Ġl ittle
Ġj ad
ĠZain al
z ed
Ġpub lik
Ġb ong
un e
Ġpr as
ant ungan
Ġkal inya
ĠSy iah
ter inya
Ġsend u
Ġoff icial
ĠS EP
An alisis
sel ves
ĠLab uan
Ġsem inar
Ġ08 13
Ġarg uments
Ġse ekor
Ġacc ept
Ġkut ipan
Ġth anks
ta fa
erb aijan
Ġdari p
Ġmen amatkan
ĠPand uan
Ġpeny ebaran
S angat
ah it
ĠS ant
ĠT O
Ġ ilang
P AS
ĠL U
Ġkul iner
Ġim ag
Ġt umbuhan
Ġo verse
Ġpengg anti
Ġbelie ve
r os
Ġket inggian
Ad uh
Ġdi alami
anc urkan
ok i
Ġask ed
ĠY AB
ĠEX O
Ġ ðŁ
Ġbag itahu
ĠA TM
Ġib adat
H arap
el ir
eg ar
ĠE nak
Ġpem antauan
Ġwak tunya
ĠKP U
ebut an
Ġland asan
OLL OW
Ġny any
Ġconc ep
p emb
Ġpeny ediaan
Ġkend araan
0 9
b all
Ġm m
ĠP UL
uc in
Ġpemb eli
Ġsap u
Ġse umur
ro versi
Ġor a
D e
Ġcommun ication
Ġsi am
ch en
ersi al
Ġj emaah
Ġw artawan
er ja
empurn akan
Ġ asa
Ġph ot
Ġdoc ument
B O
el and
Har ini
ĠG ubernur
Ġmem andu
Ġket id
Ġsk ill
Ġpemb er
Ġpah it
Ġmem upuk
s ub
Ġse lim
ĠK AN
Ġsk r
Ġkes ed
Ġum mah
uj a
Ġkeber adaan
Pen at
Ġvis ual
r ikan
Ġg anda
Ġsta f
Ġbend era
Ġb ungkus
g ah
ini um
Ġ audi
ANG G
Ġkre ativiti
Ġb umbu
ĠPeg uam
Ġm ir
Ġkes el
raz il
ĠG re
ĠM uka
WE ET
Ġby e
N ur
ĠJ in
Ġker osakan
Ġpeng eluar
Ġbers ed
ĠB AT
Ġg old
Ġh ope
Ġle bat
ES S
b agi
m es
Ġmend atangkan
ĠJ us
Ġmenc iptakan
an e
Ġcamp uran
Ġkes us
Ġmul anya
F F
ĠSO ALAN
r amai
Ġj at
Ġper awatan
ĠG ajah
Ġberp otensi
Ġgo ogle
Ġtan am
Ġko gnitif
r asa
Ġp sych
Ġmengan alisis
Ġob j
erl and
ĠCh inese
Kep ada
IL AN
Ġ3 50
Ġvir alkan
E mp
ĠS uara
Ġc ob
Ġmas anya
T AR
Ġl t
Ġcan ai
, ...
ĠW eb
Ġgroup s
007 5
Y Y
Ġb imbang
ol ution
Ġpern ik
Ġdiket uai
ĠIS BN
Ġconc ern
Ġdimaksud kan
Ġbay angkan
i at
um u
M et
H alo
T indakan
Ġs ng
Ġmengh entikan
la wan
d as
ĠD on
ub ual
ĠAz erbaijan
ot t
Ġl uc
Ġkend uri
S is
Ġmeny enangkan
Ġingin kan
Ġf light
ĠC afe
A f
Ġschool s
Ġcult ural
Ġs ind
ON E
l inya
Ġkit orang
ass in
Ġmedi um
Ġn ecess
Ġth ough
ĠD epan
Ġkomod iti
ela t
Ġwork ing
Ġd ol
om as
Ġart inya
Ġmemas ak
aj j
q uar
Ġt ri
t olong
Ġn j
ab rik
Ġstr ugg
Ġmer tua
Ġkur si
s ide
L ast
Ġac t
L u
Ġc awangan
Ġmeng arahkan
up iah
Ġsek ejap
Ġw oi
ĠL O
Ġk k
Ġdila rang
Ġchat ime
Ġah h
Ent ah
r ut
ĠT afsir
ĠIn tan
f aktor
ni akan
Ġsk rip
S ultan
Ġal ong
ĠE t
ĠO ut
Ġid ol
tiv asi
f az
la gu
I AL
q i
al ukan
F I
Ġp pl
im oni
Ġt tg
ĠR ais
8 1
F aktor
ĠTr ump
am is
M akin
gi la
Ġtrans formasi
Ġk lasik
in st
amp asan
Ġbers uara
Th en
Perk embangan
kan an
o le
Ġbak i
if ul
Ġkeb al
r n
S p
Ġ ill
Ġkar tu
ĠSem angat
en ess
ber g
ĠA nies
K ali
ak ir
er ahan
Ġv ote
f ll
ĠB alai
Ġt ajam
Ġaz an
, ,
ĠC antik
s emua
Ġmeng atur
ĠH ind
idak nya
on er
B U
C erita
Ġh old
ĠI L
Ġsalah kan
Ġmod e
Ġs uda
ok ay
Ġgap apa
ĠL ow
Ġpan ik
ĠZ akat
T AK
Ġkej u
Ġt injauan
ĠR eligi
UM AH
Ġ ult
ĠLap angan
Ġcount ries
Ġ ungg
Ġsp o
Sek ian
C I
Ġpelab ur
Ġamb ulan
Ġp uk
ONES IA
K awan
Ġg pp
od kan
ĠJep ang
Ġbert ulis
ĠIbn u
Ġy outube
ĠMen ingkatkan
ĠA IR
ĠGr and
K E
ĠK AW
Ġopini ons
Pro duk
Ġmencat at
Ġkok urikulum
Ġwa e
Ġt um
ten tion
Ġhal angan
z ech
s elamat
ist ry
ult anan
Ġs av
Ġmeng uji
it ing
ĠS elepas
ĠL agu
Ġkon tak
j emahkan
as ian
ib e
Ġtent unya
eb atan
Ġser am
Ġinc ome
Ġm undur
ĠT etap
8 2
ĠPenc egahan
Ġin put
rid ge
9 2
el eng
Ġc afe
et ty
S a
Ġh it
Ġsent uh
Ġk udu
ĠIn stitusi
Ġdij amin
ak m
Ġmel antik
ĠB io
ĠA Z
ER S
n asi
ĠD atang
ine er
Ġterj emahan
Ġmi x
ĠK ini
ĠS ES
ĠSeb erang
ĠIn san
ĠJ ust
mi gr
Ġpeng embangan
fl fl
ĠCik gu
Ġmas sa
Ġsek edar
un k
Ġlar angan
OR ANG
Ġjawab an
ĠM O
ĠI si
Ġje jak
th ough
I k
ĠB H
ud uhan
om end
Ġat uran
ingg ang
Ġsun nah
Ġpeng urus
ĠW AR
Ġmeng ukur
er in
Ġch o
ihat in
if f
ĠSh af
pond en
Lap oran
E l
Ġku il
ĠT engok
j uran
Ġmen angkap
ĠI tem
ĠN YA
ass ar
Ġsela lunya
uny ikan
Ġdim ulai
ĠN aib
ener asi
h m
ĠGo ogle
Ġkor g
ĠWes tern
Ġrah mat
el se
Ġc ause
aw awi
ĠP op
ĠT oy
ĠSEK ARANG
Ġsar ung
Ġd enda
ec e
us ed
Ġ:) )
ĠKeb udayaan
G un
ĠJAW AB
agi han
Ġh ikmah
ĠR ad
ĠAn al
Ġters ebar
Ġtel iti
Ġsop an
Ġmem uaskan
Ġd y
ĠJ awi
Ġpemb unuhan
ĠM alang
Ġsp ort
iaya i
ĠP sych
Ġpert imbangan
Ġterj ejas
ĠAL AM
ĠHash im
Ġp uji
Ġmem akan
Ġobser ved
Ġhal f
Ġn ada
ib il
Ġtip is
ĠAsh raf
Ġdiku asai
Ġpenj uru
Ġmat ter
Ġbud i
T P
ĠM is
ĠW at
Ġpej uang
Ġber erti
Ġsp read
N as
ĠK ampus
AR TA
C OM
Ġt andas
iti p
Ġkl tu
the y
Ġse ump
Ġmag gi
engk apkan
Ġkepem impinan
j d
Ġd ugaan
Ġkep akaran
Ġrej ect
ek onomi
Per empuan
Ġber untung
Ġk wn
il ir
az ir
Ġmekan isme
lah u
Ġng obrol
Ġpart ner
Sem angat
Ġmak ing
Ġ198 3
Ġker abu
D ok
ĠJ oko
Ġpernik ahan
Ġh atiku
8 3
at ukan
ĠL RT
Ġdi anjurkan
ĠSt reet
Ġtol eransi
ĠS AYA
ela tion
Ġsem ak
Ġw k
Ġde ep
pas ang
Ġch icken
Ġb ubur
Ġcomp le
Ġr ice
Ġpengan ut
s emb
la ut
Ġterbab it
Ġbis nes
Ġr ather
ĠInstit ute
Ġemplo y
ul f
Ġmeng ungk
eal and
Ġdo uble
ekn ologi
ĠG e
Ġe qu
em on
ala r
arm on
Ġ aud
bo x
ender ungan
T urut
Ġfi eld
T un
ĠS im
ven syen
ĠSes uai
Ġmengemb alikan
ĠUs aha
Ġcel ana
Ġpem as
ĠPol ri
ĠC zech
Ġdest inasi
B et
Ġ aib
ĠP ower
amp i
ĠA yat
IM P
ĠPK S
ert o
A wak
ĠB oy
AL U
Ġm ilih
ĠS B
pec tive
Ġke indahan
Ġseb arkan
0065 002000
Ġkonon nya
T iga
t inggi
y i
Ġlah h
Ġkeb ersihan
ĠA wal
Ġpenting nya
ĠA in
Ġassign ment
c er
Ġm uh
tr en
n ov
ĠAN J
Ġl ov
G K
oc ial
Ġte alive
l ist
m asa
Ġper ayaan
ĠL ight
ĠS in
ef ahaman
ĠRah im
Ġm uat
ĠOk ay
Mas uk
p ura
ĠAd akah
ta gh
enting kan
af kan
Ġwar ung
Ġl urus
ĠT ani
Ġh oax
aw et
ai ght
Ġso le
Ġj urang
unj ukan
Ġpener angan
Ġcle an
Ġresult s
anch ester
la ce
Ġmeng adu
ok en
Ġwh ether
Ġterus kan
ĠD arat
Ker ana
ĠKur sus
Ġl ost
ĠE sok
There fore
G ila
Ph one
Ġcap ital
S ungguh
Ġ0 6
ĠKes ian
Ġkebij akan
s ter
Ġdik endalikan
Ġso on
ig ure
Ġgela r
S aint
Ġbel ikan
Ġj urusan
Ġpart ai
ĠR ef
Ġ elak
Ġmeng esan
Ġv cs
ĠA ud
SO ALAN
ud aya
Ġkeb etulan
Ġper siapan
Ġtidak lah
ĠHar ap
ĠH o
Un tung
ĠPol isi
Ġma ap
us uh
Ġberk ah
t angan
ĠM AH
ĠF ull
ĠBah aru
Ġberc inta
l ong
ĠStr ategi
ol itik
Ġtak yah
UL U
Kej adian
ĠB UM
Ġpos ition
Ġmen ampilkan
ĠBag inda
ĠTas ik
ear s
Ġp ict
Ġmengh ubungi
Ġket ah
Ġk fc
I l
ec tor
ĠP lan
ĠT UAN
Ġper adaban
% )
Ġbert ahun
Ġberp egang
ĠUs ah
ra vel
Ġmengh ar
ĠW ong
ĠAW AN
A min
Ġterd engar
Ġsam ada
Ġg ob
u ak
ĠH all
Ġdis kon
Ġtaw ar
ĠKes atuan
Ġdib uang
eng ahkan
Ġc emburu
aw ih
ab b
Ġpem andangan
man i
ĠMemb antu
Ġpel antikan
ĠP ia
Ġanj uran
ir nya
Ġa urat
Ġmay at
Ġremp it
ro b
Ġditemp atkan
Ġb ali
Ġc iptaan
Ġbel ok
ĠS g
Ġfat wa
ĠH at
w ood
ĠHar un
Ġmem aksa
og o
Ġlib ur
ongk ar
Ġf em
art o
Ġpeng ikut
Ġpeng iriman
Ġt al
Ġla g
Ġmeng umpul
Ġbak alan
Ġb aling
ta ur
Ġdom estik
Ġmenep ati
ĠB idang
ĠR h
ĠP ot
ong g
N B
ĠR ez
ĠM AC
l ip
ot ol
Ġberk umpul
Ġilm iah
Ġbert utur
Ġmain tain
Ġdis erahkan
angs ar
anj ikan
Ġdip loma
IK E
Ġ" ?
Ġterb entuk
Ġditer apkan
Ġcivil ization
ek ar
ul ihkan
Ġkut uk
S usah
Ġy an
ĠB elakang
Ġm am
OL O
ĠGR ATIS
Ak ibat
inj au
Ġexper i
C S
z er
ĠL AH
Ġprom ote
Ġkes ep
Ġrib uan
Ġm na
As ia
f ort
ĠPeng en
Ġc ame
Ġpr ess
Ġcon ference
Ġmer okok
Ġlak onan
ĠB AB
Ġdenger in
Ġre aksi
IT AS
Ġtu ju
ĠAb idin
Ġrunt uh
B ak
on line
ita in
Ġm anja
Ġ1 01
la ju
ĠI V
Ġsamp aikan
Ġ ug
Ġ 00
is ing
ĠSes ungguhnya
ia omi
Ġpeng ertian
Per gi
Ġdid ik
ut es
Ġh rs
ĠC yber
Ġdesc rib
Ġpenc egahan
Ġlip at
g in
Ġkom entar
T ambahan
anj awan
Ġstud io
ĠPolit eknik
as id
Ġmemper juangkan
Ġat tention
Ġs s
ĠK A
Ġfav orit
Ġkom ited
Ġ7 00
Ġpent as
amer kan
Ġb ung
Ġrespond ents
angs ang
ĠH abis
Ġru les
Ġm oto
Ġkal imat
Ġab u
ut y
Ġsta ge
n k
Ġmeny erah
Ġberp unca
ĠKam is
Ġb alan
ĠP elaksanaan
Ġ- -
li fe
ĠM uar
ĠN ow
Ġg od
Ġpingg ir
d asar
ĠF estival
âĢ ¢
Ġterg antung
ĠU mm
Ġjen ama
nah kan
ĠSci ences
iktiraf an
ĠPEND IDIKAN
N S
L L
Ġbers abda
c on
ĠM US
ĠP unya
S u
Ġspes ial
Ġvalu es
ĠL D
Ġkes al
Ġter fikir
ĠZ ealand
s alam
v est
il it
ant ren
Ġmenump ukan
Ġrev olusi
ac un
Ġpend ukung
Ġsain tifik
M end
Ġp ori
Acc ording
ĠS ij
ola kan
Ġb uli
Ġf eb
AR D
Ġ0 5
ap ter
H abis
K it
Ġmem aparkan
Ġkelu aran
ER A
ĠR EP
ess ment
el o
Ġmen aikkan
ĠKer ana
apt asi
b ook
ĠHus sein
ĠS UP
Ġsp onsor
gan as
Ġpul ut
Ġkerj aan
m s
Ġdin ner
K ur
ĠSy ria
ni at
Ġku antan
Ġkem unculan
E k
Ġtemp ahan
Ġmener apkan
Ġma en
Ġsos ok
Ġmus ic
tak e
ĠUs ul
' re
emb ab
Ġpad at
M uk
Ġtip e
ad d
ĠS ehat
ult y
Ġin form
ĠU thman
ĠKej uruteraan
Ġtak en
Ġproduc t
Ñ Ĥ
ers ey
y r
Ġb ol
Ġhid angan
Ġmenemp atkan
Ġsej am
amp ar
ĠK alian
S al
Ġr ok
j s
Ġac tiv
Ġsem enanjung
i ang
Ġup acara
Ġdengk i
Ġb umiputera
ĠM r
ĠH ubungan
Ġany thing
ch a
ju ga
ĠBud ak
Ġsy ariat
yan mar
Ġw ayang
Ġgr aduat
ĠEng kau
ĠC OM
ĠW illi
Ġv o
Ġpemb aharuan
ad alah
ĠAm ri
b eli
Ġdi ajak
Ġse iring
ĠK redit
Ġg mb
r ab
Ġth or
Ġn ambah
Ġf uck
ĠH uss
ĠG hazali
ĠTh ank
Ġow ner
amp ungan
Ġmen etap
ven tion
Ġad op
Ġsiap apun
Ġh ip
ĠC our
G ood
Ġwan na
port s
Ġterj aga
Ġcont ent
Ġmak mal
o per
Ġp eh
Ġpro yek
ĠA ff
ay am
Ġn uk
Ġdarip adanya
oh ol
Ġeks port
es ahan
ĠR S
Ġ" "
ind as
ed arkan
ĠS wasta
akan an
h ahah
ĠB P
our ces
Ġmemas ukkan
and um
ĠTer nyata
Ġpet i
Th ese
ĠMa x
ĠK lik
Ġku e
Ġshi ok
Ġras ah
Ġind epend
ĠG reen
Ġas ap
Ġtr agedi
Ġsp t
ĠNor way
on tak
Ġn dak
um uskan
Ġmen andatangani
ĠK PK
ĠT our
k ur
ele w
ris is
W IT
Ġm untah
Ġayah nya
T ok
Ġs yah
Ġkon struk
as abah
In ews
Ġt ewas
aw ei
Ġga es
ĠAWAN Inews
ĠD amansara
Ġsec ukup
T au
ĠP AN
ĠL embah
ĠT echnology
Ġberk at
Ġle ga
ĠM ir
Ġsub ang
Ġprincip les
Ġku al
Ġp unggung
H ello
ĠAg ensi
Ġmaks imum
ĠSk im
Z A
ew i
K esan
ĠO KU
Ġmemp rom
Ġw r
Ġbor ak
Ġco ol
aw alan
ok uskan
Ġteb u
k ena
j ual
s uka
Ġpay ung
T unggu
ung u
Ġberk ali
AS IH
orm atan
ĠMer deka
P art
Ġdit inggalkan
uk ang
Ġas t
Ġberk ep
isytih arkan
Ġdi uji
ĠPr omo
M ener
Z E
ĠI jazah
Ġmela yani
ik atan
ĠK UL
AA A
Ġlu aran
el le
erb ang
us ikan
Ġl up
ĠR eg
D ib
ĠO xford
ĠAs al
Ġlem ang
else a
Sh ah
ĠKomp leks
Ġtl g
im alis
IF A
ĠG IVE
Ġselim ut
Ġme yak
Ġind o
Ġd ark
Ġpenj ual
ĠK adang
port un
b isa
ru f
Ġbersep adu
S ab
Ġc air
Ġsemula jadi
aks es
ĠK linik
Ġ apat
sa ingan
ĠCor ona
S PR
Ġsp ek
T imbalan
ĠW arisan
ĠO rg
A lam
ĠPeng gunaan
ĠAn n
Ġpeng arang
ĠP okok
oy o
c ing
Ġdi org
Ġj okowi
oll back
D T
ĠK onsep
eb ack
hir t
ĠS AB
Ġmem entingkan
Ġmenc uba
ĠMak lumat
Ġab am
ĠH AM
Mis alnya
Ġmela rang
ĠSeb uah
P ela
Ġis h
Ġpark ing
Ġberlak on
ĠS AL
ĠPER K
ĠP uasa
ari um
ĠP OL
ĠK hamis
ro pa
uti ara
vi ous
Ġberj udul
urn it
P okok
ĠRas uah
eb un
ĠL um
sem oga
Ġmendek ati
ĠR en
N E
Ġh eh
en or
ĠJ aga
ĠA lex
Ġl ps
Ġres ep
ĠB razil
Ġg lob
Ġmengh arapkan
Ġmeng hadap
Bi asanya
Ġseper tinya
Ġaktiv itas
Ġcontin u
Sep anjang
C uba
dh l
Ġsek syen
K ET
Ġl ubang
aut iful
Ġkes ukaran
ĠM ARA
il er
Ġmention ed
ĠRem aja
im as
gun ya
ell ing
Ġt ingkatan
ĠB B
ĠEur ope
ĠD ana
ĠC at
Ġstr uc
Ġshow s
Ġ iron
anc y
Th us
Ġ198 2
Ġkom ersial
g y
Ġsur vey
Ġmaks imal
Ġen ergi
Ġn ota
Ġwis ata
ĠP ihak
Ġpat ri
Ġweb site
omb lo
ele t
Ġk pop
Ġr ent
az anah
av y
Ġsekitar nya
an akan
Ġd org
Ġberd aya
m ereka
Ġpeng umuman
ĠS ik
Ġw edding
Ġmem in
m alam
s ay
K ela
ej arah
Ġk ud
ĠB isnis
ER D
Ġsistem atik
ĠFit ri
Ġ ice
eng ers
Ġ- .
ĠE ast
Ġfunc tion
Ġjalan an
Ġdi iktiraf
on ial
ay i
Kes ian
ĠB ahkan
ĠE lektr
and aran
K ertas
b arang
ĠB AJU
Ġw ear
Ġpen asaran
Ġsem acam
9 1
ĠN ad
Ġdiff ic
ĠT AU
Ġbat uk
E ED
Ġtat abahasa
Khal dun
Ġberb unyi
Ġpersonal iti
r aja
imb ah
ĠKer tas
D apatkan
Ġpent aksiran
Ġs om
ni ght
amb ungan
Ġexpress ed
Ġd eb
Ġses at
ĠTh en
ord s
u ght
ed eraan
Ġkej uruteraan
II I
P ENG
Ġ alah
Ġlead er
ĠS emp
Ġroh ani
Ġun i
Itu lah
Ġak ta
tak luk
Ġpemb erita
la st
Ġlib uran
Ġk li
B ulan
if a
ĠNew s
ĠAr s
ĠPerj anjian
ti b
al ia
Ġse luas
ĠK R
ti bar
bas ed
s ak
Ġp agar
an na
et akan
Ġar tic
Ġpu ak
ĠPart ai
ĠJen ayah
aring kan
201 8
Pend ekatan
Ġmengan tuk
ak uan
iz a
Pas ukan
ik ari
ĠL isa
ep h
Ġhands ome
ĠJ o
ons el
hi asan
ĠEn tah
fol io
e imbangan
Ġmeny usun
Ġbr p
H T
Ġmil li
W hen
Ġi par
Ġapp lic
Ġr atusan
engkap nya
ĠT M
Ġser vis
ei gn
Ġr undingan
ĠBr itain
ĠD ij
ĠBen nabi
ĠC uba
C ari
Ġber ant
ĠT IM
Ġg ang
ĠL ast
Ġen jin
Ġcour t
ed om
f oto
Ġpeng unjung
Ġkel ima
ag ut
Ġopini on
S orry
b atik
B I
Ġse arch
Ġdit urunkan
istim ewaan
Ġto ur
Ġis terinya
Ġp ape
ĠM otor
ĠL ing
fi ed
s udah
B ah
Ġ1 10
Hahah ahaha
Ġag re
Ġlook ing
utor ial
ĠPelab uhan
K anak
ĠM ati
et i
Ġe y
Ġmend adak
IL IH
k am
ĠB EN
ĠJ uli
Ġs kandal
ĠD iri
uh hh
ĠPROM O
Ġmin eral
Ġmend irikan
Ġkons er
ĠKL IA
Ġmer es
Ġ08 5
st ur
ĠIND ONESIA
aru ah
Ad alah
Pro jek
C ik
Ġib arat
tt tt
T empat
Ġ iri
Ġintegr iti
um er
Ġb azar
Ġkej ah
ij ab
Ġboy friend
Pat ut
ele ss
Ġkela kuan
ĠB ung
n p
ump ut
Ġfor gi
ah abatan
Ġdi arahkan
Ġpemb ukaan
Ġkerj anya
L at
lah i
Ġbat eri
ĠKar im
ĠKep ulauan
K isah
S ur
ala xy
Ġg end
Ġcom ing
ĠR indu
erb a
en ial
Ġpers idangan
ago gi
Ġn eng
AG A
ĠBor neo
ĠJ e
ĠPerk embangan
ip uan
ĠS A
ĠH R
ĠPern iagaan
Ġbr g
inter aksi
sh ot
Ġkeker asan
Ġlog o
ĠBus iness
Ġmen onton
ĠH ehe
Ġ:( ((
et nya
Ġspec ific
ag on
E X
er ve
am alan
Ġinv esti
Ġtet amu
ĠCh eras
Ġpant ang
Ġsele saikan
Ġkebanyakan nya
Ġnet izen
k as
ĠT OLONG
ĠD ec
ot al
ĠIs ma
DAT E
Ġmul ti
Ġwrit ing
er r
ĠHar us
ĠDAP AT
Ġp lis
ĠH ow
I kan
ĠP lease
ĠG ila
usi on
Ġcek ap
ela wan
ĠOrig inal
~ ~
ĠS pe
Ġmen yakit
Ġg ereja
Ġre ach
Ġ[ ?
Ġmenj ayakan
la kuan
Ġs andal
ua an
ult ural
Ġfin ish
Ġjur ulatih
k ap
ond isi
Ġun able
ec ure
ic ally
ĠSt at
Ġberc ampur
Ġle s
Ġuj i
Ġpad anya
Ġm it
nya a
AN S
Ġr ank
ĠAk tiviti
b s
ĠC O
Ġer at
Ġre ve
Ġchi ong
op edia
ĠP ondok
ist ur
ain i
Ġjamb atan
it ikan
Tr ans
Ġs kuad
Ġp ala
ĠS orry
Ġ6 6
Ġlemb aran
Ġperform ed
ĠM yanmar
7 1
ĠS amsung
Ġg eo
Ġcerit akan
Ġharus nya
Ġmemb ela
Ġmust ahil
Ġdeli very
Ġat tr
ĠJl n
ĠC er
ow s
Ġseh inggalah
Ġmemperoleh i
os ikan
t empat
Ġke ham
ĠSela ma
Ġkor porat
Ġd ini
ĠP re
ĠH ana
Ġche ese
Ġ7 2
Ġhar tanah
gr af
Ġ imb
Ġc i
Ġear phone
ak er
Ġken alan
Ġberp uas
Ġ0 9
k el
Ġ au
ĠIn c
Ġ197 9
Ġmen ipu
Ġdiscus sion
Ġansw er
Ġpem indahan
T a
AS H
Ġlemb u
Ġmend atang
Ġval id
Ġpar ut
si ap
Ġpan el
Ġj enazah
ĠL oc
ĠIn f
Ġpenj ajah
ĠI h
ĠR oman
Ġpur pose
anc es
taur ant
S U
ul ur
af ood
B AR
ĠF amily
ov iet
allah u
si ah
sep erti
g ara
Ġpr otein
ĠK ay
HAHAH AHAH
lad esh
Ġkeham ilan
ĠD akwah
C ukup
Ġ umah
Ġnyany ian
Ġs lalu
Ġdis impan
Ġsp ot
ĠN ot
av es
or ikan
Ġkep alanya
Ġharga i
erg y
ĠZ ul
str ak
Ġc ili
am ent
Ġw onder
Ġaut onomi
Ġpost ing
Ġji alat
ik aian
ĠS ATU
ĠB antu
Ġques tions
ab ly
Ġin ternational
ĠZ ulkifli
aft arkan
Ġpokok nya
sun ami
Ġmenj atuhkan
int ir
AK A
Ġsim ilar
e en
Ġc int
ĠI de
What sapp
Ġmengut amakan
ĠT ag
ĠE ropa
ĠU mur
S ocial
ĠMah asiswa
ĠG UE
Ġsi asat
Ġhad api
j asama
rene ur
Wan ita
ĠT EK
Ġdib unuh
ĠH afiz
ĠC enter
pas ukan
et es
ĠT EM
ĠZah id
Ġat let
Ġdim ulakan
ĠLa utan
aza ar
ĠF aiz
Ġsal e
Ġsp m
ur ahkan
. "
Ġre form
aks in
Ġsur ga
Ġd ela
L ondon
us inya
ĠM and
ĠBin ti
M ulai
l og
ĠK W
ĠF OLLOW
S m
ĠWid odo
ĠP ost
Ġnga jak
Ġser agam
oo per
T hat
t un
Ġkec emerlangan
ĠPla za
Ġcanc el
ĠD aw
Ġins entif
Ġsi apkan
ĠH el
Ġv iv
Ġ19 60
Ġg anggu
Ġmemb akar
w angsa
Ġdik awal
Ġdown load
Ġinstr uc
Ġad em
ĠRo ti
Y es
ĠKar ya
eng arkan
ej ak
Ġberk awan
Ġperp ustakaan
Ġself ie
ĠBud dha
Ġph oto
krim inasi
ĠN CT
Ġbreak fast
Ġmeng irim
Ġthem selves
P unya
Ġch ina
ĠE L
Ġberk urang
z o
Ġp ow
int on
Ġ6 00
Ġdem onstr
ĠTerb uka
i x
ung s
la ir
cla imer
h ow
Ñ Ģ
Ġf ot
ĠNEG ERI
el in
Ġsem akan
Ġlim ited
Ġcurr ent
os o
Al hamdul
Ġterb i
IN T
ĠL INE
Em ang
Ġmengangg uk
amb ridge
Ġrib ut
Ġkes atuan
Ġmenc etuskan
S he
is nya
ĠT EL
Ġtert inggal
Ġmut lak
ĠK ol
ud ar
Ġsw ee
ĠM AT
Ġmela tih
ĠJU GA
i gn
pr ise
c uma
Ġdir awat
Ġrem ember
ter y
Ġh ewan
l it
Ġred ha
Ñ ģ
Ġd ampak
idd le
Ġe ither
ĠAd ik
ĠRe ady
0065 006
Dat uk
Ġla utan
ĠG ol
uar akan
Repost ed
Ġd ompet
Ġv aria
Ġpemb antu
amb al
Ġperlu lah
h em
ul ut
Ġberj anji
s ar
Ġl bh
ĠB AND
Ġinstit utions
ĠT es
ĠLang uage
ingk ali
Ġl umba
ij aya
s angat
Ġi p
Ġpeny i
Ġduk ung
Ġdian alisis
organ is
ĠAssalam ualaikum
Ġkec ederaan
B odoh
ĠM H
ir in
ĠD P
ĠMul ia
6 00
ĠB etul
ĠCor por
S bb
Ġtun ang
ĠMin um
Ġke arah
Ġp eka
el or
ĠC ali
Ġdap ati
Ġk arang
ys t
Ġser entak
Ġsever al
Ġc ite
ĠF ilem
Ġmet ode
ĠP UT
ĠY es
ĠH AL
Ġmela rikan
Ġla bel
Ġhabis kan
um in
ĠT iba
od ay
T ambah
Ġterb uat
Ġdid n
usah akan
Ġunivers ity
ĠC OV
ud h
Ġco ffee
Ġri wayat
armon ian
v ant
ĠR amai
pr esi
ĠPT PTN
ĠSM P
ĠKar na
Ġto ok
Ġharus lah
Ġberg aduh
eg angan
Ġko yak
O rg
Ġap pr
Ġint roduc
GB T
ĠRam li
Ġsecukup nya
Meng ikut
Ġmik ro
Ġpemb oleh
oc o
Ġtak p
it ah
ĠT at
Ġj imat
ĠJ alil
Ġsh aring
Ġpol icy
UH AN
Ġp ain
ĠPER C
Ġperc ep
Ġbiar pun
Ġ01 7
tih ad
ia wan
Kes emua
Ġsitu ation
ĠSad diq
ĠE v
ew ek
Ġdin afikan
Ġfi x
ĠK lu
Ġper ingatan
yak i
Ġpr ay
Ġinst ead
ĠBIN TI
Ġterb alik
ĠMod al
Ġmem ajukan
akar ia
ur t
Ġmeng alahkan
Ð ½
Ġber interaksi
elaj ah
ĠInd onesian
ĠM ini
Ġdis itu
ĠAs ian
ĠM CA
ov atif
ha el
Ġsay ing
Ġs oleh
and o
Bag inda
Ġdih ubungi
AJ AYA
ĠJ ab
wan ita
ejut kan
ĠBAN YAK
ĠBer as
Ġmere alisasikan
Ġt ul
Ġins ta
F rom
Ġseb erapa
Ġla te
Ġot ot
ĠStud y
Ġe le
Ġsosi ologi
ĠPub lish
Ġbala san
Ġapat ah
ĠH ouse
ĠSo al
Ġfr asa
HH HH
empor ary
Ġpenyel enggaraan
Ġn ation
Ġsek umpulan
Ġdele te
Ġj ohn
um ni
ĠNor th
ungg ang
Ġmaj muk
Ġter engganu
Ġf all
ĠS aham
Ġstr aight
ĠUm no
Ġatt itude
B udak
ir am
Ġr oyal
Ġf el
Ġras akan
Ġjaj an
Ġkual itatif
ĠM urah
Ġmemb ezakan
Ġk unjungan
Ġpand an
_ _
o ul
Ġdef isit
L INE
Ġmas s
Ġthor ough
Ġter takluk
R et
Ġg reen
ĠH ATI
enc ian
Ġp indaan
Seb anyak
Ġstream ing
T witter
Ġseg el
angg ang
Ġ^ ^
is inya
Ġfak e
Ġear th
S ub
Ġle ave
Ġ6 3
Ġmamp ir
Ġliv ing
Ġtk de
ĠBe irut
U G
Ġr ujuk
ĠG am
Ġconc l
Ġcer das
ĠAp p
Ġrog ol
ay atan
AK I
Ġg ada
hh hhh
Ġterj un
Ġrog er
Ġfil ter
ĠPR OD
ĠIP TA
S esi
l om
ĠJ auh
omb ol
rat is
ul ik
ĠBab y
B andar
Ġp ij
on ic
Ġl intas
Ġpay udara
aud ah
Ġh ub
ĠD ekat
bu ahan
o q
Ġses ak
e v
Ġr ambutan
ĠO L
ĠAn t
ert inya
ĠM OT
Ġber alih
ĠM cm
Ġdem and
ensi ve
ĠM ulai
ĠH ist
ink ing
N AH
Ġb angk
Ġdik h
Ġdiper hatikan
Ġberp eluang
ĠR aj
tic al
ĠAkhir nya
Ġberb aloi
Ġketenter aan
Ġsed iakan
Y us
Ġb omba
Ġbangs at
res sion
Ġdip andang
Ġb illion
ĠB AL
Ġbah as
p ihak
p lay
ĠM ust
ĠT et
Ġ08 57
ĠKET IGA
ĠF au
Ġbud u
b oy
l ihat
ĠPe ople
ĠZ on
ĠCo uncil
Ġs nd
Ġc ec
Ġpeng iktirafan
Ġtengg elam
aaaa aa
UTR AJAYA
Ġstrugg le
A tt
So alan
ĠMc D
ĠL EBIH
Ġas ia
ĠSij il
F ar
P akai
ĠR UMAH
Ġcomm it
lak ukan
Ġno tif
ĠF ir
Ġr ew
Per dana
la tion
ĠBer d
ĠB UK
Ġbay ang
Ġmil k
t idur
Ġc etak
US AN
z al
Ġpr ihatin
ĠMuslim in
b alik
Ġmel anda
Ġbeli ef
ĠPEMB EL
ur uk
uk ri
Ġcak ep
Ġm iliki
ĠSerb ia
T ers
Ġman e
anak ah
ĠHab ib
R R
Ġpr ed
Ġfat her
I UM
ment s
Ġk ids
ĠF irst
ĠSh op
Sej arah
Ġo vo
Ġkub u
angk akan
Ġpert olongan
Ġbr other
Ġok ey
S enang
Ġd endam
s in
erh ati
orb anan
F ak
Ġf low
ĠS esi
aw uf
ĠJ uga
Ġ19 57
Ġbe auty
Ġcab ul
or ity
imp angan
Ġdit anggung
Ġp is
ek tur
ent ed
Ġdim aklumkan
P usat
Ġch ill
Ġab ility
Ġr ate
Ġ6 1
Ar t
Mod el
ĠP asi
K N
Ġser em
EL L
Ġdig antikan
ĠTe ach
Ġp age
up ati
UNG AN
Ġsomet imes
Ġin tan
emb unyi
e in
ap u
iring i
s tick
ian at
Ġsi ot
Ġmengh apuskan
Ġduk ungan
Ġfam ous
Ġposs ible
Ġl upakan
ĠOs man
Ġseper t
mas ih
Ġ7 3
bur g
y pe
ĠPer ubatan
Ġfac tors
Ġc and
Ġmen aiki
Ġt and
ĠK FC
Ġch ance
Ġdig anti
ĠN Y
Ġped agang
ĠDist rib
ĠMela lui
d ulu
Ġm oga
Pen j
ĠRas hid
ĠP LE
Ġret urn
Ġgr ed
co ver
J abatan
ĠS AR
es yen
Ġmembant ah
ĠE M
Ġd ebat
Ing in
ik nya
ĠPer aturan
Ġbr ain
Ġs ian
Ġkas ian
O I
aw ai
ĠS awit
Ġr amah
ĠJ E
Set akat
Ġdim ainkan
M ain
ĠG oreng
Ġdis amping
Ġmen olong
angk uk
Ter imakasih
ur uskan
Ġt t
Ġmen s
ĠK urang
Ġber minyak
ĠC ond
Ġsek etika
ĠPublic ations
id am
Ġpin ter
Ġagak nya
H ubungan
Ġpos tage
B angsa
Ġses ekali
Th ank
Ġmasalah nya
ĠAmer ican
ĠKela pa
ing et
Ġkur ma
ĠS EH
Ġcam tu
Ġkab ur
Ġmel upakan
s ampai
Ġf lat
Ġav ailable
Ġrib et
S EM
Ġr uncit
ip i
Ġex tr
ĠS AYANG
Ġcent ury
Ġm agic
Ġmala ikat
Da erah
Ġkes ediaan
Ġga gasan
Ġjag ung
ĠK uasa
Ġfi ve
Q u
ĠM iss
umb angkan
Ġam ek
Ġab s
Ġb entar
PN M
Ġse at
ĠSh i
usi ve
in ation
Ġeduc ational
ĠWak il
ĠR ambut
Ġhuj ah
s alah
ent eng
q uran
Ġdis k
ĠT unggu
Ġg uard
Ġbers abar
ĠN an
Ġn atang
For X
Ġcerit anya
ĠL et
ĠDr ama
orm al
ĠTe ori
S C
Un it
ĠS ari
Ġist irahat
Ġkontrak tor
Ġt ng
em ang
Ġo tw
si apkan
Ket iga
Ġmuk im
S ay
ĠInd o
et te
Ġperb ankan
Ġdi ukur
Ġseb enernya
Ġmaaf kan
Ġ196 9
ĠP o
it ative
Ġg or
b ek
er nya
Ġdib entangkan
ĠB lok
ĠSimp ang
ĠMuh amm
Ġc uc
Ġpes en
ĠM om
Ġpet ikan
Ġterp enting
h b
Ġjer uk
Ġg antung
ĠMen jadi
Ġdasar nya
Ġhim self
Ġd ating
Ġreal ity
fll fll
Ġs on
ĠDI B
r aw
ĠA RM
mas ak
ai ya
ĠAri ff
Ġt s
t f
Ġtak dir
ĠPa ul
ĠMemb uat
Ġterc apai
Ġdisebut kan
Ġpengan tin
ĠP AL
ti anak
Ġkes abaran
Ġpingg an
ĠS olo
ma is
ĠSela t
ĠB atik
Ġberd ikari
Ġp omp
ĠTER US
li es
Ġt oh
OS I
Ġgigi h
** **
Ġa ya
Rah man
C iri
Ġperb ahasan
Or der
ĠB ait
ĠY assin
Ġz at
Ġperb edaan
quar e
ĠB unda
ĠPent adbiran
ĠJ apan
Ġind uk
' ll
WIT TER
ant a
amp un
Ġku y
Ġam alkan
ĠPers idangan
ur r
Ġsemp it
JAW APAN
ĠP isang
Ġterk em
B P
H ampir
ah mi
ĠTrans formasi
end ek
Ġjl n
A q
Ġjog ja
Ġimpro ve
Ġdij umpai
Ġair port
Ġop o
He art
Ġ8 8
ĠAr as
ĠKej adian
Ġsi aran
ĠD u
eg ur
Ġi Phone
g akan
Ġag o
Ġreb ahan
amp iri
ĠF IFA
Ġmenyebut kan
ĠA rea
ra ving
s ure
AJ AR
Ġinvesti g
Ġpenyel iaan
e u
ĠM ener
ĠJ ogja
Ġla z
Ġ6 8
ĠP A
Ġper laksanaan
AR E
K lik
ĠP anas
ĠD aniel
ĠTer dapat
Ġtrad itional
c ol
Ġkeb imbangan
ĠKU ALA
ub arak
Ġgel ombang
ĠLingk ar
Ġ08 22
Ġplay er
Ġp ujuk
Ġ6 7
ak ti
ĠPer g
Ġdir aja
Ġfa ith
ĠSEB EL
Ġt tp
ĠB AW
G N
ĠD ic
ac i
Ak tiviti
y t
Ġth us
Ġum rah
ĠItu lah
Ġketak utan
Ġke e
ĠS oviet
kar ena
v ia
ĠR ej
op h
Ġfir man
D ik
em is
ur ai
Ġla was
Ġmeng undang
up ai
ĠL ife
ĠPro duc
ĠIP T
ĠS and
ĠG us
ĠW ei
el ok
el come
Ġkec enderungan
Ġla i
Ġe q
iz er
Ġdip egang
Ġmen aik
Ġcon n
Ġmen ukar
Ġluk isan
os istem
s he
Ġw asiat
per cayaan
ĠEn ter
ĠS uh
Ġins ecure
Ġdi guna
Ġbert urut
ĠSh ar
K on
Ġtu lah
OL AH
ĠB eberapa
ĠR ap
Ġmenc ecah
Ġkej am
ĠTak ut
Ġhat imu
Ġed itorial
Ġexp l
K awasan
ĠAis yah
rr rr
Ġber aksi
ĠPeng iriman
rit ory
ĠBAH ASA
ĠB ala
ĠC ut
ĠAD UN
ĠE D
Ġmenc inta
ĠPar it
ĠDav id
Ġh yung
Ġg alau
Ġat asan
Ġc c
Ġberken an
Ġgrow th
in nya
ĠA lat
Ġvi ews
w on
ak tiviti
Ġdi akui
Ġt es
ĠPem esanan
Pemb angunan
f ilem
Ġla ugh
Ġked aulatan
uar y
Ġper wakilan
ĠT etapi
Ġter ikat
Ġjer it
ĠK ANAN
Ġsebaik nya
Ġpeng kh
Ġb lu
Ġj el
Ġhar inya
Ġben ih
Ġpam eran
ĠKam al
k rit
Ġ198 1
ĠTAN PA
ĠD imana
Ġmeng ulang
Ġj awi
Ġkelu asan
Ġik lim
oll s
im is
ĠP l
Ġr iba
Ġport al
ĠD S
ĠG ula
Ġmenj aringkan
Ġk aga
Ġberk e
Ġji ak
Ġbaw al
H AD
Ġop portun
ĠS kin
and ainya
sh i
Ġsole ly
Ġsem esta
Ġbang ang
ĠBang ladesh
ĠGeor ge
Ġpert empuran
ĠTer minal
ĠC in
ĠTh anks
Ġik atan
Ġper abot
Ġk um
Ġmen anggung
Ġrep eat
op y
B ahagia
Ġprof esi
J ohor
ĠAB DUL
Ġged ung
Ġkes er
Ġd og
ang gih
angg ah
G IN
Ġd osen
is yen
Ġmeng anjurkan
Ġdid edahkan
uc e
Ġch a
Ġmengh ubungkan
Ġmed ical
ĠPen asihat
Ġwor th
ĠDip loma
Ġoverse a
ven ess
Ġman akah
ĠAss oci
emb ut
Ġem erg
Ġpost ingan
M ata
Ġmemb iarkan
it inya
ĠAW ANI
Ġj uni
aj ipan
Ġlead ership
akm uran
ĠA KAN
Ġs yar
ĠBaj et
Ġper saingan
006 2
ĠCh at
Ġav a
Ġzah ir
Ġlepas kan
ĠPER L
ĠSay yid
ĠH ung
Ġmud ik
ok er
Ġberc uti
istic s
angg aran
0 43
en ian
ĠM AG
Ġmen anti
gh ter
per imen
Ġ% ,
Ġbersi ap
Ġle tih
Ġdis usun
Ġke uangan
ĠPem impin
OM B
w hat
S yarikat
Ġal one
UN D
Ġj end
Ġber anak
ed akan
Ġpel uru
Ġ0 7
Ġberd arah
Ġkons erv
Ġhij rah
Ġas pirasi
q q
Ġkes et
Ġbeg in
Ġso ul
Ġpos ter
il s
Ġdip impin
U p
ha Allah
Ġdi wak
B antu
ĠS ementara
ĠU PNM
Ġdiper buat
Ġgab ung
Ġman ual
z aman
Dem i
ĠB angunan
ap as
ĠB es
Ġpen ipuan
Ġthorough ly
ĠTai wan
Ġp ingat
ĠAd alah
ĠPER T
Ġt unduk
N or
rep ost
Ġlebih an
dah ulu
ANT U
Tah ap
ĠPad uka
ĠM Y
imp ik
Ġ ari
ĠH A
Ġd ebut
ĠO ngk
Ġchar ge
Ġfac ebook
Ġlo an
Ġkr itikan
ĠE th
Ġik tibar
Ġmen awan
Ġaw k
ĠR ich
b aj
kan nya
Ġdir eka
b adan
aga ikan
yy yy
M uka
Ġbos en
Ġg anjaran
ore an
ĠBul oh
ĠT T
Sed ap
uss alam
ĠF ut
L ain
Ġwh ite
T ag
ĠTer imakasih
Ġbur uan
Ġjog ing
ĠHij au
Ġpul uhan
Ġg tu
2 50
ĠTang erang
Ġdis aat
tif ikat
H AN
Ġr ock
ĠJ uta
en se
la u
Ġt ro
ĠDari pada
ĠHad ith
Ġsembah yang
Ber ita
Ġdib eb
Ġget ting
Ġkab inet
ut ub
Ġdit angani
OH OR
Ġbas ikal
Ġe a
ĠSer dang
ĠRE ADY
up as
end i
C ar
Ġr ang
Ġstat es
Ġng aku
as rat
Ġtau hid
w ell
ic tor
ĠMah kota
ĠSi ang
z lee
Ġins ur
Ġexc ited
p el
Ġreb us
Ġpractic es
g ame
Ġkh alifah
ak am
Ġas alkan
ong rat
ĠV itamin
RE AD
Ġberter askan
Pas tu
B angun
Ġs unyi
Ġm amat
ĠIs a
d us
ep ek
ĠBur ger
ĠMin at
elebih an
Ġm ung
Ġmeny uruh
ĠL I
AJ AH
ĠWah ai
Ġbu ay
o unt
enc ed
Ġbaru lah
Ġwajah nya
p ur
Ġsb lm
w oo
Ġmend esak
Ġdevelop ed
Ġhur aian
ĠCOV ID
pro gram
aju i
k ek
Ġp uan
un s
alu ation
ital isme
ĠM anchester
ahh aha
R ON
UAR AT
Ġber is
Ġind ustry
oot h
K ota
ĠB ig
Ġ6 9
Ġdip indahkan
Ġpener apan
ermin kan
Ġmat rik
Ġb ase
Ġ12 5
os ter
h tar
ah al
us nahkan
Ġka unter
ĠDem i
ĠSem arang
ĠDat aran
set ujui
ti pu
Ġi gn
ĠH ur
ans ur
ĠTah niah
Ġproper ty
ĠAngg ota
Ġmeng erjakan
ĠJ urnal
o ja
am ework
Ġc ok
ĠPers pektif
Ġtik us
Ġtek si
R C
Ġh obi
ĠPak et
asm ian
ĠU lu
Y UARAT
w eh
Ġse awal
ĠN epal
il id
ĠRT M
ĠBi asa
Ġdec ision
ĠPang lima
lem an
Ġb und
ib uk
Ġdig ambarkan
Ġdistr ib
Ġkar o
Ġbec om
Ġng et
ĠD aftar
tic ker
oy an
Ġtern ampak
ĠT est
ed e
D ar
Ġju g
ĠBEL I
imp ulkan
Ġpert uduhan
Ġit self
al es
ĠC ons
Ġatt ack
lig ence
ĠKes ultanan
Ġcond ition
imp ah
==== ====
Ġperk ampungan
ĠYun ani
ĠPrem ium
Ġdocument ation
Ġ ular
D AP
Ġmen andakan
Ġperh impunan
Ġpeng ganas
Ġta x
ap h
Ġs yarak
ĠK m
am ental
ĠKemb ali
Ġdiangg arkan
T engah
Ġsaat nya
ĠGo vernment
Islam ic
ĠP ac
P ilihan
OR T
ir at
Ġboc or
har ap
mais uri
Ġpeng umpulan
Ġped alaman
Ġw ow
Ġdat uk
Ġb ts
Ġcre ate
Ġmilli on
op ay
Ġkes esuaian
G ua
J ust
au lat
Ġdij aga
Ġmen onjol
Ġl l
Ġtele k
Ġdihad iri
R am
Ġberku at
Ġmenyakit kan
B uka
F oto
Ġco ach
ĠKa um
ie f
c or
ĠN am
ual ian
Ġdib anding
m etik
ĠKh usus
M AD
Ġkas ur
ka un
Ġg aper
ĠKe adilan
Ġberb angsa
low ing
end ar
Ġber ia
ĠJ ual
Ġlangs ir
Ġle d
Ġdit inggal
Ġberc adang
Ġpolit ics
ĠTh ai
K om
ant apkan
s yarikat
aham kan
D es
Ġemp h
Ġpar adi
Hahah ah
Ġw oman
Ġseku lar
R eady
eh an
002 00
Ġcab ut
Ġpec ahan
ĠHe alth
ĠP ahat
ĠPenj ara
ĠBon us
ocr acy
rah man
ĠIng in
J enis
Ġju ak
Ġah ad
Dis claimer
ĠPert andingan
kit ab
Ġk luar
Ġsc roll
B T
J ap
ĠG AK
Ġkeb encian
Ġnot e
Ġs ongkok
Ġsamp ingan
ĠS id
Ġincl ude
h ere
ĠTers edia
t ai
Ġs od
Ġmemb imbing
ĠSt rat
IT AN
ĠT em
ĠN U
Ġr iz
erit aan
HAT IAN
Ġmen angg
Ġmengh ina
ivid u
ĠBER T
" ).
ug erahkan
Ġangk atan
emb ar
Ġh eheh
ĠO RI
Ġkan ker
Ġsej ati
m ai
is tiwa
Ġth ird
Ġsh alat
Ġkont roversi
Ġepis ode
Ġ ikat
ĠN at
gr ade
Ġkeh armonian
m ari
p y
id ar
Ġmempert ingkatkan
ĠTV ET
ĠFed eral
_ -
ir inya
Ġtak d
J EK
la b
ĠM akin
u el
Ġmi gr
av en
Ġ197 8
Ġper ihal
OT O
emp unyai
Ġp ik
ĠJ B
ta q
or al
ub lic
Meng ulas
ĠH ot
anj at
ĠAb am
ampak kan
Ang g
Ġkus am
Ġof ten
Mes ti
ed an
ir ed
Ġs per
ĠT alib
ĠC ir
Ġk andung
si fat
Ġto uch
Ġinflu ence
ik si
gh an
ib us
ic ap
ĠM ember
Ġi jo
Ġpro ceedings
Ġtert umpu
Ġskr ng
Ġdi ut
Ġak a
pers onal
ĠT adi
Ġmeng gabungkan
Meng h
Ġh ihi
et us
Ġinteg rasi
Ġorganis er
Ġd us
Ġp g
ut ip
ĠR ela
Ġkamp anye
b enda
unsel or
Ġbers alin
Ġprakt is
Ġterp utus
Ġm ang
atan i
ĠK art
E s
ĠS ala
H ujan
f ek
Ġt ambang
ing ya
ĠB GT
ĠP aris
ĠB ilik
Ġpeng awasan
ĠD urian
Ġberp engaruh
Ġpe ace
omb ok
BA IK
ĠP ear
ĠPend aftaran
m aybe
Ġp ajak
Ġj um
af a
Ġconf ess
Ġberl ian
ĠLeb aran
S B
Ġind om
ĠPem ikiran
m os
k ami
S K
Ġseg er
ĠSus u
ĠKUR US
ĠL ihat
Ġt in
Ġke ja
ĠB entuk
ĠPLE ASE
j ang
Ġs api
ĠL adang
Pel bagai
Ġmer asmikan
Ken yataan
fi eld
EMP AT
ĠJ AB
Ġat ur
Ġpela rian
Ġs otong
S D
Ġman us
S ah
b erb
Ġkeb angkitan
H is
ĠT ahan
Ġinst an
ĠCent ral
isip asi
A bu
ĠA rif
Ġref leksi
Ġmeng eluh
Mela yu
et t
ĠW H
our ce
umb o
amb u
is ed
ĠEmp at
Ġa in
Ġberpeng alaman
s os
Ġl utut
ĠRe gi
Ġhigh way
Ġt mpt
Ġber ib
IL ANG
ot er
st an
Ġng ec
Ġtah niah
ĠZ akaria
Ġo i
Ġper lakuan
ĠKep impinan
Ġmenyes uaikan
ila ku
ĠCol lege
or ok
Ġ196 3
Ġfr ont
ĠGIVE AWAY
ik mat
inc lair
W a
ĠPener angan
ĠK akak
ĠCyber jaya
hy un
Ġk ilo
ant inya
Ġsm lm
is in
Ġmut u
Ġch ao
Ġmeng in
Ġap art
Ġpert ikaian
andar in
ĠRo ad
ĠS END
ĠM ont
Ġng am
Ġmah ukan
ec ahkan
ug is
ĠPerb adanan
is ar
Ġpeng in
Ġprof ile
d own
lec tual
ĠMUR AH
Ġk aji
is ahan
Ġgo al
ĠP ekerja
ĠW as
Ġya udah
AL L
ĠK AT
ec il
q asid
Ġincre ase
Ġthere fore
ĠT ahu
Ġl if
Ġrec omm
G P
Ġsep upu
ĠRev olusi
D D
Ġpengh ujung
k ajian
si ons
Ġdes krip
ĠWak af
ric ulum
Ber t
f ak
ert akan
Pr abowo
ĠK l
ING GI
anj angkan
Ġsegel intir
ing ton
ĠL GBT
ag an
Ġser ibu
s ungguh
Ġpark ir
b ir
ĠPeng guna
Ġtr a
z am
is ir
Ġr ais
ĠSing h
ĠJam es
ĠInt el
h on
ĠH old
r ation
ĠDi am
Ġt isu
ih a
semb ahkan
Ġtu uu
Ġkay anya
ĠR oyal
uk s
ĠS abar
AD AN
erh asilan
Ġstart ed
ec han
Ġus us
J aga
ak waan
Ġimp act
Ġcar ta
ĠST OCK
Ġpomp uan
ump aan
Per m
Ġnaf kah
Ġmemb esar
Ġpem ilikan
ĠB M
ac ita
Ġm id
ung ut
Ġkes tab
AK S
ah hh
Ġin iti
ĠB angun
ĠJ ak
Ġberp isah
ĠPet ronas
for nia
ĠBant en
ujah id
ĠF a
Ġmele t
ĠKon vensyen
isip aliti
Ġkestab ilan
B ayangkan
Ġkes ini
c ont
eb ang
-- --
Ġmak es
ĠB T
eb er
Ġmot her
Ġrm h
ĠSh ams
Memb antu
Ġperf ect
Ġappr eci
Ġmeng aplikasikan
Ġkaw al
Ġorgan ization
Ġt nya
Ġins pir
asti le
ĠPelanc ongan
Ġ ati
Ġni ii
Ġb ucin
Ġmeny anyi
Ġide as
Ġaut omatik
T OP
as uh
Ġdi angkat
tab ak
ĠTID UR
Ġconduc ts
z ing
Ġaw et
O ut
ĠH and
ĠPen erb
Ġkont en
ampi ons
Ġke atas
Ġin ovatif
Ġseri es
aff ic
Ġs awah
AS S
str uktur
Ġsemp et
Ġsib ei
Ġintern asional
ĠA jak
Ġsej ahtera
Ġpengh uni
Ġser vices
Ġsb n
M udah
Ġw ala
ĠC astile
Ġak n
ĠE ff
ĠAs y
HAR GA
Ġterbah agi
Ġ08 78
Ġlim it
Ġpenc arian
Ġad o
ov a
Ġperb icaraan
ĠMet ro
G ambar
Ġs we
c ase
ĠP J
end ung
Ġdib akar
ĠTim es
ĠB ob
Ġt aat
es uaikan
ĠI ts
if ik
tiv es
ĠG T
ON AL
ĠF rom
uc her
Ġcar ry
M eh
ĠS uf
Ġauthor ity
Ġj entera
Ġel se
ĠBag us
Ġd ear
Ġd pn
Ġk ong
Ġb ng
ih h
Ġg ombak
ĠKas ut
Ġmemer angi
ĠS ANGAT
Ġmeng aitkan
ĠAz har
Ġam aran
ĠSya wal
efin isikan
Ġreve al
Ġexist ence
E r
k al
ĠH adiah
Ġnak al
ĠBUM N
om osi
Ġdipas ang
ĠP am
ĠYou T
ĠK aya
anj angan
Ġtingk ap
Ġk ian
oy ing
N k
Ġk mu
Ġmel uluskan
ANT IK
ĠJAK ARTA
Ġprot es
Ed itorial
Ġt ill
aj is
Ag ama
F ER
ar gan
Ġr oda
Ġterd edah
B apak
ĠM uf
ĠBand araya
k ing
Ġw ad
Ġpr os
e gi
n af
Ġj utaan
ĠL ampung
ĠC amer
Ġpenj ajahan
Ġdig alakkan
aw akan
si at
Ġamp e
' '
omend asi
K ucing
ĠTer p
I Z
UNG G
Ġse gan
ĠB ikin
ĠUni on
R p
ga i
erb ank
Ġi gt
Ġberper ingkat
is ta
Ġela un
ĠG en
ĠAr ch
ult ure
d b
Ġsmart phone
ant ak
Ġdiper setujui
Ġhakikat nya
ĠL an
Ġwar is
M ad
l ol
ĠD U
I mp
Ġbanyak nya
D ekat
ew askan
ver age
Ġkesed ihan
b aju
Ġj aya
Ġun cle
ĠCh rist
ĠMay bank
er awat
ĠL and
Ġlike for
Ġtruth fully
Ġseb alik
Ġpeng ukuran
ĠC EPAT
ĠU mat
Ġst asiun
n ers
ĠS UR
ĠPer lu
Ġadd ition
A tas
T ON
Sun nah
Ġmeng er
Ġbern iaga
ĠC lass
Ġkejah atan
ot ai
Ker eta
Ġany one
Ġaud it
ĠS enang
ĠBI O
Ġpeng angg
Ġv arian
Ġberh ubungan
Ġk entang
Ġp anggung
ĠS abu
ĠMen ara
Ġta un
ĠG ran
Ġke istimewaan
Ġc li
ed u
Ġ âĢ¢
Ġuntuk mu
ĠPanc asila
K ons
Ġpeng orbanan
RE CC
Ġteg uh
Ġfla sh
Ġt adbir
Ġh emat
201 5
Ġdib uktikan
Ġsus hi
Ġmeng ancam
RECC NI
ĠPP UB
Ġz ip
Ġcol lec
organis ers
ĠS UK
Ġway s
Ġter tera
Ġg uling
Ġpol ice
Ġmed ic
A wards
Ġala ihi
op o
7 00
Ġtr ack
Ġmelakukan nya
Ġkons ert
Ġsat is
Ġpemb entangan
Ġkenc ang
keb olehan
h ahahaha
Af ter
ec ahan
Ġdim sum
ĠPak cik
Ġc lub
tain ed
Ġek oran
Ġq ue
Ġpk ai
Ġberb ilang
ov ed
Ġhand phone
Ġg es
Ġf ine
Ġser ingkali
Ġper an
itz erland
ak amkan
li ve
ĠPol res
Ġrec e
an aman
ĠT andas
Ġpener oka
Ġmacam ni
h aj
Ġm andat
ĠS eng
ĠS ukar
mar hum
Allah u
Ġh ost
Ġi poh
Ġu ia
ĠRoh ingya
emb us
ĠSh afi
unt ur
ĠM eh
B ant
Ġh ok
Ġng el
Ġeng ineering
ak k
Ġf ollback
Ġpasi en
ab ul
Ġga usah
Ġsepen uh
mem ang
r ad
Ġdi asaskan
Ġmer iah
ili un
ĠSej ak
uk uh
Ġbe autiful
Ġ14 0
O pen
EN A
Ġro und
Ġsus unan
ĠRe view
Ġlic in
T im
Ġm iliar
Ġcont ext
Ġproduk tif
Ġk in
ĠB odoh
Ġdit uduh
OC EED
ĠBER K
ĠAT AU
I J
y anya
Ġd alil
rib u
Ġbeh ind
Ġp tg
Ġsend i
Th anks
ĠKan un
Ġt abah
ĠK re
ĠN UR
Ġeff ective
Ġujar nya
n anti
Ġdom inan
m ungkin
ing er
ul iah
Ġharm oni
o akan
Ġdic ari
ĠP akar
Ġexpl ore
ĠB int
orm on
Ġsila kan
amar inda
ĠPP BM
Ġtak ing
M inggu
ĠF ound
pd ate
Ġcol or
On line
Ġsaj e
r eg
ĠB rown
Ġeks klusif
il ia
Ġmem ulai
ĠJ Penerangan
Ġterkem uka
B elajar
ĠAp likasi
Ġsuar anya
tagh firullah
Ġgen re
S elangor
engk aji
ĠShari ati
Ġp emp
Ġmel uk
Ġsh awl
Ġsy ok
Ġberper ang
Ġh ape
Ġsen ja
Ġdic ipta
Ġkons umsi
Ġberas ingan
Ġkeh abisan
on av
Ġser endah
Ġng eh
ingg uan
Ġmengam uk
Ġt onton
id ana
Ġpers ahabatan
Ġsep utar
Ġdin aikkan
Ġsya itan
% ;
ĠKes ehatan
ĠTH READ
on ia
Ġdr aw
ĠSI APA
Ġmemprom osikan
ĠB egitu
Ġi Heart
T emp
Ġdi isi
Ġmetod ologi
T B
Ġd ewa
Ġmem f
ank a
Ġked alam
Ġmun isipaliti
j aga
Ġc otton
Ġkec am
adi yah
g b
Ġboc ah
Ġmela yan
Ġkep ikiran
Ġtry ing
ol ik
ĠN amanya
Ġ7 7
Ġsp end
Ġut amanya
Ġ197 4
urnit ure
Ġke tuk
Ġleb uh
lek tif
" ),
Ġacc ess
ĠFil m
I d
ĠP ic
Ġc eb
ĠG imana
Ġdep osit
Ġbn yak
e a
ĠH AJI
ela ras
Ġbaik nya
Ġp onsel
ĠS EG
Ġv isi
Ġdib angkitkan
agaim anakah
sc reen
sed ih
asar ana
Ġsc ene
ik er
T uhan
Ġt abi
Ġper alihan
ĠT ido
Ġm aya
ik r
ĠFat wa
Ġmeng kritik
ĠMes ti
eg ory
ĠAM AN
Ġ umb
Il mu
am ina
eb us
Ġpengh antaran
ĠKomun is
Ġkem eja
ĠPer ancangan
ĠEmp ayar
Ġmys elf
H ey
ĠW il
Ġfind ings
Ġbuild ing
Ġm aruah
ĠM obile
ĠP lat
ĠU ang
tiv itas
w aian
Ġdec ide
Ġb elakangan
oc olat
TAG E
E nak
Ġberg elar
Ġlog am
' d
ela p
Ġmeny ukai
Ġpemb ahagian
Ġac qu
ar jo
Ġpub g
P ilih
ĠV iv
Sem akin
Ġdek ad
Ġs obat
Ġber enang
eliling i
c ent
ul ullah
Ġmenj erit
b est
Ġgr ad
ĠBat in
ĠMos lem
ar ung
anj ing
Ġbers ungguh
B adan
Ġkomun itas
Ġmost ly
dn ey
ĠDep artment
o al
Ġ8 00
ĠB ub
Ġdo lar
ĠKeb ajikan
Ġr atus
Ġter imakasih
Ġmanifest o
Ġl antas
Ġps l
z h
Ġt aj
Ġj urut
Ġf ard
ĠG aya
Ġsele c
Ġat o
ĠAm alan
Ġmeny ambung
E ven
K ER
ĠN ya
Ġti ang
ĠH m
Ġmenc erminkan
Ġ18 0
Ġgem es
ĠCh en
ĠMar ch
b udak
ĠAp alagi
Ġdi aplikasikan
Ġpend atang
Ġar ak
Ġsk it
Ġup ah
Ġsour ces
ĠJ ur
ĠFak tor
Ġter la
ed s
ĠSi lahkan
Ġula san
IC E
Ġpelanc aran
od ua
Ġl ia
tur es
Ġperi ode
ĠARM Y
ĠMus tafa
Ġlog ik
onav irus
W as
t om
ĠB ayan
ĠD ick
ĠL ist
sek arang
Ġclass room
Ġt aik
emb atan
B ur
Ġh ampa
ĠN ampak
Ġtw it
argan egaraan
Ġr adi
si ve
Ġbek asi
ĠL est
ĠM d
aw aran
ĠW ali
ĠWilli am
I anya
AS IL
Ġkek ec
Ġkapas iti
Ġg eli
Ġpeny us
m end
Ġtem ui
Ġkek angan
Ġ08 38
Ġters usun
d aya
Ġjak et
ro h
Ġsh it
is ha
ĠL iter
ĠKAL O
ĠKep er
Ġki amat
Ġc iter
ĠR id
Per j
ĠIN S
ĠSp es
j om
Per lu
Ġgu ess
ĠS umpah
ĠU l
op a
Ġbala i
ul ia
Ġc e
Ġm angga
ĠS aif
Ġmenyer u
c orn
en as
Ġn tah
T iap
ĠAL AN
Ġ( ?
ĠH ANYA
H an
ab entuk
ĠJ ar
Ġlg sg
Ġc ukur
r ary
so alkan
ĠRob ert
2 000
Ġas kar
Ġass ist
B D
m ela
n at
y ana
ĠJ ack
Ġan k
elak on
D one
ĠH aut
Ġj urnal
K iri
Ġpes ta
ĠL in
vensi onal
H utan
angk ali
Ġmag hrib
Ġg os
Ġpak atan
ĠL ima
Ġsu ff
S uara
Ġd or
teri or
h et
Ġ `
UC K
Ġdikur niakan
om inium
ĠTr afik
Ġmonth s
m enc
ĠH aih
Ġju z
ĠEduc ational
D ear
Ġh op
ĠS L
umb aan
Ġcer ia
Ġk andar
ĠT E
f um
Ġr ub
Ġtempat nya
Ġmeros akkan
A yat
ĠK DN
Ġdil indungi
c inta
Ð¾ Ð
ĠD uit
Ġperc ent
LIM EN
Ġmeng umpulkan
ĠO nn
Ġturun kan
ĠN omor
ĠF asa
Ġpem akanan
m uslim
Ġdr ink
Ġdis ambut
Ġdag angan
ĠHAHAH A
Ġchi u
A yam
S ES
b lem
Ġsn ack
Seg ala
B urung
h rs
r ot
Pers oalan
ĠK now
ĠLab uh
er aian
Ġp ush
ĠT able
ĠV illa
EK A
ĠAp abila
K ulit
ĠK isah
Ġketah ui
it es
Ġber ebut
itu asi
Ġmis teri
Ġdial ek
ici ent
l ihatan
Ġlap or
D ir
at utan
ĠL uc
ĠN on
Ġberh ijrah
ĠMemb aca
Ġdip aksa
Ġr ind
Ġst uff
ard i
ĠJ ah
Ġpen uaan
Ġla per
Ġmethod s
1 20
ant angan
ec ond
ĠE S
ĠSEK OLAH
Ġmenyus ahkan
Ġphys ical
Ġmengh ampiri
Ġdiffer ence
ul urkan
Per anan
Ġprof it
ĠUS D
ĠL angkah
rie ved
Ġbant ahan
Ġqu ote
B uah
Ġsour ce
Ġs ikat
ĠB os
Ġv id
Ġmend aftar
ĠL ak
Ġmel u
ial og
ber ry
m us
ĠP ow
ĠTh omas
ĠMod ern
Ġcom es
Ġback ground
Ġlip utan
Ġus ually
d em
Ġdi tukar
Ġc ele
Ġtem ubual
m inton
ĠP inggang
up i
J uga
w ara
Ġeks ekutif
Ġeconom y
Ġbal es
grap h
Ġb aris
Ġsal es
ateg orikan
Ġ- _-
Ġj angkitan
and an
per ty
Min yak
OCEED ING
ĠPerp aduan
ĠP us
ĠLeb ar
Ġgob lok
ĠK andungan
Ġdis enaraikan
Pro f
pas ar
ĠSem asa
ĠG alaxy
Ġaja a
ola r
Ġrum it
Ġtreat ment
Ġmeng uatkan
Ġsed ara
Ġum i
ĠPem er
S ikap
Ġmark eting
Ġkab upaten
B ang
K urang
Ġdi order
ir akan
ĠSo alan
ĠUsah awan
m un
la l
ĠBur sa
Ġwes tern
k eh
elak aan
ĠA amiin
Ġng opi
UN T
Ġband ara
on na
ĠS amad
ĠS IH
ul ikan
Ġcomple te
Ġ19 45
ĠO m
AC A
ĠC up
ĠCh ristian
Ġfor eign
ĠJ ALAN
Ġgug ur
unt y
aq arah
Ġfun ny
O Y
Ġa a
e em
ih araan
Ġa ing
Ġs yak
ter ia
w ear
Ġla ck
Ġbah agi
in ed
Ġmeng unjungi
ĠAb bas
ĠS pir
Ġj is
ĠHung ary
ĠKo perasi
Ġp aru
Ġd uh
Ġj o
ĠM R
ĠH endak
ĠE CR
Ġam ali
Ġw acana
ud hu
Ġz i
ump ung
Ġ9 6
ĠM iri
AM I
Ġterk esan
Ġmenyi asat
Ġb ujang
ĠKem udian
T et
Ġmen oleh
ĠYouT ube
Ġop pa
ĠSis wa
# #
Ġcl os
Ġwkwkw kwk
ĠC ukai
Ġcam era
PR OM
Ġbenef it
migr esen
K asih
ĠSk ills
ĠSw itzerland
ĠS usah
h anya
Ġr ase
ul in
ul unya
emb uhan
Ġni pis
Ġmemb angkitkan
Ġpub lish
z ab
ĠT entang
Ġkec emasan
Ġamat lah
ĠG w
ĠST AT
kar ya
ĠiHeart Awards
ĠB ara
ĠC l
Ġorgan ik
Fat ihah
ĠS iri
ant is
ĠG L
Ġmele wati
Ġmu f
ĠT hat
Ġent rep
ĠSej adah
Ġon es
nya aa
iz i
Ġik u
G w
q ah
Ġk id
A lah
Ġkal ori
Ġdo or
if atkan
f u
ĠR un
ĠF OR
Ġkar et
Ġkurang nya
Peng h
ĠEm ang
G ab
Ġdik ategorikan
Ġdih ar
Ġwah yu
Ġkem ain
Ġterk awal
j b
Ġkar oke
Ġkej atuhan
ĠSo lat
Ġc apai
Ġag ent
Bi asa
m udah
ĠStrat eg
ut ed
Ġam nya
ar ikan
ĠR uss
Ġpen ambahan
w are
ĠB omba
ĠC uci
qu es
ĠECR L
anj ak
ĠMan is
ri yyah
Ġterj atuh
Ġjer si
ĠLi ve
Ġuc apkan
ĠCorpor ation
Ġst ation
iv es
Ġcle anser
Ġpen ah
l g
uruh jaya
Ġkek alahan
Ġditer jemahkan
z on
alam ualaikum
ĠJ ung
Ġkn e
J auh
ula ran
Per ubahan
Ġma unya
j ir
ĠD oa
ĠD ewasa
end ahkan
ĠO K
H IR
ĠPer usahaan
all o
Ġko e
ed o
ĠH ingga
M alas
Ġsec epat
A mer
ĠP lus
Ġbob o
Ġset inggi
ĠSi am
ĠAud it
B arang
Ġdid epan
Ġkli en
ĠH p
ĠSt ation
Ġper ilaku
ĠL IKE
Ġfac tor
Ġmer ayu
Ġmuk anya
Ġch inese
di am
Ġder ma
Ġar ti
Bag us
ĠB esi
eg al
Ġg l
Ġbi le
Ġz izan
In t
Ġseem s
Ġt rop
Ses uai
i wa
ĠP ra
ak itan
IS N
Ġum no
Ġp le
Ġmem aks
Ġdit untut
eter an
Ġkuant itatif
rehensi f
ud ing
lo y
Ġcomp ared
s ap
amb aran
ar o
ĠK K
ĠO ri
Ġger ai
Ġterp isah
Ġcr edit
Ġ197 6
C adangan
S ape
G AN
ĠT ujuh
ib ahasa
Ġ8 6
Ġ1 30
pr insip
Tah ukah
ek ad
Ġsk op
n s
l emen
ĠK atanya
vil le
Ġsepert imana
P elaksanaan
B TS
ed er
angk atan
D ato
Ġmen anam
Ġg m
id or
ain e
ed ay
b esar
Ġm g
ĠD z
ĠSEBEL UM
Ġc ium
[ ]
ĠW AN
Ber h
ĠSed erhana
Ġplan ning
ĠB ach
UT AN
Ġh antaran
Peng alaman
Ġrob ot
Ġsi x
em ik
Ġdom ain
j at
Ġl anjutan
ĠN k
Sy iah
ĠC ream
Ar my
Ġterc inta
en ap
Ġkur angkan
Ġhand le
s ah
uk uhan
and ra
Ġda ily
ĠKela b
Ġkag ak
ĠT A
Ġv okal
Ġsal do
Ġeng lish
ĠGre ek
J ual
S uk
Z aman
Ġmeny ifatkan
Ġk uku
Ġset ara
Ġt ib
Ġ197 7
Ġl ompat
Ġkh at
Ġhow ever
Ġt afsiran
Ġmajor ity
ilm uan
Ġh ear
ers ihkan
ĠS pecial
Ġterl uka
ĠM UL
Ġc ipta
Ġdik ec
Ġex erc
id at
ff ff
Ġund angan
land askan
Ġmen unjuk
P i
Ġorgan iz
Ġnecess ary
and ukan
ĠTok o
Ġkant in
Ġper olehan
Ġtangg apan
b andar
Ġcons ist
ed es
L IS
od i
ra v
ĠB eh
mb ak
ĠComp any
Ġkop iah
OLO GI
ĠPasi fik
' ve
s eri
Ġter ancam
if orm
Ġbook ing
Ġbalan ce
ac ity
Ġng ela
Ġbeb anan
rak tik
Ġs ter
Ġy h
ĠS ul
Ġst ated
ĠKet er
ens us
ĠKual iti
Ġberd osa
odoh an
ĠW ajib
Ad apun
and uan
Ġje j
Ġket e
Ġt n
Ġch oice
ĠDr ess
D ewan
j uan
ĠB is
Ġpo or
ĠPer ubahan
Ġdisi asat
P O
Ġn amp
Ġc y
ĠSed ap
ĠKAL AU
Ġcel com
ĠP izza
Ġng eri
Ġj omblo
ob or
ĠT ENG
akh iri
ĠW ash
ĠTER BAIK
enc ies
ungg ulan
uny it
Ġdis erang
afaz an
Ġd ara
Ġ7 8
cel ona
Ġz h
Ġmula kan
ĠK irim
Ġg ik
Ġaw an
w ujud
ĠJ as
ĠK OK
TER N
96 7
Ġla gunya
Ġter awal
Ġf air
ĠJ ungkook
Ġprof il
J uara
Ġpen untut
Ġmenjadikan nya
Ġvis it
ĠT inggal
ont akan
Ġoff ic
ĠB enda
Ġpeng urangan
Ġcomp ani
Ġas tr
ĠGO OD
Ġrepres ent
n ai
umb at
Ġth row
Ġl eng
Ġmikir in
ĠS out
uh ur
H m
r up
ya a
eper luan
eny ih
Ġungg ul
ĠD aya
Ġdis alurkan
Ġdih ormati
Ġb lah
Ġacc ident
Ġdi atur
ĠBer p
ĠBer nama
Ġberat ur
b us
Ġters er
Ġapp oint
Ġc in
P an
or es
A wal
g is
Ġf ol
Ġ; .
Ġmengh uraikan
ĠAli as
ĠS ong
Ġbl g
rif kan
Ġcrit ical
Ġfeed back
am ana
ĠMengh ilangkan
Ġm ng
ar s
Ġtak dak
Ġsek eluarga
h idup
el anja
ĠB ir
ĠB esok
b ody
TI F
emp ol
s yarat
Ġy uran
eb on
umb ung
Ġbert epatan
Ġjud ge
l ia
Ġneg ative
Ġmin ister
Ġkh asiat
gi g
Ġan ime
Ġala rm
uas ana
D unia
ro g
af as
Ġapp s
A j
Ġout side
Ġkew ajipan
air s
ĠTekn ikal
i gr
gi at
An jing
ĠMeng gunakan
Ġterg olong
Sc ary
Ġtela t
IN C
c ast
f ace
Ġpen al
ĠV er
Ġr umput
eh kan
Ġlead ers
t urut
at ah
Ġberk urangan
Ġkant oi
ĠCal on
Ġinvol ved
ĠP eter
Ġend ing
j ad
Ġl ont
Ġmuslim ah
Ġperg uruan
ĠM ANA
Ġdis esuaikan
Ġmele kat
s ib
ĠC EO
Ġag ung
Ġw ifi
Ġatt emp
ĠKUR UNG
Ġimp likasi
empurn aan
on asi
Ġver sion
Ġ196 5
enger usikan
d it
Ġs ip
Ġt utorial
Ġkes eimbangan
Ġn ut
Str ategi
ĠBAN K
K ang
ĠH ilang
Ġmak siat
d etik
Ġh amb
ĠT eman
ĠBBM As
Ġ9 7
Ġdid irikan
Ġfound ation
K alian
ĠM C
Ġmembuat ku
b ro
ang ku
st ant
Ġr int
ĠTr aining
ĠPROD UK
ĠJ anji
K lo
M AT
Ġse pasang
ot ed
ĠY u
ob atan
ĠPin tu
I AP
Ġh am
ĠM ary
ĠP C
ĠL engkap
ĠG ob
Ġsu ay
Ġvide onya
B at
Ġberh asrat
U m
Ġtak pa
ĠZ am
ict im
K ab
Ġmemb atalkan
Ġkes es
Ġpend engaran
Ġtubuh nya
Ġh ours
ĠT am
ĠC ivil
Ġkor upsi
Ġpem aju
acam ata
Ġgig it
ov ers
ĠSEM ASA
Min um
ĠM ing
ĠG aji
Ġplan et
P ulau
Ġber edar
Ġp ijak
O f
Ġmeng gerakkan
lim at
Ġsel l
ED IA
oll er
ĠPal embang
Ġb lue
fr astruktur
Ġpo in
Ġchalleng e
ĠCh ong
unt ungkan
ingan kan
Ġaktiv is
ĠOl impik
k ey
al hamdulillah
Ġw all
ud ai
Ġmel engkapkan
at ors
Sy ed
ĠSAMP AI
ela si
Ġst ore
esh op
Ġn ad
ut ih
ĠD il
Ġsc ore
res h
Makan an
ĠM ekah
ĠB awah
Ġv illa
t amad
SPR M
Ġle st
IR IM
anc ed
Ġdik alangan
Ġbec ame
im anan
tok oh
Emp at
B tw
p aran
Is tilah
Pol is
Ġmener oka
ĠSu ami
S andi
ĠH ubungi
ĠKe empat
Ġdib intangi
us ul
ĠL ay
0064 006
r em
Ġber ibu
aru f
ro duk
Ġsek ilo
Men ingkatkan
ĠMES YUARAT
Ġs arang
ĠC ur
Ġpr eg
asih atkan
B atu
r oss
ĠM ew
up id
ĠNg gak
ap apa
D h
ĠK ayu
ĠSet uju
Ġsal lam
Ġdi tu
ĠKhal dun
Ġis tr
K omp
Ġn u
ep ikan
Ġnam ely
ĠR at
AW AN
Ġfasil itas
k awasan
ĠTe aching
ony et
aw w
ĠMus im
Ġtel or
ĠPENG G
Ġb uru
Ġber es
Ġkemb ang
ĠTok yo
c erita
ut uran
Ġmen enangkan
Ġst reet
ĠKah erah
ot esis
ĠU DAH
ĠThe ory
Ġprov ided
Ġscr ub
erint ahan
Ġb all
PR U
Ġlam anya
Ġt up
Ġket entuan
Ġpengas as
ongk ang
Ġenc our
ĠMuz ium
Ġc anggih
Ġgemp a
y p
Ġk ode
Ġ7 1
ĠBers ep
Ġf ish
irm asi
Ġtek ak
Ġpat uh
xic o
C ap
meng h
Ġweh h
Ġlamb ang
Ġdiwak ili
Ġbas is
ĠBA IK
ĠK EK
angg apan
m edi
ĠSek ian
Ġrela x
Ġdikur angkan
( @
Ġs uh
Ġla jur
ĠJ eneral
Ġberc anggah
Ġker ak
Tak ut
Ġpengh ayatan
ĠHis ham
Ġ8 2
Ġfund amental
Ġt ick
ĠC abaran
Ġtas ik
t angga
ĠC all
gug at
ak o
el idik
Ġdih ukum
Ġkant ong
ĠS OL
Ġais krim
Ġgil er
T ips
Ġpen entuan
ĠJamb i
ur angkan
ĠSo f
ĠL az
Ġdit arik
ul angan
Ġpers pective
ĠTh read
ĠZah ir
ĠKap al
Mat erial
Ġungk apan
p au
Ġr upiah
Ġla lui
eg er
Ġres ources
ĠCar anya
r ani
Ġmeny emak
ĠS UL
ni val
Ġperc eraian
ĠProf esional
f era
j ud
p ela
ĠAir lines
Ġ ana
Ġpeng uat
Ġdiman faatkan
c ontoh
Ġber landaskan
Ġterj angkau
Sy urga
ĠIra q
Ġmer usak
ender al
entif ic
Ġmenj emput
b uran
Ġn eh
Ġni la
B ank
ap is
ĠS US
ĠC am
ĠSM S
ĠShe ikh
Ġvol ume
ti e
ĠF iz
angg akan
Ġdit angg
ĠP ILIH
Ġsay uran
ĠS RI
ĠB iru
M B
Ġestablish ed
d ar
f lix
en aga
iner ja
d iri
in ambungan
ĠSer ikat
vent ure
y ari
Ġdij awab
al og
had ow
ĠPil pres
ĠE ar
Ġgem ok
w ow
Ap alagi
eluarga an
H aa
hem ati
Ġrela te
Ġsent imen
ĠB ol
ĠH j
Ġmemper cayai
G iveaway
b k
Ġg arang
Ġw ind
Ġmus ibah
Ġkon vensional
Ġeth nic
1 10
Ġny amuk
ĠG ratis
Ġfriend ly
s ayang
Ġsp ace
agih kan
Ġng ant
ĠP ek
Ġter minal
Ġmeng iktiraf
Ter dahulu
angs ungan
th a
c apan
ala san
ĠK arang
D uit
h aa
enc ing
ĠBat am
d eg
Ġpen si
ĠAp i
Ġib uk
Ġkeboleh percayaan
F it
ĠD am
Ġim un
k alan
p ong
Ġjadi lah
Ġen h
UT A
Ġbok ep
Ġdit unggu
k ak
l ock
aw ati
Ġpad amu
R ek
ĠH ay
ĠX XL
Ġsej agat
Per ang
Ġme i
ult ur
B as
li at
Ġbank ing
b elah
Ġt ulus
ĠT L
ĠH ome
ĠAl geria
Ġberk unjung
Ġga j
Ser amai
em ari
Har us
Ġbud get
Ġdisi apkan
ĠN A
Ġsur abaya
eku ensi
S G
d ib
ĠT ujuan
Ġl ena
ĠKant or
) ;
op ter
Ġga ve
Ġber in
ĠB ugis
Ġent er
Ġlearn ers
Ġgmb r
c am
Ġters ayang
Ġsun at
Ġterh aru
Pas ti
Ġw abak
ĠW ater
ĠPand an
ĠSAH AJA
O F
Ġh enti
Ġtr ending
[ [
ĠT ri
ĠF lor
um ar
Mes ki
o yak
Ġd alem
Ġjaj ahan
Ġtak tahu
ĠIs hak
Pem erintah
ĠGab ungan
aw anya
Ġare as
ĠX S
44 00
ĠCali fornia
ĠPERC UMA
Ġmem indahkan
emb ali
Ġmer ampas
ĠN ASI
ici ency
Ġtr en
Ġrakyat nya
Ġbin aan
ĠSEL AMAT
Ġseb ilangan
Ġh erbal
ĠSy dney
ĠQ uality
Ġterlam bat
ep uk
Ġbert empat
ĠGold en
ĠB ismillah
ĠAn uar
engk a
Ġberp r
Ġmo lek
W arna
ĠKap ol
R asanya
Ġper industrian
ĠD ur
Ġpat ung
Ġinter vensi
Ġkeker apan
Ġad dress
Ġped agogi
in ally
ĠC i
Ġ' '
Ġspe ech
ĠYo ung
D ij
Ġber le
ĠF az
ebut uhan
Seb ahagian
Ġtel an
ĠH ah
ĠC awangan
ANJ ANG
ĠT ua
emb alikan
Ġpeng uasa
ur ukan
Ġmend oakan
Ġdad dy
Ġkonserv atif
ed ari
ect s
Ġsh ar
Al bum
Ġbak so
ĠRep ort
b our
Ġdik embangkan
Ġse ek
ĠK ira
Ġkemb ar
Ġcas es
Ġs antan
il ip
uc ian
Ġku ala
Ġsu gar
Ġcomp lain
ĠSH AH
ĠSH OP
? !
Ġlangg or
Ġh awa
Meng apa
ĠDAT UK
Ġw ed
ĠF ad
vent us
Ġpemas angan
Ġo ot
h ur
p g
Ġmemb icarakan
ĠG em
Ġn es
IT U
at ely
Ġdi edarkan
ĠPOS TAGE
atur es
ee eee
Ġ7 4
ĠCh ild
E V
R is
la im
P lease
S ome
ĠTok opedia
Ġlook s
ad or
ĠP lay
Ġle e
Ġketid aks
N ajib
Ġto xic
bi asa
Ġbehavi or
ĠV en
Ġ+ +
Ġmem uji
D P
Ġcontin ue
Ber mula
ĠBait ul
Ġh ik
ĠK ut
enar ik
Ġdila lui
ĠKER JA
Ġs ob
Ġber acun
ch ange
Ġher o
ĠL ai
Ġwor ry
om inasi
Ġ% ).
Ġ01 9
taf s
" "
F L
ĠK alangan
uc ks
Ġterp engaruh
eb oh
eri e
ĠC R
M oga
Q A
Ġber ucap
j gn
ĠM L
Ġser antau
Ġperl umbaan
uq aha
an w
PR K
ĠKON S
end e
Ġbuk unya
n ul
ĠR an
Ġdis ek
ĠA de
ĠRu les
d id
ĠM oto
Ġanim asi
Ġto wn
Kep ala
ĠE st
raktik kan
ont ok
Ġdid uga
........ ........
m ir
ter us
af ter
Ġso f
Ġp ujian
m ate
Ġl ulusan
Si lahkan
Ġc ake
K IP
So al
Ġ197 5
Ġtak aful
Ġkot oran
Ġband uan
t adi
Ġb wk
Ġbor neo
ĠB anjar
if at
Ġkeh akiman
M or
Ġp ekat
Ġtemb ok
Ġspe ed
ur ch
ĠM IC
ĠPut eh
Ġdeng gi
Ġr emb
Ġv ictim
Ġmel on
Ġfiz ik
Scary nya
uk o
r ap
Ġd p
Ġk uc
ĠK AK
ek onom
Ġterj ebak
Ġr ich
ĠC L
ĠE ra
Ġhuh uhu
umb ar
b ola
Ġr enang
eg o
Ġe ye
Ġimport ance
Ġk ara
ĠPr ac
emu anya
Ġo mg
ĠC ambridge
Ġ8 1
Ġbl n
ĠFat imah
Ġw adah
ĠD ek
ot isme
ĠW ay
Ġbak a
Ġbut ter
Ġpent adbir
ĠUP SI
A gak
s akit
Ġs ambut
Ġh aaa
ĠG ereja
Ġkab el
Ġsis ter
ĠMan faat
Ġport folio
K EN
isk al
Ġs ticker
as pek
Ġc aj
tem en
Ġbul ly
o gn
Ġt q
Ġmeny alurkan
Ġkela juan
Ġmenya lahkan
Ġd uti
Ġsud u
ĠðŁ ĺ
ĠPem ulihan
Ġp dhl
ĠS uci
ĠP ekerjaan
Ġmemb iayai
ec at
aj akan
Ġbeli in
Ġurut an
Ġlemb ab
Ġg osok
Ġb ara
ep e
Ġconduc ted
ai led
ur o
Ġdin amik
ĠMEN J
ĠBersep adu
ĠJ on
pas tian
ĠPen ulis
ĠHist ory
Ġp ag
am med
ĠL emak
lam e
Ġkom b
Ġcol our
ob ohan
ikir in
ven ir
Ġins ide
Ġpeng und
ĠSt op
TI ON
yarak atan
U mur
Ġmengungk apkan
L et
Ġmeneg ur
A de
Ġeks perimen
s d
Ġper ikanan
Ġgo es
ĠTa ehyung
ĠL upa
tif ikasi
ĠMah araja
ef ul
r iti
t anda
amp ong
Ġbet ina
Ġsm s
Ġmengh ayati
tif y
M mg
r ok
ch ing
B u
AT KAN
j ung
ĠS pr
Ġberb elanja
Ġing t
ĠMak asih
ĠJ ER
Ġber niat
ast ra
Ġt end
alla l
ĠM ilo
Ġmus nah
Ġberga ul
Ġob lig
ĠS YA
ĠS aiz
H AM
Ġment adbir
Ġe jen
ĠPen at
Ġnis bah
s up
Ġk le
vi ve
ĠHAHAH AHA
Su ami
Ġut il
Ġind eks
ID UP
Ġh elai
G i
d ek
ak apan
gh ah
Ġterk adang
Ġ(? )
H asan
J AK
ĠD etail
D R
ĠG anti
ĠW ith
Ġ/ .
ĠE li
Ġmana ge
Ġcec air
j ogja
as ons
ĠM ele
AN TI
tu ah
Ġgu id
Ġt ayangan
Ġr el
ĠD er
Ġf arm
AR AH
Ġb less
Ġn ct
Ġpengangg uran
Ġje ans
up ang
ĠT own
Top Social
ip at
ch ar
ĠAS LI
Ġcre ation
ĠUst adz
Ġk y
ĠS UM
Ġr ide
ĠC are
Ġb leh
Ġg al
Ġberb au
ĠD us
Ġmeyak inkan
S uatu
W arga
ĠT urun
Ġdit ekan
Ġgab ut
Ġshow ed
ĠG EL
Ġv aksin
Ġproduc ts
ĠT arikh
ast am
Ġp gn
3 70
angk ala
ĠCh elsea
ĠTr adisi
ĠMeng enai
B K
en tion
ĠZ akir
Ġkak inya
AJ IB
ĠK embangan
Ġr p
ĠKem as
Ġkem asan
Ġkarya wan
ĠC amp
Ġfor ce
ate ver
Ġsa ingan
Ġdit anam
Ġobser v
ĠR oy
Ġtak ziah
Ġc ode
ĠM obil
Ġker oh
Ġis o
Ġbel la
ĠPr ia
Ġel ements
Perk ataan
Ġdetail s
Ġintel lectual
Kit ab
es al
Ġmeny uarakan
Ġbantu in
c ari
ĠP eri
Ġc ape
ĠK unci
In ter
Ġm ultimedia
ĠIs teri
HAT S
Ġdi ad
ow a
lah gunaan
ong ol
ob oh
Ġta uk
Ġdib utuhkan
F ree
ĠS om
Ġpi ala
ĠKur ung
Ġreport ed
ĠB ATU
ung un
Ġliter asi
U t
Ġn t
ĠGran ada
ĠJ O
Ġv ital
Ġset idaknya
ar am
ĠDat in
rop ri
eran ian
I X
ĠB udi
Ġmeny atukan
ĠSi asatan
ot ing
ĠL aluan
ĠArab ic
oon gi
ĠA F
B o
ĠC S
Ġhist or
ĠI dul
Ġf lo
ĠPay udara
id ap
omo tif
Ġkur un
Ġger an
T q
ĠC u
Ġpoint s
0065 0072
p ha
is on
ĠDok tor
ĠLib eral
ĠA ug
ĠY am
ĠBER B
ĠSel uruh
ĠI migresen
ĠR ok
ĠAb ad
k iri
ĠW KWKW
Ġpemb edahan
ĠL uas
Ġmengh indari
Ġula mak
Ġfin ally
ec ause
Ġst alk
Ġbl ood
Ġfre edom
Ġdip utuskan
ĠSUP ER
eh hh
Ġam ount
ĠM ov
ih ara
ĠAr ah
UL IS
ada b
Ġde ad
Ġ:) ))
Ġberis iko
Ġb ai
ĠPer atus
Ġsec ret
Ġdij emput
gg gg
ef ore
Ġform er
Ġrah im
Ġdikenal pasti
E ks
ve i
Ġkomp rehensif
Kes impulan
ĠR AH
Ġsus un
ĠV ir
unj ang
ikat or
Ġkel iru
Ber minat
Ġpengan tar
id ge
ĠN AMA
Ġhis ap
w atan
ĠIn ovasi
seb elum
Ġh az
Ġal k
Ġmalah an
ĠAz man
b esaran
ĠT elur
Ġg ym
Ġkeb erhasilan
Ġpos laju
ĠMe xico
Ġh any
ĠS C
Ġg elang
Ġku i
akt ub
ĠC ustom
ĠSer vice
Ġfit rah
Ġmeneg akkan
0075 006
ĠS ele
ĠM mg
Ġc enter
Ġj ek
Peng erusi
h asil
Ret rieved
H mmm
ĠG ag
Ġba e
Ġexc ept
Ġbersed ih
ĠMuf ti
Ġt mn
ajib an
ĠHad is
F T
ga ji
Ġdah i
Ġen sure
Ġsn ap
Ġb agaikan
ĠA yer
As pek
Ġent iti
Ġpia wai
Ob jektif
K eluarga
Ġ19 50
K EL
Ġa ih
ĠShaf ie
emb ilan
ĠZ ip
ĠFr ancis
pt n
ada wi
ed ak
ob ain
Ġ19 48
ungg uhan
ĠPol and
ep s
Ġmenj urus
Ġgo yang
ĠS idang
ĠCh an
as es
ĠH en
Ġop pos
ĠB AK
Ġf oot
olog is
elanj akan
idup kan
ĠKeb un
Ġmengg elar
ĠPerg uruan
Ġmembuat nya
Ġmon itor
L ove
ĠH ampir
ump at
ĠMus ic
j uta
Ġy ok
IT Y
Ġj k
Be irut
ungg al
Ġpenyel ia
Ġs afe
ĠG ed
ĠPers onal
ĠUS A
Seri us
H aih
Ġkes akitan
Ġag ree
Ġkel engkapan
arah i
Ġberkep entingan
ĠC ANTIK
Ġl ock
Ġdib iarkan
Ġdapet in
ekonom ian
c akap
Ġmin oriti
Ġch annel
Ġyour self
Ġterh asil
Ġak ad
ro v
ĠNK RI
Att as
at asan
ĠK end
Ġmengg esa
Ġgu ide
Ġmen emani
Ġbers ara
Ġdin ikmati
Ġtar ikan
Ġpek ebun
Ġko labor
Ġmew ar
ĠKh alifah
Ġ197 3
tafs irkan
Ġl ob
Ġka unselor
osk op
our se
S ince
ĠU I
S ik
Ġg eb
ĠJ DT
Tan ah
Ġbers enj
ĠPen uh
UN AN
Ġpengec ualian
L okasi
Ġpers egi
Ġpela yanan
Ġt ata
Ġmen antu
Ġmemb ekalkan
ĠK PM
Ġnik mati
Ġjend ela
Ġmana ger
Ġjas mani
ut ihan
Ġevery day
ĠPen syarah
Ġmengh ancurkan
integ ras
Ġmem a
ub apa
si gen
Ġput ra
M un
p anjang
la sh
Ġn arkoba
Ġpr etty
Ġter api
end y
ei gh
pen y
ĠAf ghan
ĠP u
Ġber amai
Ġray uan
Ġtak h
Ġtra uma
B anjir
wh ere
es if
Ġbat am
und er
ĠTr us
elew engan
W kwkw
Ġ ukur
Ġid ola
Ġspes ifik
ingg ung
RE AM
ĠTaw au
Ġ uh
Ġisti q
Ġmengab aikan
B ener
V O
Ġboleh lah
ingk irkan
ĠDick son
as teraan
el us
Ġpem an
aks ana
Ch ina
aj emen
Ġgr and
ĠRe formasi
G olongan
f action
al us
ĠOb jektif
Ġadik nya
Ġdis kriminasi
Ġmend erita
Ġut ang
ĠL INK
ers ih
Ġaudi o
ĠKUL IT
Ġt rig
ĠB ent
Ġneed ed
Ġmem antapkan
Ġbert anggung
Ġlar ge
W ilayah
? "
E duc
Ġm aha
Ġt ried
Ġdiffic ult
A sy
p ons
un kan
ĠS ap
Ġsk irt
ĠH im
Ġpen ak
elir uan
ĠB endah
Ġsem i
ark i
Ġmer angka
ĠW isma
ĠMas zlee
ĠIns yaAllah
ĠBand ara
ad am
Ġche ap
le b
og en
Ġg opay
ent ine
ĠF ormat
ma af
ĠEng ineering
ĠSTAT US
ĠG reat
Ġsah ih
Ġtim ah
201 7
ĠPsych ology
Ġcom eback
Ġrela tif
aaaa aaaa
Ġbengk ak
Ġdibeb askan
Ġh ormon
ĠS IK
I ON
w angi
Ġm w
Ġso fa
ĠSem akin
Ġsh all
S apa
ĠP eper
Ġhe ard
Ġpat tern
ĠB UN
Ġcomp are
ĠP ariwisata
ĠF er
Ġmes jid
N a
Ġy i
ĠMad rasah
Ġprim ary
Ġm os
Ġm rt
at uhi
ĠQ ue
anj ur
Ġindividual s
ĠD agang
UM NO
Ġdik ekalkan
Ġmenc erahkan
Ġbert araf
Ġsej enak
ĠMuh amad
r un
ĠN EW
Ġto ward
ĠPer si
Ġsk ip
mar in
Ġparti es
w ok
B erapa
s ee
s umber
ĠJ emaah
Ġmer aikan
Ġr ab
ĠT or
ĠU ng
Ġbadan nya
Ġpus aka
Ġberp akaian
ĠUn tung
ug ikan
Dem ikian
g m
Ġpen anaman
ensi on
Ġbab ak
ĠP ah
Ġt eka
Ġpeng lihatan
002000 41
Ġbac ot
m inya
Ġs ulh
Ġmer ubah
ĠU U
Ġfollow s
Ġmenyer ap
S an
Ġp iring
idd at
mat ang
Ġsu it
ĠMas ak
Ġmenyer upai
epak atan
Ġkel emb
ĠPen olong
Ġped ih
ĠRet weet
Ġpem injam
Ġtert ekan
ĠJoh an
Ġke ilmuan
ĠJoh ari
Ġkap italisme
ectiv es
us n
ĠP esan
op at
Ġbo ard
Ġterj amin
ĠD ong
Ġpemb esar
Ġ6 28
ĠPAK AI
ĠS ai
ĠK od
Ġmem ulihkan
Ġind ia
ĠD EP
Ġbe y
pro duk
m inggu
Ġh ob
ĠS ambil
ĠDa un
Ġterbi asa
Ġjuni or
N P
as as
Ġkons ultasi
Ġfollow an
Sen arai
ĠLat in
i u
ĠT elah
ĠG al
ĠAd nan
Ġe lectr
enti asa
Ġmembah as
Ġregard ing
Ġc ry
Ġmeng isytiharkan
ĠMak assar
ĠDem okrat
ĠBer g
Ġberp atutan
Ġass oci
ĠKong res
ĠM ud
Ġij tihad
M ama
ic ations
U jian
Ġmen ewaskan
ĠAs alkan
N AK
ĠL ANGS
erl oh
ĠSay angi
Ġbend e
per empuan
PR OCEEDING
Ġj ago
ĠD eli
Ġcap tion
Ġmac et
g or
ro y
Ġtr afik
h mm
Ġy er
ĠSy ari
Ġvers e
Ala san
Ġpeng edar
etah un
ĠS ara
Ġsy iah
Ġmempert imbangkan
Ġdir asakan
Ġpenj en
ĠKep utusan
ĠEd isi
ĠCamer on
if ah
Ġgeo grafi
ongk rong
us akan
Ġmemb entangkan
D rama
ĠP IS
Ġberp andukan
b andung
Mem andangkan
Ġhigh light
e qu
ĠD adah
ĠR ak
Ġha iran
ĠProf esor
d ok
ĠM ach
Ġg at
ro le
ĠK ey
Ġ9 2
ĠHar ry
Ġrev elation
Ġc elah
Ġschola r
C ol
K ira
P UTRAJAYA
ĠK andar
Ġkel uhan
emen in
efin isi
it ia
Ġmen ara
ĠB ohong
ĠR ock
Ġstr es
Ġjemp utan
Ġdoc tor
ĠO lahraga
Ġmand iri
ĠCour t
Ġh ir
Ġmeny adari
Ġbed ak
Ġsaf ety
ĠRoman ia
ĠN ar
St ud
Ġtert idur
Ġmen ular
Am alan
ĠCari Aku
re asi
ĠMad rid
ĠNa im
Ġpele pasan
ĠM eg
Ġuk m
KW K
ĠWh ite
N aik
Ġs unt
ĠK y
ocolat e
Ġt ech
Ġr ant
iz am
30 7
Ġnampak nya
m ada
Ġb re
Ġdi ucapkan
ĠG ame
j ika
ĠK lo
Ġg round
Ġmem e
ung utan
ep rek
anti asa
ili ah
006 3
Ġperc akapan
Ġtas k
B ased
Ġin ti
ĠUmm ah
Ġachie ve
B eb
z y
ĠI lm
ĠY aman
gh h
ord an
Ġgad get
Ġmeng ajarkan
ĠPEMBEL AJARAN
u ap
Ġh our
ab ur
Ġbesar nya
Ġpresent ed
M ula
tain ment
c os
Ġp abrik
ĠM ai
Ġ8 7
ĠTak kan
Ġlem on
G imana
ĠMic hael
Ġm alay
Ġh ap
Ġpay ment
J AM
ĠA UT
ĠH ub
anti an
Ġperc ubaan
ĠB ULAN
Ġtah fiz
les ter
ĠIr eland
ut ing
ĠSeb enarnya
P ake
b oh
m cm
Ġng urus
Ġdik ongsi
Ġdik utip
Ġ9 3
elar asan
ĠF riend
Ġgem ar
h ers
ĠM ara
si um
ĠW angsa
OR E
Ġlectur er
7 45
M ember
T as
p ens
K ey
Ġw ali
Ġcon ven
Ġpad aku
ĠH ill
12 7
Ġberc erai
Ġg lowing
ut o
ĠO M
lo ve
ĠHij rah
ĠS amp
Ġbel ow
Ġwant ed
ĠMAS ALAH
ĠT apak
Ġpem asaran
Ġtem erloh
HATS APP
j enis
Di Syurga
ĠPar si
eks aan
ĠAmer ica
Ġhid ayah
ĠSeg era
Ġbersem angat
und ay
ĠPend ekatan
um urah
Ġmer angsang
Ġke enam
Ġberg ambar
r ick
y ul
Ġn ob
ĠP apa
Ġm omen
Ha ah
Ġwas h
ut ama
ĠAr gent
Ġkek eluargaan
Ġmem ori
st arian
Ġtid a
Ġsej ajar
AW A
at t
ĠK ucing
Ġla rat
bah aru
ĠSu fi
Pol sek
Ġmen ari
ĠIN FO
Kel antan
P ET
Ġdi us
ĠD ULU
Ġexp lor
Ġt umpang
as ari
ĠAssoci ation
Ġparticip ants
S E
ind ar
way atkan
Ġpre vious
Y ah
ĠO il
Ġdiw ajibkan
ING AN
ĠMas ter
ĠTER HAD
ĠCariAku DiSyurga
Ġas set
P op
ĠK ode
Ġdis alah
AT E
AD HAN
aliz ed
ĠH onda
ĠAz mi
ĠR atu
ĠR uang
Ġs r
ĠF R
Ġ16 0
fit nah
ĠJAB ATAN
il iran
Mel ihat
F an
Ġmer k
Ġpeng akuan
any ikan
Ġdian ugerahkan
anj ong
og ni
ĠMok htar
ĠToy ota
ĠR adio
Ġmov ement
Ġmeng untungkan
Ġsek atan
Ġdoes n
d at
k ok
Ġj umat
Ġpeng erusi
Ġdi war
S ing
per m
ter j
Ġmad rasah
ĠRep ly
Ġmengec ewakan
Ġs id
sh s
ĠIntern asional
T inggal
Ġber itahu
IR A
ĠAg ar
ĠBek as
Ġkomb inasi
Ġmess age
ĠJ UM
ĠO B
AH IRAN
aw anc
ĠIni lah
Ġur ban
Ġpreg n
Ber at
Ġsec urity
ĠV ictor
Ġsep eda
5 000
s orry
ut ors
D ep
ĠT amp
ed en
Ġap ril
ĠST R
ĠM aw
]] .
ĠBOD OH
Ġmeny empurnakan
Ġv oice
Ġmul us
Ġjad wal
Ġm mb
Ġj aa
Ġc raving
Ġg ong
ĠN OT
imb un
empor ari
Ġp angkalan
ĠPen yakit
Ġdeskrip tif
um as
ĠN ok
ic u
O A
ĠU PM
Ġst andar
ĠIn formasi
Ġ8 9
Ġfak ulti
Ġexc l
ĠFound ation
ĠH D
Ġkeb urukan
ag ed
Ġn ajib
Ġr out
ĠAllah u
Ġ197 1
eor angan
d am
Ġpok et
D im
ĠP sik
ela an
ĠFor um
Ġactiv ity
ĠC ard
ila l
Ġmak nanya
UR U
Ġtek stur
ĠM alah
ĠPas angan
engg arakan
ĠPK I
Ġear lier
Ġfut sal
ĠM arang
Ġper ce
Ġfem ale
Ġtr affic
Ġsen in
Ġtel us
Kap al
angk in
Ġkak a
Ġfr amework
ĠAp ple
uk arkan
Ġdib alik
B abi
N ow
az ak
Ġlap is
ern aan
ĠH alaman
ĠF air
ka itan
Ġperk en
Ġliter ature
Ġgur au
w orth
Ses etengah
h r
angan an
ongs ikan
Ġt arian
Ġper hiasan
b ud
ĠN usa
Ġmengut ip
b asi
Ġlazim nya
ĠL am
IN YA
Ġperm udahkan
Ġtg gu
ĠCel ana
ĠBBMAs TopSocial
q a
ĠD id
ac ing
Ġku ar
Ġimp or
Ġtat acara
ĠAn is
ris e
str umen
TAN D
ah ul
ĠPut ri
ĠJAW APAN
Ġm imin
ĠS yar
ĠS lov
ent ik
Ġsat ay
ĠPerh impunan
bi ar
ĠJom Kita
ĠG ILA
Ġkela r
off icial
ĠSela yang
Ġumum in
Ġmilik nya
Ġpend akwah
ĠSt ock
h in
Ġc reat
Ġmen ampakkan
il t
Ġkem aman
Ġperj umpaan
ila s
ĠB angkok
po int
es tion
Ġput eri
Ġspir it
A man
Ġb aja
ingg an
Ġin ci
lik es
ĠJ PJ
Ġdis yaki
Ġdip isahkan
Ġke imanan
Per caya
ĠKE D
Ġcop y
ĠEconom ic
ah lian
ĠTahun an
Ġimplement ation
Ġ19 56
ĠKEN APA
M ore
m ost
anc aran
ĠAri ef
M edia
ej o
ensi f
Ġrum usan
al ut
ĠT P
anj akan
al inya
ro gen
Ġng ak
Ġhol istik
Ġhol iday
Ġpul angan
ĠP BB
ĠB ADAN
ĠU V
ĠCon f
Ġwrit ten
K akak
M inta
c b
ĠNas riyyah
Ġbuat kan
ĠPr ice
Ġ196 7
Ġjam in
Ġ197 2
m is
ĠSt atus
Ġlevel s
Ġri lek
ĠSun ni
ĠK ot
Ġk ai
Ġgi at
ĠSeg ala
Ġ {
ĠS AM
ri ve
Ġdih arap
Ġkos metik
ĠS ak
Ġ ajib
ac ob
Ġput rajaya
ĠKon f
ĠL IVE
ĠAn th
Ġmemper hatikan
ĠYO UR
M EN
w hy
Ġch em
ĠTr ust
Ġterd iam
ĠUT C
Ġsng t
Ġr ombongan
emp ang
Ġp ure
Ġstr eng
Ġun ifi
Ġid aman
H am
l id
w or
and arkan
Ġar oma
A st
Ġb arai
ĠB RI
ĠL ok
ĠR us
ij ing
ĠMEN Y
ĠArgent ina
ika ikan
B entuk
Ġconf lic
K O
K ad
P AK
i as
Ġpeng eb
ĠLe on
Ġstrategi es
ĠPerl indungan
Ġberkem ahiran
D il
et ch
uh anan
Ġ19 59
Ġmenya yang
H as
Ġseb aya
Ġdis arankan
Ġbers ihkan
Ġpo jok
Ġdiab etes
Ġs amsung
ĠPeng etahuan
Ġh n
ĠP ukul
emp as
Ġsih ir
Ġbook s
ĠBEL AS
ĠInd ian
Ġdisk usi
ti es
ĠR af
Ġd adi
Ġen ergy
Ġperm it
0069 006
el er
Ġbar ing
enya p
Ġmen uduh
si p
ĠDep ok
ak ia
r est
Ġdit eliti
Ġsalah nya
Ġny oba
ĠAd uh
Ġcr oss
Ġper hatikan
Ġmemb enci
Ġpeny elewengan
Ġta unya
istr ation
Ġdi usahakan
ĠP engan
Ġl os
Ġsus tain
ĠPemb inaan
cep atkan
ar nya
no unc
P andangan
Ġif tar
Bers atu
Mah athir
Ġtangk apan
ĠP AY
Ġa yang
Ġpop ulation
Ġunivers al
ĠMAS IH
ĠPat ut
Ġj eng
ĠKad ir
Ġparadi gma
Ġs ink
ber atkan
w it
ĠM aya
Ġdih argai
d al
la a
ID EO
t akan
ĠF okus
Ġmeny arankan
Pen ilaian
ĠG arden
Ġmembeb askan
Ġartic le
Ġs ite
Ġt adika
ĠT ap
aan nya
Y S
ri ef
Ġter endah
ĠHar ini
Ġpis au
Ġ urat
Ġwe ak
ic ate
ĠKAL IAN
p ack
t ad
Ġm p
ĠD ONG
ĠAl marhum
ĠS audara
ĠH ello
Ġv ision
mu alaikum
em ia
ĠSh in
Ġsy ari
ĠKej ohanan
Ġconcep ts
Ġt ante
ĠS osi
Ġad am
Ġpeny er
Ġnih h
W h
s eh
Ġgr afik
ar atan
ass im
Ġkm rn
Ġquestion na
Had ith
Ġust adz
ĠHu awei
ĠT adika
Ġdo ub
az z
Ġterm aktub
can not
ĠNEG ARA
1 01
ĠT PS
ungkin kan
Ġmil o
) ,"
s il
al inan
Ġ( '
ĠC re
ĠBer ikut
ĠMart abat
s ini
s umpah
ih un
elur ahan
Ġdit ingkatkan
Ġco unter
ĠG eb
ous in
ĠBAND AR
ĠD ada
ĠR ama
Ġny ampe
UU UU
Ġnor ma
ag aman
k ot
ik ul
Ġc iti
imp anan
M alang
Ġdis kaun
Ġt ular
th eday
EE EE
L AN
or asi
ĠH art
ĠW o
Ġty pes
Ġcur hat
Ġtest imoni
k ej
v ision
ĠPr insip
Ġpengend alian
ĠMAG IC
yar l
Ġberp andangan
ET WEET
Ġseump ama
v estasi
is es
S ambil
ac tive
Ġkel angsungan
ĠOL EH
ĠIn vest
ĠON LINE
Ġapplic ation
or et
Ġkal endar
Ġh adi
ĠT I
ĠD uta
Ġmeng ag
ly mp
Ġcontr act
ĠKlu ang
Ġs qu
Ġl un
ĠD ES
EN CE
9 00
Ġte ater
ĠAl ang
ii iii
Ter engganu
Ġqu otes
Ġsir ap
Menj elang
g ood
Ġb ond
Ġel it
ĠTai ping
Ġann oying
ĠM aksudnya
Ġpen a
ĠDis ney
rep e
Ġeth ics
H I
Ġt ender
li f
ON D
Ġpers is
ĠBah agia
Ġberf irman
Ġf iskal
ĠJAK IM
allal lahu
R ez
p ite
Ġf uqaha
ol f
ĠN aj
Makan ya
ĠR asanya
Ġkom ik
Ġcorr ect
ĠTh ere
AL ITI
gu ese
Ġken ing
Ġmac em
L ike
Ġt di
ĠN IH
ĠAm b
Ġpolit eknik
ik ot
ĠP ink
ĠJ IM
ĠP ADA
J ANGAN
ĠL AIN
ĠN is
Ġde ath
ĠSo alnya
Ġben ua
S ini
ĠB AY
ĠL ot
ĠLe ague
roses an
e ff
Ġdid engar
ĠHar am
KL IA
ĠPes uruhjaya
it ation
la san
Ġset ting
Keh idupan
Ġ8 4
Ġmem usnahkan
EP AS
ĠB enar
Ġng ej
yat uan
Ġcent re
ĠS UDAH
ali f
ĠAfghan istan
B aqarah
p art
Ġm angkuk
ac le
elak kan
Ġperb ualan
Ġj angkaan
Ġdit andatangani
sh ah
ĠJa afar
Ġforgi veness
Ġg ubernur
Ġf ulf
ĠH EL
Ġkag um
Ġw aste
Ġdun no
ĠJ asa
AW AT
ĠHar imau
ĠMuk h
P al
Ġmeng ejutkan
Ġbiar lah
ĠMans or
ik opter
ĠMeng g
ĠKh azanah
Ġfit ur
p ah
ĠM V
ol ok
Ġkew arganegaraan
ĠL og
ĠHahah ahaha
BAR U
ĠSaif uddin
P arti
Ġek osistem
ĠB upati
Ġdi antar
eg et
ĠG lob
ĠCh ris
Ġeff ectiv
ĠB ayar
ub u
Ġinter personal
ebelah an
asi b
Ġsek itaran
Ġproduk tiviti
ad ukan
Ġha id
Ġenak nya
Ġdipas tikan
p anda
ĠB und
uh uhu
ĠU lang
Ġkad o
p ot
Ġt sb
Ġmur tabak
Peng arah
Wah ai
ĠJ imin
ers on
Ġmemperk asakan
ĠHaut e
P ed
Ġprob ably
G R
ĠAnal ysis
role um
Ġtr et
mer upakan
ĠIs ti
Ġkej utan
Ġterk orban
Ġpenya lahgunaan
h op
Ġmeng alah
Ġtert ulis
Pem impin
Ġprofesional isme
ingg ir
Ġdiper iksa
Ġde v
ĠMeng ikut
Put ih
Ġprep are
E ON
Ġsek elas
ĠSela m
ĠAir Asia
Ġ01 2
Ġselam atkan
Ġprofesi on
Ġte x
Ġconf ident
Ġsl ogan
Hak im
ĠP ls
Ġmer c
isi en
Ġmenc ak
ĠAk ademik
Ġbro ught
Ġgaper nah
ĠM ie
Ġmen injau
Ġdatang nya
Ġpop corn
Ġexp ected
Ġp amer
em es
Ġters erah
Ġjil bab
Ġc un
Ġ08 96
Ġtemen ku
ĠPortu gis
er am
Ġber agam
Ġin tr
Ġmeny ebar
Ġberga ya
ĠKnow ledge
ĠPer ai
Ġliv es
Ġt sunami
ĠH alo
ĠH ujan
Ġberk es
Mem per
K ES
in fo
ĠM adu
ĠNor din
Ġfav our
K andungan
ĠB ela
teri ak
Ġ7 9
Ġcer ai
Ġintern al
Ġdiffer ences
Ġcho ose
ĠJ NE
ĠL G
ĠPeng urus
ĠKEL UAR
Ġmenget uai
M on
in n
ĠM ASA
ĠT iap
Ġbut ir
ĠBah ar
ĠMAC AM
eri or
Ġsele bih
Ġperi uk
Ġsin is
J umpa
P os
Ġf ully
Ġstr aw
Ġdic at
Ġrespons ibility
afiz i
Ġt gn
stit ution
ĠPERT AMA
M ac
Ġker umah
Ġsen antiasa
Ġput ri
Ġterh ibur
Ġd uka
Ġket enangan
B anna
it anya
Ġb aper
Ġj ala
R os
Ġdan i
UL T
angk ung
Ġpras ekolah
ĠPerh ubungan
D etik
ĠA V
uu uuu
Ġru le
ĠPortu guese
Ġc um
Ġmotiv ation
Ġtemb akan
k ejut
Ġk ent
Ġk af
Tak kan
Ġpen asihat
w b
Ġb edah
Ġsuk atan
as ut
ĠT ravel
Ġpem ilih
az e
ĠG eneral
ĠJ asin
ĠN ick
ĠAd ib
D id
Ġber z
eks ual
ĠDI Y
ĠSent ral
Ġkem arahan
Ġult ah
p lace
ĠMat ahari
em y
ĠC lub
ĠBer minat
Ġchang es
re al
Ġtop i
Ġb ata
Ġmeng kh
ĠMet hod
Ġmer entasi
Ġpers endirian
Man faat
Ġmanus krip
Ġa gihan
Ġdij adual
Ġterg anggu
ĠA eon
Ġf uh
Ġris k
M aksudnya
Ak ta
Ġident ity
B ekas
Ġex o
Hahah ahah
Ġgam es
le laki
ĠPer ikanan
Ġot om
ĠMans ur
hemati cs
Ġp anda
adi on
002000 6
P in
b ener
Ġas linya
Ġbert olak
ĠL aman
ĠB eg
ĠL uk
Ġpeng iraan
Ġcomp rehensi
ĠKel uar
Ġbar usan
mark et
D ip
Ġap alah
ker ajaan
Ġtingkah laku
ĠJ um
ĠF u
uti ve
Ġrespons e
adi in
Ġrela tion
Ġh ilangkan
ĠR ang
Ġperk asa
ĠDin as
L i
T UAN
ĠG enerasi
illah i
Eng ineer
aduat e
n ab
ĠB ina
ch an
ĠSek tor
Ġj un
Ġberp olitik
Set uju
Eng gak
ah ha
ent asikan
Ġpil pres
ĠG ur
ĠSh a
UP DATE
oh o
Ġb urn
Ġas id
Ġdep end
Ġkek eliruan
Ġcl ick
K G
K am
gh hh
Seg era
Ġf ik
ĠC ase
Ġsebab nya
ĠBag an
B esok
C on
Ð »
Ġm um
Ġk afe
ĠW alk
Ġberk h
Ġmengh ilang
Ġberp usat
ĠK OTA
anyak kan
ĠPublish ing
ISN IS
Ġb asi
ĠBengk ulu
Ġe jaan
ĠPerp ustakaan
t el
Ġber ilmu
ĠT INGGI
IL AH
ĠKes an
Abdul lah
bt b
ĠAb ah
itik beratkan
ĠIS IS
ĠBar celona
Ġme ga
ĠKer jasama
lester ol
Ġsi ak
Ġbi asiswa
Ġtop ic
Ġm ne
ĠB EK
Ġref lec
Ġbub uk
Ġglob alisasi
Ġeh wal
K UR
Ġremp ah
Ġc oc
emp ak
Ġac tive
sy ari
Ġd ebu
ĠJ EN
Ġluc ah
Ġmemf okuskan
Ġn ulis
Ġg arisan
ĠPEN Y
Ġneg o
Ġdi esel
ill er
Ġphilosop hy
roduk si
Ġs j
ER T
Ġsh ift
Ġus ai
u gi
Ġan sur
Ġ196 1
Ġdirek odkan
ĠDU IT
Ġn gab
ĠAd at
Ġpia waian
s abar
I st
Ġx leh
ĠL ew
Ġpeng esahan
av ing
imb a
ĠSem enyih
Ġangk asa
ĠSec ond
ĠB ody
Ġmer em
ĠTer tinggi
Pr insip
Ġs old
Ġm oyang
Ġtrad ition
Ġbong su
awanc ara
Ġf lu
ĠKW SP
Ġpict ure
Ġkeroh anian
W ala
ĠM ert
ĠSej uk
T C
eg aran
ep ung
ĠRich ard
b ach
el low
ĠHigh lands
ĠM ampu
ĠFar id
ĠW alau
Ġdig ariskan
Ġbank s
Ġpes antren
Ġint onasi
Ġrep ut
Ġbat ch
w ith
Ġdi inginkan
Ġl ingu
Ġhidup an
Men ang
Ġpla ces
tem uan
Ġalk ohol
b ali
Ġkes ana
Ġser ang
Te ori
itud es
sa at
T ab
s ul
Ġkes ukaan
inc ian
Ġ8 3
ĠTah fiz
umb uh
ĠSer um
ĠK I
Ġa yu
Ġpro ve
B L
F r
d ep
Ġt iri
ud ud
ec uali
ĠW ind
umb uk
Ġib ubapa
Ġco z
ĠRes taurant
Ġteg ar
Ġmal e
Lat ihan
Ġng umpul
ob u
Ġtop eng
Ġanal y
ab ol
ĠBES AR
Ġt re
ĠS weet
ĠMeny ediakan
Ġp aw
Ġkom edi
Seb aik
Ġl antaran
ula tions
Ġwork shop
tw are
I si
ĠM IL
Ġdip aparkan
lalu an
Ġhubungan nya
ĠMus ang
ĠMOD AL
Ġmelamb angkan
RON AS
y atan
Ġsh own
ĠPeng alaman
ĠSalah uddin
Ġh ay
j ain
ĠO ke
Ġmr k
Sup er
ĠProt on
Ġt ayang
Ġng ep
Ġab adi
Ġses udah
Ġt ambun
Ġk b
ib awa
Ġpel anggaran
Ġber uang
ingg akan
ĠBERS ATU
is kan
ĠB un
e er
Ġn au
Ġkem ur
tr ans
Ġmencinta imu
Ġmem or
eb uri
apak ai
Ġsub st
Ġpt ptn
Ġd eras
ĠT ay
Ġbi ologi
ĠAn y
Ġbr oken
ingap ura
U k
Ġikut i
Ġrej eki
Ġb ogor
Ġdi ajarkan
ess a
Ġbag inya
ĠIN TERN
Ġpilihan raya
B en
s n
Ġb ia
emp it
ess s
Ġl in
ĠPer ikatan
irl s
m or
ĠT ubuh
Ġad uk
Ġitem s
Ġj ga
up ing
em ilangan
ĠT S
si f
ĠMag hrib
as ak
ew anya
Ġmema afkan
ĠMak kah
Ġrah asia
Ġtabi at
ĠM END
ata in
Ġny en
Ġkem akmuran
Ġmemer iksa
Ġb azaar
Ke giatan
Ġsib er
Ġh erba
ta ff
Ġsel engkapnya
AHAH AHAH
Ġpat h
ĠMaj id
T etap
ĠT UR
Ġ196 6
Ġfor get
ingk ah
Â ²
Ġwey h
ĠV ia
Ġsur vive
ĠRes ort
Ġk ental
un ing
IT AM
Ġseri ously
ĠSay ur
Ġprincip le
ĠM ik
Ġr otan
aw ap
ĠSej ahtera
ĠBo x
Ġmem ukul
Ġkasih an
12 5
Ġm onyet
Ġas in
ĠKar awang
Ġbot ak
eles aan
AMP US
Ġdi gun
ĠY our
Ġbers ejarah
ĠHar ta
Ġrec ogni
pro jek
Ġclear ly
Ġs ai
ĠK uat
Ġmer ebut
Ġsc am
Ġkl ang
Ġor tu
Ġpenc uri
Ġcap acity
ĠMuk im
T ahu
Ġpeng gal
ĠUn di
Ġdevelop ing
Ġngerasa in
o es
Ġko perasi
ĠMe ga
ĠTER B
Ġfam ili
Ġser abut
Ġmend engarkan
Ġjelas nya
Ġsila tur
gh far
Ġal im
ump uan
st u
ph otography
Ġsamb el
ĠSI AP
B ACK
Ġs araf
ĠT K
Ġoper ator
er et
or r
Ġbgt au
ĠSI ZE
ĠI q
Ter b
et ulkan
ĠD AY
ĠH OT
ĠSeri us
Ġb int
Ġle pasan
Ġgi ft
Ġmen impa
Ġpen ularan
Ġv c
le gal
Ġkesan nya
Ġtepat nya
Ġt esis
ĠG aza
Ġlol os
lop edia
Ġsh j
Ġentrep reneur
ul ina
Ġg onna
ĠF ah
Ġpert uturan
ahulu i
Ġselebih nya
ĠP AC
ĠC ER
Ġberkem ungkinan
Ġd os
as ha
ada ys
angs angan
ĠP adi
ĠIn formation
ĠR AS
he y
Ġseg enap
ĠRap id
ew ak
ĠL ik
Sed ang
ual itative
ĠMak e
Ġpor si
um us
ĠT otal
ĠDar ussalam
O ke
Ġt am
Ġg alak
ol id
ĠE ss
Ġdor ongan
ĠP aya
ĠT ambun
Ġv e
Ġstrateg y
peng en
ĠWAR NA
Ġmun asabah
orban kan
ik ai
Ġmeng ek
s ch
Ġc ow
ĠG ER
Ġhar apkan
ela pan
si onal
ond ong
Ġins yaAllah
Ġdic iptakan
Ġta q
W P
ĠT iket
end ra
ot land
ĠAn jing
IT ED
ĠĠ ĠĠ
Ġdela y
L isa
ĠTT DI
R ambut
ĠMod ul
Ġt aste
it r
ĠH mmm
Ġdom in
Ġkepad amu
Ġtengah ari
Ġbl ender
Ġbon eka
Ġperka itan
U ANG
Ġc awan
ĠH ard
ĠPeng kalan
ĠKeh idupan
Ġachie vement
Ġp p
os hi
Ġga in
Ġrem ain
Ak h
N ih
k ul
Ġm ap
Ġl ower
Ġmeng arah
Ġkec elakaan
Ġhas tag
Peny elidikan
Ġlab uh
ĠRAM ADHAN
ĠDaw ud
Ġkt k
ad aran
Ġun less
he e
li e
ĠDIS KON
ib el
ĠBi asanya
Pemb elajaran
Ġplay ing
Ġproduc e
ĠMut ualan
ĠS end
ĠKem en
D UN
ĠRah mat
oks idan
g ua
gi c
Ġat uh
Berikut an
Ġpencer obohan
C an
Ġc ah
IN TA
Ġked epan
Ġin nov
ĠPen ulisan
Ġbat asan
Tengok lah
N ot
Ġdij adiin
Ġkok o
Ġeks por
h ang
ĠS quare
ir es
Ġkr na
ĠWah id
r im
201 6
ĠBN I
Ġgas uka
Mah kamah
Ġs umbang
Ġon o
IH ATAN
Ġkeberk ahan
Ġchalleng es
H ubungi
em ate
Ġsep akat
tern al
ĠLe vel
ĠPenc apaian
ĠMark et
R L
Ġpar it
ĠMar itim
Ġmay bank
aren ess
Ġh ajat
Ġan nounc
iq ah
S N
Ġn s
Ġ) )
ĠN ob
ĠF M
Ġreveal ed
Ġm ult
Ġc ampak
ĠJ enderal
Ġv oc
Ġng amuk
ĠV irus
Ġrep ost
B enar
ĠS UKA
Ġpro pos
Ġ9 00
AD UN
ĠMU I
Y B
Seb agaimana
Perb ezaan
Mener usi
b ase
j auh
ĠCh ampions
H at
ĠK awalan
Ġar s
ĠMar ia
Mat lamat
ati ves
ĠAk un
ĠYO U
Ġaya q
ĠT ugas
Ġg egara
ĠC erita
Ġbe ings
ans elor
Ġpember ontakan
C at
I de
ut bah
Ġc pt
Ġla aaa
and uk
ĠY an
Ġtas awuf
ĠAm bil
ĠAk bar
Ġtab uran
ĠWal es
G V
ĠC ak
UMP AH
Ġ ingg
ĠS or
ac tually
eh old
Mas ak
Ġn yar
Z AH
it ungan
Ġmer ingankan
ĠW omen
Ġmelihat nya
Ġ08 2
Ġsign al
Ro ti
J awab
Ġd l
Ġut uh
Ġk icap
Ġp izza
Ġtert ua
ĠP AGI
ĠC la
Ġbok ap
E I
ik am
ĠY UK
ĠRes ponden
OG RAM
Ins yaAllah
Ġ \
is as
ĠM bak
ĠRi ver
ĠS obat
Ġpemb uat
erta in
T anya
ĠA ja
Ġa amiin
ĠNo ah
Ġaz iz
Ġjog et
islam an
B ro
Ġk ilat
ĠB awang
ĠD ub
Ġpend engar
P U
W kwkwk
Ġt unjukkan
il le
Ġser ve
ĠSh are
ĠSET IAP
Ras ulullah
Ġkesus ahan
T elah
as alah
ĠL anka
AI AN
Ġlaw s
ik alau
Ġrun ning
ĠM ujahid
Ġikh tiar
ur ed
Ġmem ecah
lim ited
mi le
ber adik
Ġom ongan
Ġbangs awan
Ġnga j
ĠAl if
Ġep istem
Ġrele ase
END AH
Ġlong er
Ġsukar ela
Ġsnd iri
Ġdi uruskan
Ġlet ter
am amu
ĠB EST
ob ia
Ġ~ ~
Ġb w
Ġkes enian
Ġdi atasi
Ġnot is
lu cu
Ġkl ia
Ġpersonal ity
ĠMUS LIM
Ġmus ang
Ġpap aran
Ġm bah
Y AR
g at
Ġaut om
ul ian
Ġg erbang
Ġp ai
ĠPar ade
ĠPol da
c us
ec utive
ow l
he ad
Ġok sigen
Ġtud uh
ajuan ak
Ġmeros ot
C ont
ĠB ac
ĠPr estasi
ĠD ol
Ġf lop
Ġket egangan
Ġj anda
Ġf t
ĠR ice
ĠH uhu
Ġkec oh
Ġfollow ed
he ast
ĠYun us
ĠPul sa
H M
ad iran
Ġg it
Ġkew ajiban
Ġsd m
Ġoot d
Ġmeng aji
ĠJ ati
Ġon lin
ĠV is
f atkan
k atanya
ĠA ch
Ġla faz
Ġuj an
Ġemp uk
ĠRez eki
Ġr eh
ust us
auh id
Ġgo als
Ġbat al
Ġess ence
Ġprop ag
Ġor en
endah araan
ĠAlam i
ĠMin ister
la q
ep ing
Ġev idence
Ġkm k
Ġberk et
Ġs ajak
ĠLe ad
emp arkan
Gun ung
Ġj ajaran
ĠT utup
Ġstruc ture
n c
Ġkes ungguhan
IT E
ĠSyarat nya
H ence
Ġbaw ahan
Ġsu fi
ĠSen arai
t est
OM I
Ġint ro
al isa
ĠW ell
Ġapp ear
U r
Ġun iq
vel y
78 0
O hh
T angan
f am
201 0
Ġboss ku
o om
Ġs ujud
Ġp ais
os ongan
ong o
ag en
Ġpemb ersihan
Ġkar tun
Ġsend ok
Ġjb jb
ĠJ PN
ub arkan
Ġmod er
Ġdig ubal
Meng enai
Ġinsan iah
ĠH ER
Ġmer iam
Ġcons ult
Ġmen tor
ĠR ub
Ġmengg ariskan
Ġeffort s
Ġm k
ĠS leman
Ġst or
Ġlip stick
ĠDi per
Ġkun o
Ġmeny ekat
Ġbek al
ĠS alim
ĠH IV
ta zah
ĠC AR
Ġkut ip
Ġun c
Ġpr abowo
Ġpar fum
ĠEurope an
ly wood
F ac
Ġt egang
ul anya
ĠT ib
agi akan
ĠA th
ĠR ON
Ġgi le
AP AK
b tw
la f
ĠT ingkat
Ġdik umpulkan
Ġta o
B AN
un it
ĠT ET
Ġmeng imb
Ġkat un
M ET
M uz
al er
ĠI zz
ĠR ose
ila si
ĠMod en
Ġcli ent
ĠSen yum
ĠF e
Ġpeny umbang
l ina
ĠO PEN
Ġmela bur
Ġspeak ing
K opi
Per l
la kan
Ġdil anjutkan
Ġacc ep
ĠPL US
Ġ. )
Ġ] :
Ġmat h
krip si
b les
ĠP ant
int ing
ĠS UN
Ġdip enj
ĠSmart phone
ĠS ee
Ġ19 55
Ġsk rin
P ent
Ġsh ip
Kar na
Ġuw u
ĠJ ihad
Ġbuk tikan
ĠL engan
Ġkeb elakangan
Ġbub ar
Ġl usa
Ġlet upan
ĠMuhamm adiyah
ĠB CA
Ġkit aran
T emen
AL IS
Ġt imbalan
Ġp ing
us if
ĠA ID
ĠF PI
ibil ities
t ihan
Ġb ill
us atkan
ĠBers ih
Ġsyarat nya
Akibat nya
G M
ĠSt ok
Ġlap ang
ĠMAL AM
Ġb aku
amp elan
Ġdis eb
Ġass essment
Ġmenyak iti
Ġhealth y
Ġas tu
ĠMak tab
P ort
n um
Ġs and
Ġmeng inginkan
Ġte ga
inj al
ĠDo akan
ongk et
ĠM andarin
im un
ali on
Ġchar ger
epat utnya
201 4
use um
adem y
h ana
ĠPer maisuri
Ġdit empat
Ġsel ling
Ġpenc ernaan
Hasil nya
ĠG U
Ġdih entikan
ven ue
ĠA gak
ĠL ar
Ġdip otong
ĠSt ore
fat ihah
ĠP ES
ĠB oc
ĠD A
ĠU L
Ġput era
D adah
ĠB ilangan
ĠH air
ĠTer masuk
Ġsemb ari
Ġa er
uat e
ib un
ĠKun ing
B angunan
ĠWAN ITA
S ch
ter ima
th n
Ġch eras
Ġmemper soalkan
Ġkepad aku
ĠWajah Baru
ĠCommun ity
m ust
n el
la gen
Ġterb unuh
Ġgi ving
kh ah
ĠC uri
s ya
er ry
Ġak rab
Sem uanya
Ġpan en
ĠBP OM
Ġumb i
ak ing
ga ulan
Ġter i
ĠC ARA
vi ously
Ġsimp ati
B unga
angk apan
ĠON GK
ĠS ikap
el ompok
ĠK ir
tr in
ĠSah ih
Cik gu
e ven
Ġr ajah
ĠB AHAN
mas jid
d udi
f in
Ġdi iringi
ĠO T
Ġkec urangan
ĠPart y
Ġ01 1
ĠFaiz al
ari es
ĠG as
ĠPeng uatkuasaan
Ġk unjungi
ic o
ont an
Ġx da
ĠL aks
ĠWajahBaru Jakarta
ĠS ambutan
Ab is
ya bility
ĠPut era
ĠS ilat
ĠK us
ĠPay tren
ĠR A
ĠPend apatan
Ġsamb ungan
of t
as ya
Ġse afood
uk at
Ġsem udah
ĠSk or
Ġberpr estasi
ĠT al
Ġmemperk ukuhkan
Ġr ace
fr om
ĠBak al
Ġwis uda
ĠIkhwan ul
Ġfard hu
Ġpenc iptaan
ĠS ut
Ġhidup ku
Ġlemb ar
Ġsant ri
r ans
y our
en arai
Ġf leks
Ġkal imah
ĠCh ang
I kh
ĠA I
ĠU TM
Ġres epi
Ġpot ato
Ġlaw yer
S ungai
en ung
ĠP EK
ĠC otton
Ġdib elakang
Ġaj aib
ĠPUN YA
Ġmem otong
ĠJ ilid
ĠEn vironment
G O
Ġmem ungkinkan
ar on
ĠT ek
Ġmedic ine
g askan
v et
Ġtr iliun
Ġx i
Ġcomp lex
s uai
Ġy am
ais al
Ġdeli ver
im ar
ĠCh annel
ĠAs pek
ĠRam ly
Ġlik es
Ġotom atis
ĠM ira
Ġsub ur
en o
Ġj ok
ĠB apa
ib uan
Ġkes inambungan
Ġev al
Ġst upid
ip ar
Ġat ok
ekut u
ĠLANGS UNG
Ġ# #
Ġmemp amerkan
ĠPAD AT
Ġsmp i
ĠChar les
eh a
ANG OR
Ġberter ima
Ġcuri ga
PD RM
ĠEnak men
T IM
h its
Ġg unting
Ġpet ronas
AJ AAN
Ġdim urahkan
Ses eorang
UM AN
Ġsimp ang
ĠN ih
Ġpes isir
Ġmemas ang
Ġsecond ary
ele c
Ġ9 4
ish ah
ĠKEM AHIRAN
Ġmen amakan
ĠD ila
Ġpen awaran
Ġdis ebarkan
ĠSel f
Ġexperi ences
M antap
Ġpr ost
ĠBe auty
Ġmembah ayakan
Ġrece ived
z at
Ġm ira
Ġmenutup i
Ġk unyit
Ġmar et
Ġund ian
Ġobj ective
Ġac uan
Ġcan e
ĠPh ilosop
Ġp ian
Ġx p
Ġs lim
Ġsur v
Ġkhas nya
ĠKomp uter
Ġmem acu
Ġpeng agihan
AW AK
ĠAB C
h ouse
ĠKh ilafah
Ġemp ayar
Ġterh enti
p ink
Ġd kat
Ġt angis
Ġter ror
er ma
on im
ĠK ud
Ġmeng aw
ot ot
Ġt ayar
ĠK ris
ĠE ven
Ġrep ot
Yus uf
Ġwait ing
Ġkelam aan
UN YA
Ġprogr ess
Ġh ate
angk ar
Ġpro aktif
Ġsakit nya
ĠB azar
ingg ikan
aks anaan
emerl oh
ĠCol or
s ome
ĠSEND IRI
B idang
w hen
N EW
ej al
ig ami
Ġketi adaan
ĠPerk asa
ĠMy vi
Ġker is
kin ian
Ġmele pas
Moh amad
Ġm v
Ġp ariwisata
Ġaw areness
Ġtert uduh
Ġinf or
C alon
c ukup
ĠL ol
ĠKES IHATAN
Ġsav ing
Ġtim eline
ĠArs enal
Ġp nt
ĠB AG
ĠJ os
ĠJ ualan
IP S
ĠPET RONAS
Ġrew ard
ĠP ala
Ġmer ebak
Ġand aian
ĠSem ula
Ġpa id
Ġeffect s
ĠB EB
tag firullah
Ġper lis
AL LAH
yo ung
ĠPeny elamat
ĠSud irman
r ihat
p apan
Ġras minya
ĠMeng apa
gug urkan
iti v
kn ow
AAAA A
T eknik
T eknologi
n h
Ġmit os
L ol
Ġ* **
Do akan
Ġr antai
Ġo lah
ard in
Ġrem eh
Ġ01 3
ĠBuk hari
grap hy
ĠK ondisi
Ġtrans form
Ġtit le
ĠBeh avi
ong go
ĠCon c
Ġindepend ent
ĠDistrib utors
b au
ok u
ĠO ct
Ġq uran
Ġpl k
in um
Ġy outh
Ġap am
Ġdib er
s ema
Ġt ongk
ĠT rip
Ġny uruh
do or
ĠJ elas
Ġor e
AR MY
200 9
ĠS inclair
ĠGo jek
ĠAriff in
S iri
S ER
ĠS AK
ĠS elesai
Ġr ukun
ĠB ani
Ġx d
Meng enal
or at
Ġres eller
Ġ196 4
ep it
Ġbecom es
akh iran
Ġcook er
R U
ĠK oh
ĠSeri es
w anya
art ab
oh h
ĠE mail
ĠKes eksaan
res if
Ġim igr
ĠSeg amat
S J
Ġsh ot
ĠD ewi
lam p
te a
aud araan
Sy ukur
Ġram adan
S urat
is ili
Ġc risis
ĠT anggal
ĠR ia
Ġex amin
Ġtem ukan
Ġik on
omet imes
Ġ. **
ĠU lum
Ġbl ur
Ġter ancang
angk ir
Ġser at
gab ungan
ĠPerb andaran
Ġsel ler
ĠAnth ony
ĠA tt
Ġaku arium
Ġhas h
T E
ĠM D
Ġg ampong
Ġup grade
Ġpengend ali
Ġfel t
P uasa
Ġmeng ikat
Ġal though
ish ed
Ġkos an
Ġtakh ta
Ġmel ulu
ĠCh in
Ġapp ropri
Ġhigh est
Ġdipert ingkatkan
P elan
ĠPer caya
ĠJ AYA
ĠMah mood
âĢ¦ .
AMB UT
Ġluck y
Ġnamp k
Ġpenal ti
Ġters angka
Ġala s
Ġtalk ing
K or
Ġr id
Ġth r
Ġad u
Ġters embunyi
lear ning
b unga
Ġmele cur
Ġm ummy
ĠD onald
Ġpak we
Ġmend alami
Ġket uhanan
Ġpol os
ENG K
xi ata
Ġexerc ise
Ġtrig ger
eb unan
Ġmengh ukum
Ġpart s
Ġs urut
Ġmak ro
As li
Ġqu ick
Ġkeset iaan
t elah
Ġb orong
up usan
ĠR UU
Ġpek ak
r indu
us usan
Ġperp ecahan
Muk im
ĠD IT
ĠJ alur
ĠL IM
Ġsos med
ĠCo ver
ĠK acang
gn itive
Ġsangat lah
Ġpant un
ĠUr usan
ekar no
Ġj ungkook
ol an
row d
elis ihan
Ġsor ok
ek nya
om ah
wa it
ĠMen u
IK ASI
ĠKa unseling
J arang
Ġmemb ayangkan
Ġrep air
ĠYus off
ĠSc reen
]] ,
ĠA PR
ĠO per
Ġdik umpul
istur izer
B AB
ian ati
Ġmeny ampah
Ġmed is
Ġsiswa zah
Ġla y
ĠORI GIN
y yat
Ġd awet
ula tan
UR A
Ġcab e
Ġregi on
Ġser buk
AH H
Ġk ick
Ġpeng awal
Ġmax is
Ġcele br
H us
d es
Ġpen utur
ĠMOH D
ĠCh alleng
k isah
r itik
Ġh afal
P ekan
Ġc imb
Ġkep ing
Ġmil iter
Ġjamb u
ĠKual itas
Ġp angan
ĠM elak
Ġistr inya
T WITTER
Ġterb itan
Ġkanan ku
ĠSeb elah
T able
W kwk
Y E
Ġn antinya
ĠS ungguh
Ġje ee
Ġberc anda
Ġg anas
Ġw awasan
US I
K adar
Ġl en
Ġfac ial
Ma x
Ġvari asi
S amp
j ilan
ĠS ate
Ġw kw
ol isian
ati e
Ġ9 1
Ġsaud aranya
ĠB eng
ant ri
eh yun
Ġng ikut
qu id
ori um
g antung
i ami
ur au
Ġg one
Ġw ard
Ġpenerb it
D oa
N abi
i en
Ġpem ikir
Ġknow s
gg g
T enang
ur angi
ĠH il
sela lu
Ġdiscuss ed
ĠMala yan
ĠR ukun
Ġprakt ikum
Ġloc ation
ĠPelab uran
ĠHold ings
ĠK OR
Ġper edaran
Ġter atas
aj an
Ġmeny angka
Ġvo ucher
ĠC oklat
EF A
ĠI R
ĠKE J
ĠPel uang
Ġwrit e
ĠStud ents
Ġdemonstr asi
m ara
Ġdis impulkan
Ġkar am
Ġx s
ĠPer wakilan
Ġbay angan
ose ok
Ġev aluation
Ġbor ing
or ing
ivers iti
Ġf al
Ġan u
tic s
Ġn in
ĠZ UL
ĠC ash
F ood
K ont
he els
Ġpend am
Ġpl ural
ĠForm ula
ĠORIGIN AL
amb i
ĠNi geria
98 3
Ġteng k
Ġar gu
ĠBer j
Ġcont emporary
Ġmelon jak
Ġp om
eb alan
Ġkej ut
Pen ulis
Ġse ung
ĠPer industrian
da us
ĠKem aman
ĠAc c
Ġtrad itions
ĠKam us
ĠT WEET
ac ts
ula ted
onal do
Ġhidup mu
itar y
Ġast aga
ant arkan
ATION AL
S iti
ĠD own
Ġtak s
Ġpel uh
ĠV I
ĠMand iri
ĠTeach er
Ġm eg
Ġm ingguan
Ġberk umpulan
Ġcar ried
Ġcac at
ĠH AB
Ġset t
Kar ya
Ġcare er
V I
Ġin j
Ġfor ward
d il
s yat
Ġberk er
ĠAs et
Sel anjutnya
ĠC M
op ok
Ġpend akwaan
Ġdip roses
Ġmasuk in
ka edah
Ġrambut nya
PJ S
R em
Ġmer ugikan
ĠR endang
ĠN ab
ĠG etah
B a
Ġmemb aiki
ĠKeter angan
Ġber ori
Ġber tuah
ĠPr ibumi
Ġdiv ine
Ġkuant iti
G aya
Y o
L angsung
Ġmeng eks
Ġan eka
enc anakan
lo om
Ġk inerja
ĠK assim
st reet
M isi
ĠC ahaya
amping i
ĠKul iah
Ġpractic al
ĠS ini
An war
[ ?
Ġfir m
ĠPeper iksaan
ria ge
ĠAm al
omm ate
Ġjas ad
Ġb ik
Ġre asons
Ġcon vers
kep ada
ĠS unan
ĠA ra
ĠK az
ĠD IK
AT IK
Ġac ross
akh lak
b uan
n b
au f
Ġak ur
iz inkan
ĠBay i
ĠRiz al
ĠMoto GP
ĠK aki
Ġw oy
ĠANJ ING
Ġj apan
Ġpen olakan
Dia Bahagia
engg elam
ins pirasi
ester day
ĠS impan
bah aya
Ġcol lection
Har apan
o grafi
ci ous
Ġmag er
Pol isi
ĠNe xt
J ujur
ĠBak ti
Ġber enti
Ġl untur
Ġdis e
Ġwar nanya
KK KK
Ġkeb odohan
Ġsal inan
Ġpot ential
Ġmay oritas
Ġav ail
p ap
Ġs ari
ĠBer asaskan
Ġt awa
ĠT enang
Ġf ig
ind ukan
ut ihkan
Ġw udhu
ac anya
S ering
il ities
Ġl ose
tan i
Ġmemb aik
in f
Ġber tak
ĠY outube
Ġberb asis
AS AR
Ġkar bon
ov id
ĠAd v
ĠKat olik
Ġy ee
ĠAs am
Ġer ror
ĠP astikan
Ġpers atu
ĠMin istry
t engok
ult as
Ġpri oritas
Ġp ucuk
per caya
ĠSlov akia
as ir
ĠS n
Ġpengh ormatan
c at
emb ung
anc a
fa ilkan
ĠOngk ir
Ġb gi
Ġch an
Ġtau u
ch at
ĠAsalkan DiaBahagia
Ġmenj alin
KA UN
t abah
Ġr b
ĠT uah
ĠF ajar
ĠPer anan
Ġkej i
ĠSed angkan
ceed ing
S ahabat
id as
ĠY ong
Ġu ols
Ġmenyus ul
ĠA mat
Ġsamp le
ĠKe uangan
n u
kan lah
Ġseb erang
ula k
ĠTer ritory
ĠBAR ANG
Ġc ooper
Ġberb ual
ĠMoh ammed
UL L
Q ar
S abah
Ġser awak
Ġmel uahkan
ĠInd eks
ye ah
Ġpah lawan
Ġob ject
AJ LIS
Ġdipert imbangkan
CL US
ĠF an
Ġlo e
r ain
Ġs aks
Ġn ia
Ġmem isahkan
ĠN ga
ach i
UR UH
rib usi
Ġaff ect
Ġemph asi
ĠIslam iah
ĠCo unt
Ġt btb
ĠC anselor
Ġkol onial
Ġdi o
Ġst an
UT UP
br iti
ĠHAL AL
ĠEnter tainment
j aman
m r
Ġd ang
ĠB atang
Ġjah itan
ĠC ocok
ĠPR EM
Ġditu gaskan
Ġch ow
Ġjer agat
Ġcol labor
AMB AR
ĠNUR UL
ub at
Ġtah i
Ġpenc en
Ġcomp uter
Ġk dg
Ġn ongkrong
II II
38 2
Ġpengg emar
P ur
Ġt echn
Ġberk ela
Ġbers eri
Ġlaz ada
c ement
Ġb elaka
Ġpen etapan
Ġkeb eranian
p lo
Ġd sb
Ġp ampasan
aj ai
Ġterj adinya
Ġsper ma
as er
ĠM ess
Ġterj umpa
Ġro jak
ĠBel la
Ġterc atat
ĠT ema
Ġkes empurnaan
k ab
Ġnet work
Ġk ost
ok ol
UN A
ĠAnd roid
Ar ab
ĠOrgan isasi
ĠAut o
ĠS ubuh
Ġla ga
Ġek u
Ġgraduat es
Ġmem o
Ġf urniture
Ġli verpool
ĠIN ST
Ġhahah ha
ĠJ at
Ġman ner
ĠElektr onik
Ġpregn ant
ĠJ uly
1 30
end an
ac akan
Ġterl upa
ĠH ei
Ġpers impangan
bu atan
CT V
Ġbehavi our
Ġn ab
ĠB oss
ĠD aging
Ġdisi fatkan
Ġmer oyan
Ġpend erita
ĠMen ang
ĠK op
ĠG ading
Ġdig antung
Ġjelas kan
ĠSc otland
ĠLepas tu
Ġvol unt
Ġinvest ment
C omp
P ay
al onan
ĠM M
ess or
ONG AN
ument asi
ĠHigh er
Ġp od
Ġwar as
ĠRes mi
Ġappreci ate
Y ANG
ĠS ams
ĠB ET
ĠB lue
ĠL ord
ff e
nivers ary
y aran
ĠN av
ĠAl iran
Ġkan n
ORM AT
INGK ATAN
w ajah
us u
ĠT angkap
AS IK
Ġkont rakan
ĠBendah ara
Ġke ahlian
ĠP ack
Ġg g
Ġl iddat
ud uga
yak ini
th ink
ĠSk rg
Ġmed sos
Ġtern akan
Ġm amah
el emen
ĠD ream
Ġam er
Ġdij alan
Ġcon tain
Ġdiket engahkan
P a
Ġmeng ingati
Ġpeng amal
Ġbers ebelahan
Ġwa q
N arkoba
ĠM ET
Ġseg itu
ĠKim ia
Ġtat apan
Perb incangan
Ġdit ujukan
Ġbeb el
Y I
l omatik
s aan
ĠC adangan
od ologi
ĠBer kuasa
K ain
ib i
Ġsec tor
Ter ingat
Ġgen etik
Kej ayaan
S ituasi
ĠT OK
ol eransi
ĠMen ulis
Ġtw t
ĠFau zi
Ġk aku
it us
ĠF L
Ġmew ajibkan
Pem ilihan
Ġs tick
Ġdit engah
Ġcond itions
Ġ ena
He alth
Ġsystem s
ar ab
Ġpemb imbing
ĠX i
p lease
Ġis nin
Ġenc ik
A pe
O tak
Ġ2 12
ĠO ng
Ġbi od
T k
Ġbh ai
H allo
im ut
Ġg ent
Ġpemb acaan
ĠWah ab
t oo
ĠS leep
ind asan
und angan
ĠKes ejahteraan
i gh
p ad
Ġsay angkan
Ġberp utar
Ġah mad
ungk ap
Ġrele vant
ar g
Ġj et
Ġmanfaat nya
N awawi
ĠK OP
Ġr ing
Ġus ha
Ġsd t
Ġr ange
ĠL EL
lu asa
opat ra
ĠP ok
Ġber anggapan
ĠB ANTU
Ġali f
Ġ:' (
Had ir
E AR
N ews
ped isi
Ġc ep
Ġla u
ĠB ill
Ġsh a
ĠSep anjang
on el
ing i
ĠU IA
sur abaya
Ġdar inya
Ġmenyed ihkan
ĠKEP ADA
h is
ĠG amb
Ġsec ular
Ġwis at
NG O
Ġperd ebatan
Ġwh ose
Ġbe z
Ġsep ara
n ain
Ġb ent
Ġres ign
Ġint im
br p
Ġrak am
Alam ak
Ġmin e
Ġcompani es
B ilang
al y
ĠS ebut
ĠA di
Ġal ot
Ġberh utang
oo f
Ġwe eks
H ang
P engkaji
ut anan
Ġper anti
amp oo
Ġac tions
Ġt umbang
Ġmem etik
M ay
ĠT emerloh
Ġkul in
Ġcol le
ĠEt nik
A v
w ords
ĠL ombok
Ġbers ekolah
Ġincre asing
ĠM ilan
rop ol
ANC AR
Ġpij at
Ġkerak yatan
I kut
p lus
Ġn ajis
ido arjo
ordin asi
K os
T eman
ah uan
Per aturan
f ree
t d
Ġr ompak
ĠPer matang
TAND ARD
B C
ĠAh ok
Ġpelaksanaan nya
ut urkan
AN TAN
ĠAd o
Ġsl ip
Ġdan ce
ĠW awasan
Ġinvest or
r uary
Ġc ubaan
Ġkes epakatan
ĠMemb eri
ĠUT K
Ġpati ent
ĠL AB
ic tion
Ġl oss
N IK
ed ang
ĠAs ing
Ġdepan nya
E very
ĠB ON
Ġg urun
Ġtemp e
Ġdim uat
ĠT awar
ont eng
Ġmend arat
Ġket ujuh
Ġdile paskan
ĠMend engar
Ġterlam pau
h abis
Ġh ubung
ĠB id
Ġmemb imbangkan
Ġes ei
xi ety
ĠTeb al
Ġj ut
ĠM UT
Ġl empar
Ġteach ings
ip ulasi
el nya
Ġti o
- .
ĠIn frastruktur
ĠPem ilihan
Ġbern afas
Ġjus tice
Ġconstruc tion
Ġmem uat
ĠN utrisi
Ġpl ot
ĠEx co
ung e
Ġwh atever
ongk ong
ĠJu ventus
ent r
ĠH om
ag ukan
kw ard
ĠAust r
W W
v iral
Ġib uku
Ġlemb ah
Ġsol id
Ġtelah pun
int ed
AG AI
Ġt antangan
Ġber urusan
Ġmak am
Ġperl antikan
ĠONGK IR
A sh
Ġj udi
Ġmat ters
Ġinst all
Ġef ikasi
Ġtng ok
S at
Ġc uk
ĠT emen
ĠH IDUP
Ġnya a
Ġdon k
Ġmer asai
ĠC ook
Ġmis sion
Ġpercep tion
ĠB uruh
ib adian
Tak pe
erj aan
Ġberant akan
ĠJ ong
Ġsec tion
Ġsh ock
ĠSultan ah
Ġaz ab
Ġcur riculum
i ar
p arti
ĠM alays
ĠP andangan
Ġc end
ĠB lu
Ġf estival
up on
od or
ĠF ast
Ġreg ular
H aaa
Ġ adi
Ġke kinian
ĠM ers
ĠMak mur
ĠT ambah
zah irkan
ĠDIS KAUN
M K
c all
p aling
p ost
Ġr usa
Ġsosial is
Ġl ur
ĠF AM
Ġdri ving
ĠDin asti
E nd
Ġt imp
al inkan
AR IK
Ġs ac
kr au
ĠHam idi
Ġinst ance
m ond
ek k
ay kh
ĠPro blem
Ġdihar amkan
Ġp adan
ES CO
Ġrez im
ĠAt l
Ġsol ution
as k
ob ati
AK AT
KIP M
im anya
ĠE fek
omor row
Ġobj ectives
ĠAug ust
O ur
Ġmeng ap
ĠHuss ain
R a
ĠK TM
ingk uh
h ol
Ġs oto
Ġberg anti
ĠSEL ANGOR
I h
Ġpro ced
Ġsud den
ĠPert olongan
ĠSuk ses
ĠHind i
ĠT q
IK UL
Ġsci entific
Ġ idup
ĠJ OHOR
Ġhmm mm
Ġcet akan
Ġberib adah
Ġkeses akan
n ct
r ina
ĠO lymp
ĠD EK
Ġker usakan
Pen yakit
ĠBukan nya
Ġcir c
Ġber amal
g on
ĠR awang
Ġmengh afal
ĠB ener
ub uk
ĠY ear
Ġf esyen
ĠN iaga
Ġmemper luaskan
ĠAJ L
Ġbij aksana
ĠHid ayah
ĠM ilik
Ġdemo grafi
r ich
Ġbentuk nya
Ġpenggunaan nya
ĠBel anjawan
ĠMemb angun
Ġpur ba
Ked udukan
Ġsol usinya
Sungguh pun
1 15
d ont
j oon
k umpulan
rom i
ĠR ab
ĠJ A
Ġlamp au
Ġdi latih
Ġr aga
uj uran
Hak ikat
Ġnuk lear
Ġpais eh
ĠS aja
Ġmen iru
ukur ung
ĠAt asan
pec tives
ĠMasih i
S am
uk us
ĠI kut
ro f
ĠE mb
UR E
ĠMas ker
Ġjump e
ĠD atu
Ġusah akan
Ġemp ir
Ġcand id
T entera
Ġp ke
im ent
Ġper man
Ġng ada
Ġhip otesis
Fan Army
ĠG aransi
Ġpeng elola
ĠO VO
Ġhappen ed
ĠPow erbank
b it
Ġb m
ĠJ ob
Ġmeny enaraikan
Ġmer ayakan
Ġ% ),
ĠIm per
S US
Ġh all
Ġhal nya
Ġ196 2
Ġindom ie
W in
ĠT anjong
lam b
US IA
We ek
is hi
Ġla rang
ild ing
C akap
p asi
aj al
Ġa verage
Ġad lh
ĠE P
uran i
ĠSt ates
Re al
inc ess
Ġde als
Ġpres ident
D AY
Ġk acamata
ant eng
S elesai
Ġper ekonomian
Ġser tai
Ġmel engkapi
tem ukan
Ġapp le
P AR
Ġkeb esaran
Ġdisc ip
ongrat s
ers amaan
4400 46
baharu i
5000 440046
D ih
Ġla da
Ġmemb andingkan
Ġtransport asi
ĠBAW AH
B us
ĠH erbal
ĠPAS TI
ĠMuz ik
Ġinterpret ation
Ġpeng isian
eh al
Ġst y
Ġn apa
ĠE lectr
Ġdit eg
Ġres ort
Ġkek nya
ĠYa ak
ĠAla san
Ġbo oth
Ser onok
ĠB ot
ĠB iro
ab ek
Ġal is
ĠZ ar
Ġbab e
Ġess ential
B es
K IN
ĠC aves
ĠDPR D
Ġparticip ation
ah ad
ĠGab enor
Ġcem ana
Ġf ed
Ġlong gar
l ul
Ġber lebih
angg g
Ġkem elut
Ġye ah
Ġsmp e
3 50
Ġaw are
Mod ul
C ER
S eng
eb el
eg arkan
Ġsi vil
Ġpas ai
og yakarta
Ġpar ent
ĠC ip
Ġpengund ian
> >
U tk
ar aku
ĠL inc
Ġmart abat
ĠCle opatra
h arga
Ġn gi
Ġsk uter
Ġmun afik
Ġbel anjawan
form ance
ĠS uatu
Ġmen aruh
ĠBur ung
Ġump ama
C ity
d ip
Ġter awih
Ġaku i
Ġha us
Ġ] ,
ĠMener ima
Ġpnt ai
Ġd uty
ut ch
ud d
Ġpen unggang
oh ongan
b ok
Ġmb o
Ġtit ah
ĠGh ani
B ilangan
Ġbers andar
Ġmar ried
Ġtul en
K apan
T ar
Ġmer umuskan
Ġngomong in
B udaya
S amsung
is la
ek ek
ologi es
Meng gunakan
Ġrek ening
ĠZUL K
H EB
ib es
sek ali
Ġmil enial
nasi b
Ġnyen yak
Ġm awar
Ġr an
Ġpeng ukuhan
ind ir
Ġmenyemb unyikan
Ġseump amanya
Ġattr ib
ĠMert ajam
H er
Ġper ahu
art akan
Ġmerek am
O mg
ab au
au bat
ĠJ d
Ġpr ank
Angg ota
ĠPenerb angan
B AL
g inal
ket ika
M E
es er
Ġtent ukan
Ġsel ia
Ġbeg o
ĠBab a
A ss
C ek
c ut
ĠK ubang
lo ok
ĠDI PER
Ġcet erah
flfl flfl
ah in
Ġseb ak
Ġseb el
A lat
M ENT
as mi
ku cing
ĠSt ay
ĠTerj emahan
ĠPh D
usn ahan
d ata
Ġg ebu
Ġterb anyak
ĠAm ran
ka it
itt ee
D aftar
Ġber ehat
Ġmas in
Ġbe ar
Ġsen ilai
Ġset el
Ġkeg emilangan
ĠSE J
ali ze
isi ons
Ġ13 5
pen at
ĠSUL TAN
ĠT ANGAN
Ġpeng emb
Ġmengg eleng
Ġmet abol
Ġkond usif
ĠEd ition
ĠT ambahan
ĠG et
amb o
Ġd s
Ġp ond
tak u
Ġus er
KM M
yn as
Ġlest ari
Ġk ow
ĠAl bum
Ġkes elesaan
ĠDan au
Ġlik ely
Ġhany ut
ĠP B
s usah
ĠBe ijing
JK T
ĠS IS
ĠS OS
Ġc ust
Ġbek u
elar askan
Ġanal isa
ĠHaz iq
is ation
aj e
Ġsh aa
Ġkor ek
Az har
Ġimag ine
b erapa
er os
ĠP AH
ĠK astam
Ġmem ecahkan
Ġl ift
Ġseg men
erk esanan
K elas
SH AH
Ġl omba
Ġsayang nya
Ġsuk anya
ĠSm ith
L O
h g
ĠP ENT
Ġdib atalkan
Peng ajaran
j ub
ĠK angsar
di e
Ġsc ary
AMP U
PROCEEDING S
ĠPro ject
Ġhel ikopter
ST P
Ġt utur
Ġdi gabungkan
ĠB E
isa at
ĠHidup ku
Ġbersep ah
ĠJ ersey
ĠL ED
ĠU R
Ġis eng
Ġters irat
Ġkebiasaan nya
P ost
s ol
ĠL orong
Ġped ang
Ġpass port
Ġhash tag
Ġdi masak
Ġba ek
Ġper gaulan
Ġso u
ĠSal e
ĠRos mah
ar ya
Ġn apas
ĠSed unia
angga an
kn n
Res ponden
C he
Ġj n
ĠP ag
Ġseb atang
Ġketer laluan
j un
im atkan
Ġmem alukan
ĠAk ses
Pr omo
seb agai
Ġbut iran
Ġkons umen
un ik
Ġh ambar
Ġwah abi
al ous
ant ut
tara f
r imin
ĠA qu
ir y
and ed
ali za
Ġi la
Ġpr asarana
ĠIz zah
un ang
Ġber angan
ĠL ampu
az i
S ingapura
c ca
ent as
Ġmener us
ĠAd venture
ĠAust ria
Ġign ore
Ġs uri
ĠB uang
AN DA
Ġmis al
I lm
emb ungan
ĠG ong
ĠKL IK
ĠCo ffee
ĠGu ys
Y up
Ġk uman
im atan
Ġpemb uangan
ish ing
Ġprot ection
Ġmas lah
ĠU PS
Ġmengh afaz
Ġfikir kan
Ġsifat nya
H ebat
Ġw id
Ġmb ok
J O
erint ahkan
ĠIm ran
Mak lumat
Ġsetia wangsa
Ġbub ble
ant ed
Ġpend eritaan
Ġmcm ni
Ġperanan nya
Ġditekan kan
Ġs ams
Ġto w
Ġz oo
ĠL ou
ag uan
ĠSk udai
Ġworld view
ĠLU PA
ĠSout heast
f ashion
ĠA yu
Ġl it
ĠR akan
ĠL EM
ĠBas ed
B andung
ed y
ĠS amarinda
ĠD j
Ġdib esarkan
Ġmul utnya
ĠIsma iliah
M ark
Ġter oris
engk el
ĠIst irahat
ĠS uri
Ġsem ut
od enan
Ġstrateg is
0061 006
Ġter or
ER TI
gan tuk
Ġm ing
S emp
ĠS ambal
el ly
ĠB ack
iv ing
IL L
integras ikan
Ġmem ek
Ġkela inan
An y
ĠPh ilip
ĠCin emas
T ugas
ĠA ni
Ġberk ala
ĠTe a
Ġlepas ni
Ġsur prise
ĠSa ad
ĠSumat ra
Ġc intai
ĠB UT
Ġg ather
Ġbang ku
Ber k
Ġtele pon
Pend uduk
p aper
ĠB eri
ĠPon tianak
ĠM ore
ĠMak tabah
ĠUt k
M al
b ie
am alkan
Ġmin us
ĠMemb ina
ĠWar ung
ua q
eri ahkan
Ġko i
Ġperp isahan
ĠBut ter
ĠMenc ari
Ġbert aubat
Ġprot ect
Ġr angsangan
ĠG AM
Ġbad minton
ĠKAL I
Ġpenyus unan
ĠH aa
Ġgo vern
ĠStud ent
ĠWash ington
en ah
ĠPer odua
ĠPAK E
Ġexist ing
K im
Ġdi arah
ĠM alas
ĠG iveaway
Ġag resif
Ġband araya
Uk uran
ĠD NA
ĠPeng etua
ait un
m edia
Ġmin im
ĠInd era
Ġha o
Ġ11 5
Ġref ers
C r
R amadhan
g ia
ĠS ok
Ġo jol
Ġku ali
Ġ10 4
Ġter ma
ĠL os
ĠTok oh
Ġpasi f
Ġdij auh
I ts
Ġny eb
Ġur uskan
Ġl umpur
Ġkh ala
ĠMa qasid
ĠDir ektur
ĠD et
UR I
W al
ap et
ĠR ush
Ġng apa
Ġkep eng
Ġmengh idupkan
ĠMin uman
Ġny et
ĠPortu gal
m aj
Ġb omb
un ikan
Ġl ans
amb ak
Ġpeng akhiran
Ġjog ging
P ap
Ġo so
ĠH or
ĠU EFA
Ġst eady
ingk ar
An ugerah
Ġla sak
ag et
Ġkal ini
ĠAD ALAH
Alhamdul ilah
em akan
it on
ĠK ASIH
Ġr awak
ĠNet work
Ġnger jain
ĠG or
Ġgo lek
Ġpl g
Ġreligi ons
Ġmembah agikan
z ir
ĠD amai
ent a
Ġst im
Ġ20 21
Ġav oid
> .
K utub
em il
am uka
ĠM ON
amb ek
ep ort
Ġkul kas
Ġ01 8
Ġsens or
ĠT ower
uni on
Ġangk ut
ĠPengen alan
ĠC OS
Ġdis et
ĠMas s
Ġdes erve
Ġsub mit
Ġpak at
Ġgi ves
B ikin
ĠS uz
Ġdib ekalkan
Ġng ambil
Ġspeak er
ĠPAR LIMEN
K AH
Ġkes emuanya
Ġtr ade
F M
Ġh afazan
ĠM utiara
Ġng ed
ĠTak aful
Ġpenc ipta
Ġterpak ai
H ingga
T O
ĠM AIN
ĠEh san
ĠAW AY
ĠPublic ation
W o
Ġn un
Ġya aaa
Ġlah hh
Ġkom e
ĠPemb elian
or ter
Ġbe at
ĠMel ihat
ĠHuss in
Ġbegin ning
Ġber tiga
ĠH ok
elf are
Ġmen tak
Ġker ingat
ĠW HATSAPP
idi ya
Ġmic ro
ĠB ed
Ġpen eg
Ġdik embalikan
Ġsen ario
k akak
r d
Ġk p
ĠA FC
Ġadd ed
ĠGar uda
IKUL UM
ĠK EMB
ĠI MP
angs at
Di am
ĠT ik
Ġtak limat
ic ian
Ġdia gn
Ġab t
Ġdo yan
ĠKE W
roduc tion
h ood
Ġapp lied
ĠB oh
Ġal umni
Ġatas nya
ĠPes ta
Ġpil ot
%) (
Ġl engk
st ill
T ukang
Ġber struktur
Ġc arik
id ul
Ġmeng orbankan
ĠJ ho
ac au
Ġat asi
Ġsy irik
uak bar
Ġdicat atkan
r nya
ad wal
ĠP un
C all
G el
t unggu
Ġses sion
isip lin
S yarat
Ġw et
Ġe lection
Ġkam ek
Ġask ing
GG GG
m esti
p am
ĠS astera
ers il
Ġsp ray
Ġnas ik
Ġgend ut
Ġlu ahan
ĠS tory
ĠP elakon
Ġf lek
Ġdip ukul
Ġmemper cepatkan
Ind ustri
ĠBest FanArmy
ĠInteg rasi
Ġkekec ewaan
Ġr ampasan
Ġkem ar
ingg inya
Ġcut ting
ĠIh ya
ĠAPR IL
asih ati
ĠK O
Ġdiper luaskan
ĠKDN K
ĠN eo
por n
ĠMem iliki
ĠGer man
Ġtab ungan
Ġcent ral
Ġmer akamkan
ĠCh eng
Ġmemper siapkan
sc rib
ĠKhair ul
ĠD ih
pak ai
Ġpla s
ĠKamp ong
Ġdi ra
ĠB encana
ĠJ ami
Ġben ing
for ce
Kur sus
N ext
b atu
w ise
ama ikan
op ol
Ter lalu
hamdul ilah
Ġrequir ed
R ES
ĠST EM
ĠW ow
ĠW AJIB
enc angkan
ĠPem ain
ĠKemb oja
Ġhr us
b eza
Ġk lub
Ġr ain
ĠG ad
Ġdr ug
Peng urusan
rihat inan
Ġla lat
Ġt anjung
Ġp int
Ġh ent
Ġdip etik
Ġby r
ĠT olak
ag ensi
ĠFr ank
ĠUT AMA
ĠOff ice
ĠB atas
ĠJi wa
adi jah
ond ay
Per asaan
ĠStr uktur
Ġperd amaian
kap al
0062 0065002000
K INI
w alaupun
ĠT ukang
ĠJ antung
ub uran
uj aan
ist rasi
ide a
ĠPet i
embab kan
ĠT ow
ĠJ arang
ĠC ib
Ġbel on
Pen ingkatan
W ell
Ġn oh
ĠR abb
Ġmele k
ĠMor al
Y O
ĠF inal
Ġus ual
ih ihi
ay e
ov o
Ġmengen ainya
Ber d
ĠShop ping
Ġp aha
Ġmeng emas
per gi
Ġga g
Ġdo ain
ĠSw eden
ĠKul im
H ehe
g ers
Set ia
ĠII UM
ĠMark eting
Ġb ungk
us es
alal umpur
Ġmateri als
D esign
Ġs iti
Ġmeng adap
ok jin
ĠW kwk
Ġng ilang
Ġfir e
ĠDar urat
aff ar
Ġekstr em
b elum
Ġun is
ĠF IT
ĠBer fikir
Ġmembuat mu
ĠX iaomi
ĠPert umbuhan
Ġdiantar anya
OW ER
eri ah
ow ong
Ġpemb ekal
AK AK
Ġku ey
ĠAH MAD
Pe gawai
Ġbak teri
Ġsoci o
Ġagre ed
Ġbangk ai
b ucks
ĠS ALAH
ih hh
ab umi
Ġser emban
Al though
Ġmu ak
Ġfir ma
D uh
at idiya
Ġ196 8
Ġpenerb itan
DE V
Ġs la
ĠP oint
Ġdec ided
ĠCommun ication
u x
Ġmem adai
io ami
Ġbut ang
ayang in
Ab d
ĠRuss ia
ĠE H
uar ter
Ġ10 5
ĠMer awat
zz z
r uk
Ġs int
ĠMakan ya
ĠFin ance
H ol
ek tif
ay n
amp ion
emp a
Assalam mualaikum
Ġp ingin
ĠT ong
Ġsend irinya
ĠBAL IK
b uh
Ġdi gi
** _
Ġtau bat
Ġb anding
ly ing
Ġdem ocracy
Ġfav or
ĠTR ANS
A cara
ĠJ oin
Ġap pe
enc il
RE ADY
Ġliter atur
ĠSimp anan
ungs inya
J ohn
s iao
ick y
Ġpent erj
Mak asih
C har
ar et
Ġr abu
Ġsek ar
Ġprov ides
ĠBAT IK
Ġg alakan
Ġmem erintahkan
Ġar ch
Ġjawab nya
ĠAkh lak
ah ayaan
ur iti
ĠKar tu
Ġteg uran
Ġrek aan
K ew
Ġmem ancing
Ġx nak
ĠR ight
li lah
Ġk oc
Ġdi re
Ġhar um
ĠSt esen
Ġmener ajui
ĠSo ft
Ġwei ght
Ġconven tional
Ġb ait
ĠM useum
ek h
ĠQ atar
ĠLoc ation
Rez eki
Ġr ational
3 000
y ear
Ġ ungu
ab ok
Ġz ikir
ef ully
ĠSet apak
ĠJamb u
F okus
ar ily
Ġorang tua
Ġpeny impanan
ĠKe usahawanan
Ġk emp
ĠL ittle
ĠC UMA
ĠF ungsi
do akan
Jap ek
Ġeku iti
b ad
ac tions
ila f
ill ing
Ġmur ung
epat ah
IK IR
Ġcomp on
ye on
Ġmenghad irkan
" ?
oh a
Ġhon est
ĠS IM
ĠC c
G aji
ĠK IM
ĠT ari
ĠN u
Ġpr ec
Ġng angg
p us
Ġd ewe
ĠJabatan Penerangan
set elah
G ET
m uka
Ġp j
Ġph otography
Ġrom antik
g l
ĠR um
Ġpem ohon
Ġmakan nya
Ġ08 23
anye ol
ar ation
Ġin n
asil y
Ġang et
ĠBN M
Ġef isien
ĠKor ban
Ġmerek odkan
ĠPAL ING
ĠB ISNIS
ĠY in
Ġdefin ition
ĠMart in
T esis
ĠB PJS
ĠKEC IL
P ower
Ġt ula
ĠD usun
Ġmeng akhiri
Ġv ac
Ġmat aku
ĠMukh riz
ĠPREM IUM
Ġberd iam
ĠPak e
ĠKem an
ĠIS U
Ġinstr ument
f m
Ġdi alo
Ġh amp
Ġker asa
Ġmenggunakan nya
Ġatt end
Ġpenjen ayah
ĠF und
ha q
ĠKes alahan
Ġteb ing
Ġkad angkala
Ġzi arah
ĠGob ind
as ik
Ġga we
Ġdit impa
ĠPas al
Ġmenemp uh
f ect
ĠS endiri
ula m
ĠPER HATIAN
Ġcu ek
ĠKas us
bil iti
ĠB abi
ĠT UN
Ġf igure
Sed apnya
Ġhib ah
E t
Ġh shsh
Ġpen yatuan
Ġhi as
ĠBER N
Ġkac ak
Ġfre qu
Ġsyar ahan
Men jadi
Ġris alah
ĠCo ach
Ġceterah atidiya
b es
artab atkan
Ġt umpah
Ġla unch
st ream
Ġbers erta
ĠKe giatan
Ind ia
Ġkeg emaran
Ġdrop ship
ĠKang ar
p aru
s bb
ĠV o
pak sa
Ġbat tery
UNGG U
b g
Ġk andang
Ġse ven
Ġsela sa
any way
Sem enjak
ĠAz lan
Pem ikiran
ik lan
ĠMar in
ĠAL L
Ġmuslim in
Ġm anggil
Ġb ing
Ġj ijik
ku buran
ĠBer apa
ĠPem erintahan
ĠKem ang
Ġtugas nya
ĠSeh ingga
ĠINTERN ATIONAL
F i
Ġdi ulang
IL LAH
Ġhan at
Ġdetermin e
Ġ19 52
ra its
Sela gi
ĠBag hd
Ġdi urus
ĠX ioami
Ġped es
Ġprogr esif
resi asi
ĠSYA FI
ĠL AP
Ġas naf
Ġhy p
ĠAR AS
Ġj uru
adi c
Ġsek or
su ara
Ġeks presi
Ġident itas
Ġnom er
imp le
tur ing
ĠSer pong
fik asikan
ĠVictor ia
Ġm alaysian
ĠFut ure
ĠIs land
Ġidentif y
K emen
h ani
Ġh alah
aw aan
Ġdir ampas
Ġexp lan
erh aka
ĠHind ia
N amanya
Ġn aga
Ġo mbak
ĠPer c
Ġser buan
Ġnunggu in
Ġb ra
Ġc au
Ġmen a
L AT
Ġk oh
ĠM TV
Ġper li
Ġcap res
Ġoper ation
v y
Ġneg ri
Ġu olls
r utan
ic ide
imp ang
Ġre kan
ĠMa ul
erv ous
Ġy all
Ġser atus
ĠBel anja
r el
Ġs ume
Ġr uas
ĠD ian
Ġat om
Ġtan ak
ĠHuman ities
T est
ĠP US
Ġmen unjukan
Ġg re
Ġar tif
Wala ub
S R
s ih
ur afat
Ġf andom
ag angan
Ġta ehyung
Ġev ents
ĠSur au
APP Y
ur ement
ĠB CL
Ġab aikan
Ġek onom
Ġinsur ance
eb al
ĠY audah
Men u
Ġ12 8
Ġbar angkali
Ġatt itudes
I tem
Ġc rowd
Ġper oleh
ĠST OK
Ġkemas yarakatan
Ġjar um
Ġf o
ĠCon vention
Ġanti oksidan
CLUS IVE
Ġind ikator
ĠPr ima
Ġz alim
Ġbang i
Ġout let
HH H
Or gan
Ġber akhlak
Ġdip atuhi
Mas ukkan
Ġrek omendasi
Penc apaian
ĠUPS R
am y
Ġn inggal
Ġkes ahan
ĠJO IN
b akar
Ġh aw
Ġdij anjikan
ĠR EL
ĠPeng g
ĠMeng atasi
Ġagre ement
m ac
Ġsex ual
ĠU lt
Ġje alous
ast ik
Sek itar
ten ance
Seri ous
F urther
Ġn yatakan
ĠC iri
ern ih
Ġmuncul nya
Ġfood panda
ĠPolit ical
Ġk anc
aaaa aaa
Ġsun screen
Ġsaks ama
ĠM ost
Ġseb ar
ind i
ip is
Ġser angga
Ġangg ur
ĠLaks amana
ĠC ru
ula te
Ġdir umuskan
Ġbl k
ĠI ron
pas tu
ĠAM B
Ġappro ve
Ġb pk
ĠP enting
Ġmen entu
ĠZ ura
Ġah hh
ĠEx per
_ .
m ener
ib ukan
si al
Ġkam us
Ġmener bitkan
ks ks
ĠKap as
Ġallow ed
M ost
Ġmeng un
unc urkan
ĠTak nak
ĠHe ad
Ġbed anya
Lu v
uks esan
b uah
e very
x el
ĠK TP
ĠN er
Ġses uka
Ġko lesterol
ĠPol sek
Ġcob ain
K elebihan
ĠPer gerakan
Ġkal u
Ġcer dik
Ġalm ari
Ġs pa
Ġh ell
ant um
Ġpert ambahan
ĠSt art
Ġproduc tion
Ġr awat
Ġpemb akaran
Ġob tained
ĠGun akan
ĠElektr ik
P ant
ĠM id
ĠBest ari
la rasi
am aku
Ġmeng ena
sed ap
d m
s uit
ti al
P engan
Ġb dk
anti c
Ġdep ression
ĠBERS AMA
Ġberkem ampuan
ik ayat
Ġsk olah
Ġjam u
Ġdid ukung
TI V
N ik
ĠK adar
ĠD uk
Ġuntuk nya
ĠE p
Ġlont ong
ĠA uth
ĠK apan
am en
Ġpeng amalan
Ġpenc alonan
ĠPem enang
Ġty po
ĠHAR US
ĠMers ing
T eh
ik matan
Ġdis empurnakan
lic ations
Ġsosio ekonomi
) :
M aksud
ur it
Ġmemb endung
Ġx tau
Ġdic ampur
Ġnasional isme
bag us
Ġlangg anan
Ġappropri ate
Ġb uluh
ĠT esis
Ġand roid
Ġlak sanakan
St at
Ġditak rifkan
Ġketid uran
J an
Ġpeng san
Ġst uck
Ġbenef its
P astikan
Ġm iddle
Te am
J UAL
Ġr itual
ĠO bor
Ġop ah
ĠPhilosop hy
b odoh
ĠJav a
Ġpengan juran
HAHAH A
Ġmach iam
Ġte ow
Ġberg egas
AI Z
Ġenvironment al
w atkan
ĠJ UN
Ġbo ys
Ġpatri otisme
H IL
Ġs ti
Ġn v
Ġf ile
ĠZ ion
Ġsu ap
erst anding
p ay
ĠR io
mas yarakat
Ġdihad apan
ĠDes ain
D engar
Ġmeng ata
ĠLaw as
Ġust ad
A pr
j ong
Ġpem alas
ĠMenc egah
M AC
P anas
ANG GA
Ġistim ewanya
Ġpack ing
ĠSinar Online
b en
Ġmem enangkan
ĠL ut
Ġsej uta
ĠMcD onald
D atang
ĠT ips
rat ing
Ġbun tu
Nas ir
ek am
Ġl ens
Ġpen indasan
set iap
ĠGed ung
Ġg eprek
Ġberp andu
ERI AL
v isi
Ġa idilfitri
angs angkan
Ġkep ulauan
ĠZ uh
min e
Ter j
Ġkel marin
Ġnur se
arut o
Ġrank ing
ĠLest ari
Ġh eboh
Ġmen elan
ĠR ey
raj in
Ar abi
Ġfam iliar
Ġth reat
ĠJ atim
ANG IS
Ġteman nya
ĠSur ia
Ġsens asi
ĠTp i
ĠPERL U
Ġmelet up
F ungsi
ur ahan
ub er
Ġser aya
est ay
St esen
Ġtangk i
ĠList rik
ĠT OP
Ġjawab annya
Ing atkan
ĠPed as
y on
ro ad
ĠG ayah
Ġdib ikin
Ġdiper sembahkan
pe gawai
Ġkepad atan
ajj al
k elas
Ġm rs
Ġy r
ĠB awa
ont arkan
Ġsah siah
k ad
s ha
ed uh
op oli
Iya a
Ġketa gihan
Ger akan
Ġpengin apan
M elaka
Y MM
ĠP s
Ġpers elisihan
Ġair nya
Ġbro ad
Ġtot ally
Ñ ĥ
ĠR W
Ġbert eman
ola bor
ĠMes in
Sus u
s aw
Ġa qu
Ġstud i
ĠMat rik
Ġvers es
Ġs aint
si akan
Ġmend ekat
ki en
Ġbelie ved
uk ir
Ġc asing
ul iaan
Ġsele k
h ope
Ġp upuk
Ġj ersey
Ġ! ?
Ġdis ertakan
aq i
dr ama
Ġdi yakini
taf sir
Ġn at
eb y
Ġdic etak
ĠSun way
Ġdif ikirkan
Ġwis dom
Ġberant em
Ġe lec
Ġe asily
Ġcharacter istics
ĠKre atif
gi um
ĠC A
ĠG PS
ĠW i
op eng
Ġtangg uh
C ocok
L ee
Ġdik elilingi
lo ud
Ġperm ata
Ġkenyataan nya
Ġgor engan
_ **
s ambil
ab e
aw e
iti pan
Ġbapak nya
end era
ĠG UA
Ġes c
B AH
os ity
Ġsatis faction
Ġ; )
ans uhan
Ġim medi
Ġdif ahamkan
D imana
ĠD arah
Ġap arat
Ġasas nya
Mus im
Ġpas rah
Ġch apter
hhhh hh
Ġgirl friend
Ġaff ord
Ġsind iket
ad il
im inal
Ġpeng acara
Ġpost ed
Pol itik
struc tion
L ima
ing ini
ĠN ight
Ter kadang
Ġkele watan
Ġmelampau i
ĠP atani
um is
Ġdah la
Ġar ena
Ġno tice
Ġdefin ed
Az iz
Ġif lix
F iqh
H O
Ġdis ukai
Ġkon krit
ĠD ef
ĠC os
Pem er
ĠCond ominium
r ec
ust rasi
Ġpel ukan
Ġmenjauh kan
es alan
Ġkal eng
SEL AMAT
Kesimpulan nya
Ġj embatan
Ġc ucuk
Ġw ood
end ali
Ġlog istik
ĠGam es
K omun
L iga
S ET
ĠT eks
ib ir
oo ooo
Ġmamp an
ĠChild ren
ĠO ld
Per untukan
Ġno ob
ĠPalest ina
D if
ĠW in
ĠUn der
ĠKons ultasi
Ġpers audaraan
Ġberf ikiran
ĠPe ace
Ġsant un
Ġpemboleh ubah
A bah
ek tor
Ġdi hadap
Al pes
Ked ai
Ġrum us
Ġpengkh ususan
ajai ban
era ikan
ĠAb g
omb o
ĠId ol
ĠSUK SES
ĠM ATA
Ġ 000
Ġm ej
od et
ĠY outh
angk ai
Ġjumlah nya
C omm
la la
ĠB au
Ġpeny erahan
ĠSpe aker
d ekat
Ġre alis
AC E
Ġlan e
otograp her
Ġpress ure
ĠB aling
Ġkur ta
ĠJuni or
yh ur
E hh
S eni
ĠP age
ĠT injauan
ic ip
ond e
Ġex pert
Ġbeg adang
ĠF adz
Ġny esel
ĠM andi
aw n
Ġkebij aksanaan
us hi
ĠN ap
ew ah
Ġdilakukan nya
ĠPert anyaan
elih araan
it em
ond o
ĠAc t
Pers atuan
Ġek ar
j ib
at ory
Ġkek osongan
Ġb ismillah
Ġr ush
Ġdid orong
f ur
Ġd k
ĠL ag
ĠSk y
201 3
ampai gn
Ġsou venir
on ut
ĠD ad
Ġdit indas
ĠSe oul
Ġkir ain
Ġtick et
ĠS ibu
ĠP W
Ġin ku
Ġpr osiding
ĠKamar uddin
ĠB OS
Ġter uja
Ġv eteran
ly n
ĠPemb iayaan
Ġlip as
ĠTa ala
Ġtak es
our ney
onom y
Ġhahah ahahaha
Ġmenyi arkan
J anji
Ġpeng adilan
emp el
iz ing
Ap apun
Ġkapas itas
F uh
Ġd eri
Ġper enggan
ĠPer mata
Ġkomp osisi
Ġroyal ti
Ġmend ahului
AL AU
ĠKo per
Ġinstit ution
ĠAk tif
Ġtop up
ĠNov el
ĠON E
ĠHAHAHAHAH A
ĠPUT IH
C hat
ak arah
Ġc eni
Ġbersenj ata
h as
un ian
ĠB imbingan
ĠD oc
Ġterk umpul
Ġgraduat e
Ġrecomm end
le ting
ĠP UB
st yle
Ġdip lomatik
Ġmengh ala
Ġbetul kan
of ood
Ġnga ji
U pdate
Ġd am
Ġc ad
Ġw tf
au b
Ġf ear
emb iraan
Ġga gah
ĠKel ana
Ġphot os
F orm
us in
ant unan
Ġcel ik
Ġrint angan
Ġro les
ĠPel anggan
Ġemo tional
s ari
Ġdi liat
ĠU cap
angk abau
Pemb inaan
p lan
Ġmur tad
ĠK OS
Ġ( ;
ĠO ver
Ġdis ebelah
Ġext ent
ala pak
Ġh afiz
Ġl ian
Ġpen entu
Ġmel impah
Ap likasi
17 382
Sesi apa
ĠPrac tice
Ġ17 0
H el
p la
q w
Ġr oll
Ġdip engerusikan
ĠF uz
Ġmend efinisikan
vis or
Ġh its
Ġbant ai
Ġconduc t
H ah
K ual
b uru
Ġr are
ĠE MP
angs ter
ĠLah ir
Kat egori
Ġmembant eras
Ġt or
Ġtu ala
anc he
Ġkal im
ĠSem alam
Ġcom fort
Ġinterest ing
or ed
Ek onomi
ewak tu
Ġg injal
Ġcm ni
ĠMAS UK
EF LI
Ġperf ume
Ġcem ilan
s inya
un o
ĠS IL
Ġ- &
Ġam ir
auh an
ĠMeng urangkan
ĠC endol
Ġmenj anjikan
Ġpenduduk nya
ĠHad hari
ĠEN D
Ġbey ond
end or
ĠJ ordan
ungk ai
Ġunivers e
ĠBES I
Ġpemp rosesan
ĠZULK EFLI
ĠSYAFI QA
ĠT unggal
ĠCut ting
ĠK amil
Ġla ris
ĠU g
ĠPeng edar
Ġinf lasi
Ġjah il
asing kan
Ġ76 307
ros oft
Ġ76307 17382
M aju
ĠB IL
Ġl itar
st ein
Ġdid unia
ĠPel bagai
ĠPr akt
Ġkeh ebatan
Ġkos a
ĠL ia
tr ep
Ġmengulang i
Ġopportun ity
B odo
s uk
v ate
Ġkec ap
ĠRE AL
um ikan
Ġ19 46
Ġmuk min
Ġrej im
Ġp idana
ont rol
di es
Ġli ang
Ġwant s
ĠOff icial
ĠAv engers
K R
ĠP impinan
ent e
Ġseb iji
Ġreg ister
Sab tu
Ġp ie
un tain
Ġseb egitu
ĠH I
mad e
Ġ08 77
Ġna ungan
mn ibus
Ng gak
Ġdol lar
Ġj ack
Ġbl ouse
Ġform s
Ġtol er
ĠPEL AJAR
ĠKeper luan
T ajuk
Z ah
ar awan
ĠW hy
Ġdis us
Ġres olusi
V irus
ĠK hat
Ġf ase
b is
ĠN ormal
Ġi KON
Ġsp am
18 0
Ġtido q
Res earch
Ġthank you
v ideo
ak iti
ĠAg ustus
lad angan
Ġad egan
Ġaw ok
ĠBr and
k os
ĠH UB
ĠAm ar
IM ANA
sen yum
Ġche f
M c
T ema
p adahal
Ġf lex
ĠG an
EB O
ll ll
J awapan
P ON
Ġc engk
ĠJ ag
ĠC UC
OO OO
Ġtelek omunikasi
r ahan
t own
Ġmem erhati
Ins ya
Ġj imin
ĠH ehehe
Ġpela min
Ġliat in
ĠPROM OSI
ĠR upanya
per lu
ĠSt ep
OD E
K np
Ġk eng
ad ise
ĠA le
ĠEn am
H R
K ay
ĠB pk
Ġad aptasi
Ġtu anya
Ġmin utes
ĠAs ri
ĠMeng enal
Ġsee ing
K ir
ĠS hir
ĠH ajar
Ġpol ic
Ġbn da
ĠStudi o
ĠSAL E
T OR
k ampung
Ġc emas
ĠW is
lasi fikasikan
ĠFre ud
Ġkesus asteraan
Ġjurut era
Mor ning
Ġmen ter
Ġmen anyakan
Ġe e
Ġisti adat
ĠReligi on
Ġ19 58
Ġberp ecah
unc ur
Ġdil upakan
Perk hidmatan
Ġtat kala
S econd
ĠM emp
az iran
lo ver
Ġbaj ukurung
Ġdimin um
ĠPerh entian
Ġkesep aduan
er u
Ġk ana
Ġn emenin
Ġl il
ku alitas
ee z
Ġgener ation
Ġdirect ly
Ġh apus
ĠK rit
lu bang
ĠG and
Ġkh urafat
ahh aa
Ġdiangg otai
ĠPr omosi
Ġsele briti
ĠPol icy
ĠBaghd ad
Ġb umbung
Ġdi aman
ĠL AG
Ġdapat lah
Ġpercaya lah
Ġpec inta
em ade
Ġh af
ĠM ang
Ġter amat
ĠAr my
ye es
AC KP
Ġabang nya
Ġmeny em
Ġkedudukan nya
Sej umlah
Ġjur ists
la dy
ot ongan
Ġberh emah
Ġliat nya
Ġamp ang
ĠGel ombang
D ic
Ġd al
Ġp uc
Ġj kt
ĠSh ow
Ġbet ol
ĠEng gak
ĠTi ongkok
Ġmeres ap
Ġmeluk is
ĠTradisi onal
B l
b angsa
ĠS G
Ġto ols
Ġins ya
Ġfac ilit
Ġberpend idikan
ĠSya f
IG H
Ġconcern ed
ak n
Ġmak mur
ĠPR OGRAM
ĠRaz ali
R ef
W UA
id angkan
Ġpeng k
Ġkor elasi
ĠKER AJAAN
ĠMIN YAK
Ġkilo gram
Ġd w
ĠS arah
Ġ7 780
Ġbl om
Ġmengut uk
Ġkelemb apan
ĠKEW ANGAN
M alu
ĠP AT
Ġf dah
Ġa ura
Ġjam uan
f irst
er m
er cial
Ġper isa
Ġkeper ibadian
ĠTim or
And ai
Ġdi in
ĠG elar
F inally
K urikulum
Ġs ongs
ĠT IK
wat ch
R ancangan
S im
Ġmem ory
ĠBI G
ĠD B
Ġdik onsumsi
ola s
ĠRes eller
Lap ar
Ġts hirt
M ic
ĠT angga
ĠW on
ĠW NI
ĠCh icken
10 3
Ġpin ang
Ġ_ **
ĠHAHAH AH
Ġselec ted
d ian
j r
s eorang
Ġmeng gun
P esan
am nya
ĠT UHAN
ro ve
Ġfr ame
Ġdunia wi
zal iman
ĠPsik ologi
k orang
ĠT y
ĠT EMP
Ġl anj
Ter ingin
ĠSa ve
Ġprophet s
Ġd ahan
ĠS port
Ġpers efahaman
IR AL
aka unan
Ġun ity
With Luv
ĠLI AT
ĠDEP AN
H ukum
ĠT eri
Ġas upan
Ġpemb unuh
Ġob es
ĠMem ahami
Ġmenonjol kan
gig it
Ġat uk
ist al
Ġcar bon
ĠStrateg ik
B is
ĠW ira
IK IN
ĠKom isi
ĠMer upakan
Ġtamp ilan
ĠHen ry
ĠKeman usiaan
K as
g ala
Ġc ip
ĠL UAR
Ġpay tren
iiii ii
ĠRegi onal
N e
Ġpun ish
Ġje les
Ġrec ogn
Ġdiv iden
ĠM ek
Ġco aching
app p
Ġusah anya
pem impin
Ġs ut
Ġk iss
eng in
arat hon
Ġbak teria
10 4
ern akan
Ġover all
tag ood
Ġc ib
ĠT ajuk
enc an
men j
ĠIns ya
ĠPri x
Ġmenyemb uhkan
PROM O
J OM
W ey
odet abek
Ġmembah agiakan
IG N
Ġsubject s
ĠK IRI
ĠB ee
ĠT ype
ĠSi gn
pres sion
ĠSus hi
D S
K al
y angkan
ĠM its
ĠC as
ri um
Ġkes enangan
tr ik
OR I
Ġlook ed
Ġ elu
ĠT ITAS
ĠD ungun
Ġsar ingan
rib ution
ĠHana fi
Ġquestionna ire
ĠM ulti
Ġrumah tangga
ĠAk si
Ġhigh ly
ay s
ĠW ood
ĠF EB
Ġwar ganya
Ġsimp ly
ĠRas mi
h il
q at
Ġpeny erang
Ġsat elit
ĠJ itra
ĠW AK
Ġwas sap
ĠAc ara
Ġwork ers
Ġdiab aikan
d ij
Ġal um
th ere
But uh
Ġgap unya
elir ukan
Ġp ig
ĠM inda
Ġr aj
Ġpen anda
Ġmele tak
ĠKL CC
Ġluk is
Ġr eda
ĠJ ujur
Ġhel m
Ġmach ine
, âĢ¦
angg ilan
Ġket etapan
Ġhe y
Is lah
ĠMed ical
bl ock
m il
ĠB icara
arik u
Ġchi obu
Cor ona
Ġpropag anda
B ud
C er
h ub
n ampak
z ita
Ġdn gn
W at
b ahagian
d ut
ar ep
ĠA gr
ant apan
Ġdiper baiki
Ġdid aftarkan
Ġpent afsiran
ĠKen yataan
C ho
Ġc s
ĠKEN A
H ur
ĠT w
OP EN
Ġh impunan
ĠP ep
Ġad ap
Ġmenc er
ĠMER EKA
ĠTIM E
R AH
Ġd au
N C
V al
Ġsahabat nya
ĠTrans fer
Ġmembeb ankan
ĠT ot
Ġdig anggu
Ġterp encil
Ġsuccess ful
Ġdiut amakan
o z
Ġw awancara
Ġch en
Ġ08 56
Ġn yah
Ġsk et
Ġkhala yak
G E
ĠM ending
ul angkan
ai yo
ĠCh i
Ġcon v
Ġkehidupan nya
ĠDes ember
ĠS R
ĠG eng
ĠFeb ruary
Kar im
ĠS ampe
ĠTh ought
PR OS
Ġexp ensive
Ġdesc rip
L antaran
ĠAp pro
kur sus
al iran
D own
ĠM am
im edes
Ġketa atan
Ġekstr ak
Ġhistor ical
R ec
e es
Ġdi elakkan
Ġse a
ori ginal
ĠCr oss
alon kan
Ġb brp
Ġberb aju
Ġapproach es
ĠT B
ok oli
int elek
Ġperl unya
v ard
Ġdi kuat
Ġpr el
Ġmemp roses
Ġhel lo
ĠPENG AJARAN
Ġtela dan
ĠN af
Ġberp anjangan
2 006
ĠS l
Ġ? .
Ġseh inggakan
fa edah
ass ir
Gun akan
Ġberle luasa
Ġsof tware
Ġkemur ungan
ĠA gn
ĠN STP
sk y
ĠVal ley
Ġswe ater
b angun
Ġdi ingat
ĠP av
eh arto
ĠY as
Ġberk ira
ej uang
Ġkab ut
u le
ĠA EON
Ġjalan kan
Ġeng ineer
ĠFac ulty
Ġub i
Ġdi ingini
Ġf m
ila u
Ġse xy
ĠL oke
Ġrec ent
plo itasi
M ag
n on
ĠM IS
ic acy
ARA AN
Ġkol om
M ati
r int
ĠG AMBAR
Ġdib alas
AD AH
Ġpenutup an
Ġpert ahankan
ker ana
ĠL en
ĠL aksa
Ġterb angun
IT RA
ING GA
ĠDem okrasi
r ambut
Ġc las
Ġker aguan
ĠE mer
Ġng eluh
Ġdik enang
Ġkom ersil
ĠPend uduk
ĠR og
erit ahu
ĠMenc erahkan
Ġorig in
R O
Ġd eny
ĠTer baru
ug ar
Mes yuarat
elbaga ikan
Ġkara oke
ĠA RT
ĠF OTO
Ġag amanya
ĠTer t
Ġkemb ung
ĠBER H
Lepas tu
ĠAT AS
l ika
ad uhan
ĠA ma
ep un
Ġmengh ulurkan
Ġskrip si
ĠPemer iksaan
Ġs ist
Ġp onteng
Ġn engok
ĠAd il
bat asan
m art
p usat
ut ers
ĠI H
ĠR eb
Ġses awang
Ġyuk k
F REE
Ġ ahah
Ġal ergi
Ġbert enaga
uri at
ola wat
N K
il led
Ġdip elihara
ĠEur o
Ġmenyayang i
b apak
m arah
Ġse kuat
ĠM engan
Ġin ner
Ġf emin
Ġtak rif
ĠF AK
ej am
ĠH UJ
ĠSem uanya
hy uk
Put rajaya
ĠRej ab
Pin tu
F IT
s man
Ġd ai
Ġent ire
Ġcrit ic
ĠRay uan
Ġter wujud
ac es
og ok
An other
UL A
Sar awak
y ok
Ġl uah
201 1
Ġpop uler
Ġumat nya
ĠLim ited
ĠCON FER
Ġcorr up
Ġtolong lah
Ġweh hh
200 8
ĠHol y
Ġb um
ĠH ILANG
Ġres iko
Ġs aku
Ġpeng edaran
ĠY ew
Ġpert ar
Ġbut ik
B ohong
c oba
ĠR eza
ot aip
tion ary
Pes erta
b elakang
at han
00 00
ĠPer juangan
Ġperb aiki
Ġunt k
Memb uat
ĠKU ALITI
Ġarg ument
t ek
Ġg andum
ĠC y
Ġsek erja
Ġ3 60
ob e
man usia
w kwk
la ri
ĠM izan
ĠP ON
Ġber pasukan
Ġdil anda
Ġprakt ik
M alahan
P E
a e
r ant
s eg
et ar
Ġmin ute
All Out
Ġdiseb alik
r ub
ĠM alu
Ġmer ta
Ġdah ulunya
ob o
Malaysi aku
ĠParade ForX
S har
h and
i us
it aan
Ġseb ati
ĠGo AllOut
Ġparticular ly
ĠGoAllOut ForX
G L
Ġk ib
op ak
Ġlo ji
adi un
Ġ3 000
Ġkel urahan
J awatankuasa
p ori
Ġt ari
Ġber teriak
Ġlagi i
Ġz ina
Ġlat ter
Ġcol lect
Ġresearch ers
Ġfot onya
zab eth
b ung
Ġber atus
Ġmer angkap
Ġed ition
Ġmut er
ĠGr ed
Ġgh aib
Ġr usuhan
ĠH AD
** "
Ġsar ana
ĠMem perk
Ġrom antis
U ni
um umin
Ġdia a
Ġser uan
Ġtidur nya
Ġsy ed
Ġsy mb
ĠKas ian
f s
Ġh onda
ĠH amil
ĠMeng ajar
Ġbor n
uha imi
U DA
elu asan
Ġla dy
ĠSh ariah
Ġay ok
ĠBERT ULIS
p ati
ĠB ond
Ġw oo
Ġl ongkang
Ġkes embuhan
ĠBer n
etah u
Dis ini
Us taz
bl og
ĠS ports
So lat
ail and
Kang en
Ġl on
Ġsem en
Ġtrans it
ĠL AMA
re ally
Ġv isa
Ġpet roleum
Ġmele pasi
13 5
Ġsemb unyi
ĠSe ung
Ġnas khah
ision er
7 000
Ġn ahan
ĠP IC
ĠR awa
Ġn gun
Ġter ok
ĠAs asi
Ġdr um
ID ANGAN
ut t
Ġr intis
Ġf os
ĠJ umpa
ĠPin jaman
ici ous
B UM
Ġm echan
el ip
ont ot
hi as
anak nya
Pol ri
Ġinterest ed
ĠCONFER ENCE
N ING
Ġm ua
es okan
aik al
Ġthat s
ĠEX CLUSIVE
Ġlow ongan
id ato
ĠW ho
Ġku alalumpur
Ġany way
ĠMala cca
us ta
Ġmela ungkan
Ġinter action
Ġresearch er
ĠSya fi
Ġmala ya
ĠR idz
ĠC OB
Ġberp usatkan
ĠArch imedes
Ġal ang
Per n
usi as
oth ers
R ed
at un
es us
im umkan
Ġlingk ar
Ġpup us
b ye
ĠA iman
Ġseb ijik
ĠKok urikulum
Ġvaria bles
Ġp udar
ĠV IDEO
inc ikan
Ġout put
ĠTe x
Ġprep ared
Key words
Ġle l
ip lin
Ġri ak
O perasi
Ġj ul
ep annya
S uasana
f b
op tim
Ġberd uka
Ġpengh alang
Ġjat oh
d ong
Ġmas ukan
Ġch ocolate
Ġpur ch
ĠAY AM
Ġg inian
ĠD ialog
Ġbers inar
ĠInd uk
Ġdir ection
ĠSo ekarno
ĠIS DEV
ĠJos eph
Ġj usteru
ĠM alim
Per istiwa
ĠCo ast
Ġpup ils
M AH
Y audah
Ġr s
bab y
Ġocc ur
ot anya
Ġgel isah
Ġbersep eda
ĠINS AN
ĠM AP
Ġw it
Masalah nya
ĠKont rak
Amb il
ĠP ulang
Ġker et
ĠG adis
Ġberp ihak
eker apan
Ġaltern ative
Ġsem arang
Per ak
ĠAz am
Ġperl ombongan
Ġmenya pa
it m
Ġsi akap
Ġsed ari
th inking
Ġmenc uci
Ġkep an
ĠYa o
Ġd ota
Ġtan i
Ġilmu wan
Ġtele gram
T AH
Ġber ist
ĠNur h
Ġdisc rimin
ĠLing erie
ĠSpes ifikasi
ĠR onaldo
ĠE very
Ġgu o
Ġrap uh
ĠLub is
Ġsoleh ah
Ġberg anda
Ġsin yal
ĠU dang
ĠE MAS
tiv ely
Ġz ero
Ġsent uhan
Ġaq idah
Ġdi akses
Ġsup erior
Ġintel ligence
v as
Ġk anda
ĠS RC
ia q
Kem arin
cy c
w il
z ar
Ġsi apakah
anc ak
OW N
B y
ĠS EC
Ġsuk e
Ġmar itim
Ġdeg il
ĠTah ir
ĠPos tage
Ġfasil iti
Ġb im
ia w
ĠT ahanan
Ġter latih
ĠR ain
Ġkont ol
ĠSed ikit
S ifat
Ġd ab
Ġm uj
ĠD IRI
ĠC emerlang
Ġbers umber
tr y
Ġj ang
Ġin terior
ĠR afizi
ĠH ey
Ġjalan nya
Ġdih apuskan
Ġkele starian
Ġple as
Ġstreng th
B angi
H ay
Ġsek si
OT E
Ġl ing
ĠH AHA
Ġtert anya
Ġbor os
Mus ic
ĠBint ulu
nct base
Ġm utiara
le tak
ĠD EB
Ġju adah
Ġmend e
let in
D on
ur abaya
ĠM ATI
ĠD E
ud upan
Ġdia orang
Ġed c
ĠUs ia
ĠPear son
Ġdi vers
ĠIb adah
Is mail
f y
ĠP auh
ĠC itra
Ġtom yam
Ġfr uit
Ġbr ader
Ġop p
Pem ain
M aw
ĠM arah
Ġand ai
art emen
Ġked ekut
Ġperund ingan
ĠSh ak
Ġkt m
1 60
em o
ĠD ukung
lu c
Ġsamp ul
Ġperb aikan
ĠAf ter
Ġinclud es
Ġnes caya
Ġs ri
ur awat
Ġter ap
ĠJ ay
angg uh
Ġep al
Ġad mit
Ġdit adbir
ĠSes eorang
ocr atic
ĠKED UA
Ġb oba
Ġnya la
Ġsc ared
Ġinter aktif
33 9
Ġberori entasikan
ĠF aisal
ren ch
ĠPat ah
Ġb le
Ġh eli
im ental
Ġk ongsikan
Ġf ailed
ok aan
Ġdib ersihkan
Ġ5 000
Ġen rol
ĠMOT IF
2 007
l angsung
r ar
Ġper w
Ġg um
ĠD EM
ĠJ awatan
ĠZ i
) (
ĠP aper
Ġmel uaskan
Ġko lektif
ĠKL ASIK
Ġinstit ut
ĠPam eran
P uan
en ni
Ġn ing
ĠG elang
es ome
ĠH ebat
Ġmer apatkan
AY AH
Ġlamb ung
ĠSkin care
l umba
Pen emuan
andat angan
Ġsit us
b entuk
Ġdir asmikan
ĠMar x
Ġcam ne
ĠUN ESCO
ĠSayangi Malaysiaku
u ih
en omen
ĠK BAT
Ġkar yanya
ĠZ h
Ġlem ari
ĠUN IT
Ġmil itan
Ġamong st
ĠGr am
pis od
Ġkh ilafah
Ġcook ies
ĠAUT OM
Ġc ousin
ĠK oi
id uk
ĠPR O
Ġdet ect
J um
ĠSi g
ĠSE A
Ġmoment um
Ġad ult
Ġ19 30
Ġsaran an
Ġori entasi
ĠMAN USIA
Ġkolabor asi
z u
ĠD m
ok ap
ĠKor upsi
ĠUP DATE
S ee
ĠH aris
ĠPer intah
iri ah
Per p
Ġberken alan
Ġest im
am el
Ġin klusif
ĠU D
Ġan xiety
Ġpr ono
Temp oh
Ġ ong
Ġbel ang
ĠAc tion
Ġtujuan nya
Ġpaw agam
Ġm iring
ĠW eh
yam anan
Ġkit chen
ĠBek alan
f akat
Ġgood luck
m ikan
Ġtech ni
L earning
T uh
Ġp elajari
ĠF ik
ret ariat
ĠEd ward
Ġmeas ure
Ġ" ...
angg is
ra it
ĠPemb ayaran
Ġmemat ikan
Ġfleks ibel
Ġfal se
om od
Ġberp eluh
Ġbersed ekah
Ġkem uncak
Islam i
ĠL ampiran
onf irm
U I
Ġm egang
Ġs ingkatan
Ġb p
ĠA re
ĠB IR
ari asi
ĠG aris
op s
ĠAr ena
R i
Ġm ual
IS BN
ĠSy ukur
Ġpat in
ĠMaj alah
ĠJamb atan
HEB AHAN
ĠH aw
emb aran
ĠC INTA
anc uran
Ġlib rary
Ġinclud ed
ĠCap ital
] .
ad ir
Ġber endam
Ġdiper caya
ĠBent ong
Ġconflic t
S ye
ĠK ash
ac ak
Ġgi zi
Ġkela paran
Ter baik
ĠG I
Ġim age
sw ast
Ġkesep ian
Ġpr imer
Ġind eed
ĠAR AH
Ġpeh a
Ġpenyer apan
s am
z ali
Ġkeh ormatan
Ġberf okus
Ni at
ĠUsul uddin
ĠInd om
og el
14 0
ĠGr egory
ĠK empen
Ġl isa
Ġop po
Ġtemen nya
Ġom ong
ĠMal uku
Ġspek ulasi
Ġt uru
Ġpela yan
Ġwkwkw kw
si fikasi
akhir nya
ĠTER L
Ġconc ert
Ġsala d
K aya
Ġmin ah
Ġmo isturizer
Ġterb ayang
Sem inggu
ĠMes ki
ĠHahah ah
Ġh eng
ĠM awar
Ġaku u
Ġdit emani
Ġmel ompat
Ġpel indung
Ġbuk ber
Ġmenghar amkan
m aka
ĠP intar
Ġberk eb
Ġaw ard
Ġdem okrat
Ġpenj imatan
ĠAnd alus
ĠSup port
T L
ĠS iv
Ġw elfare
ĠOne Health
Ġ ajah
10 5
Ġinv ite
Ġbelief s
ĠC ARI
Ġdic intai
ĠSal eh
Ġmom my
INGG U
Ġdi ga
ĠG una
emp ah
Ġbert udung
ĠMas k
Ġocc up
ĠH O
aa ah
Ġdep artment
ĠGood luck
ĠSleep wear
Ġker opok
ump un
Ġsya wal
j anji
ĠL ANCAR
ub an
Str ess
ĠPolit ics
D uduk
K PK
er ce
ĠK eg
ĠR awatan
ĠG eo
Ġim per
oth es
Ġmenak utkan
ibil iti
Ġb andingkan
ĠO bat
Ġpem angkin
V ER
es tic
Ġmeng guna
ĠY akin
Ġdib eritahu
N et
o an
angk asa
Ġmis ahin
IH AN
Ġcommun ities
ĠPenc ipta
Ġbil is
Ġcok elat
ĠG E
AB LE
ĠDI G
engg ang
ĠImp ian
mel ihat
r uddin
w ig
ak aman
Ġn enas
ĠG ali
Ġback up
Ġcl osed
Ġsw t
elut ong
ĠRela tions
I AH
Ġdi ungk
Ġj ib
Ġprogram me
13 47
fllfll fllfll
enggelam kan
Ġper asmian
Ġsem alem
Ġplay ers
Ġj eli
Ġw est
Ġput ar
Ġcal ori
Ġkakak nya
Ġcompet ition
C uri
it ely
Ġn abung
Ġper tiga
Ġpeng gabungan
Ġal ik
Ġ08 21
ĠPERS IDANGAN
f oli
ĠD uduk
ĠC ode
ind ra
Ġket ahanan
Ġsp ontan
ĠMah al
Ġpla in
Ġlim au
ĠGar am
H ab
Ġk unjung
Ġkonsep tual
Ġwork out
ĠJer awat
ĠAnd re
Ġpro ud
Ġdis emak
alat in
Ġcir cle
ĠRh one
ĠOneHealth KIPM
ĠS UB
Ġj amaah
Ġmem uatkan
ĠN IK
ub alan
Ġberla gak
Ġlat te
Ġteg ak
Ġkompet itif
Ġriz ab
tak ut
low er
Ġtek ad
0 40
Ġker ang
Ġch ief
Ġye a
ĠSAR AWAK
Ġjuga a
ingk ir
ĠX X
ĠMor ning
ĠKul on
ĠS empor
Ġr ose
Ġper ibahasa
Ġpen agih
ĠBel gium
kit ek
T afsir
p ang
ad es
it ator
ĠA A
Ġni lah
Ġan e
mas ikan
Ġko yo
Ġkr ed
Ġcr epe
Ġlingk aran
Educ ational
Z Z
Ġk aa
ĠR ETWEET
ĠL P
Seb arang
Ġdok trin
gug uran
li ament
Ġmengh al
ĠRep ublic
Ak ak
Ġkut u
ITI ON
Sk rg
ĠM ee
ĠK ari
Ġpen yu
EL I
Ġdijadual kan
Ġr ail
ĠEt ika
C ING
p ark
p ower
Ġber api
ĠA xiata
Ġl antang
eg el
Ġng in
w anan
on et
ĠG olongan
IT IK
Ġhal u
ĠBuk ti
Ġvi ol
ĠFak ta
Ġp ari
as tern
is tilah
Ġmem ihak
ĠD un
ud arkan
Ġmemb azir
Ġpenyebab nya
inst all
s ab
ĠK otak
Ġng etik
Ġkeb anggaan
Ġtemen in
inet ron
sib ei
ĠK ATA
Ġf u
Ġcap aian
002000 64
Ġsil ver
0072 006
en ye
ĠT k
min um
ON I
Ġstr oller
Ġsy n
ĠMenj aga
Ġh ack
Ġr oy
ID E
tur ed
istr ict
Ġs had
Ġn usantara
ĠM iddle
elang i
Ġmy din
Ġrek abentuk
Ġpresent ation
Ġmendek atkan
Ġorganiz ations
00200041 0064006
Ġberket urunan
on kan
ĠR P
Ġberg urau
Ng ga
ĠStat ut
n aik
en ia
per aturan
Ġya y
Ġket ik
Ġmel intas
RI END
ĠAss essment
Ġprint ing
Ġdani el
Ġconvers ation
Ġs mile
Ġl n
ic hi
si ght
Ġbi oskop
Ġpet ak
Ed isi
id ih
tamad kan
K eter
Ġber ukuran
Ġberk ec
Ġberk orban
ĠAUTOM ATIK
Ġm imp
ib uran
ĠThe y
ĠSer vices
aren akan
Ġpor no
p ri
ut uk
Ġl y
st ual
Ġberp esan
Ġkont emporari
AC H
ĠMes ra
Pend apat
EMBERITAH U
Ġram alan
ĠPr as
l eng
Ġs uan
put ih
Buk it
ĠP ast
ĠB angsar
Ġkep utihan
Ġtamp an
Ġadv ant
ĠK D
Ġket imbang
Ġins yaallah
Ġtep uk
Ġcustom ers
Ġkeg embiraan
ĠH end
Ġbers ahabat
mas in
Ġberada b
ĠBut uh
Ġw ira
ĠD ri
Ġat m
Ġmas am
Ġdik eb
Ġjadi in
eks port
enj un
Ġscreen shot
ativ ity
F irman
ing nya
ĠM uara
om ent
ĠH aj
Ġton ight
M ending
R ob
Ġ11 2
Ġbegitu lah
ĠTab uran
ĠS OP
Ġmem ujuk
Ġmenj imatkan
Ġberb alik
ET A
Ġthrough out
B osan
ĠS apa
Ġg ov
ib ar
OL D
Ġsc an
ĠB ra
Ġhukum nya
Ġbg st
M ai
Ġper intis
ĠBat alion
Ġwrit er
ujur nya
Ġjep un
S ATU
c as
Ġkes adaran
Ġberj emaah
A ah
an o
st abil
imp un
ĠAn a
omb ia
ĠKet upat
ĠAmin ah
ðŁ ĺ
ĠPUL SA
Pi ala
d im
Ġt ombol
ĠM empunyai
ood ie
Ġkons esi
RE EN
Ġfin ance
: (
p okok
Ġpun ye
Ġeh hh
Ġtemen an
r um
ing ers
[...]
