{
  "version": "1.0",
  "truncation": {
    "direction": "Right",
    "max_length": 128,
    "strategy": "LongestFirst",
    "stride": 0
  },
  "padding": {
    "strategy": {
      "Fixed": 128
    },
    "direction": "Right",
    "pad_to_multiple_of": null,
    "pad_id": 1,
    "pad_type_id": 0,
    "pad_token": "<pad>"
  },
  "added_tokens": [
    {
      "id": 0,
      "content": "<s>",
      "single_word": false,
      "lstrip": false,
      "rstrip": false,
      "normalized": true,
      "special": true
    },
    {
      "id": 1,
      "content": "<pad>",
      "single_word": false,
      "lstrip": false,
      "rstrip": false,
      "normalized": true,
      "special": true
    },
    {
      "id": 2,
      "content": "</s>",
      "single_word": false,
      "lstrip": false,
      "rstrip": false,
      "normalized": true,
      "special": true
    },
    {
      "id": 3,
      "content": "<unk>",
      "single_word": false,
      "lstrip": false,
      "rstrip": false,
      "normalized": true,
      "special": true
    },
    {
      "id": 4,
      "content": "<mask>",
      "single_word": false,
      "lstrip": true,
      "rstrip": false,
      "normalized": true,
      "special": true
    }
  ],
  "normalizer": null,
  "pre_tokenizer": {
    "type": "ByteLevel",
    "add_prefix_space": false,
    "trim_offsets": true,
    "use_regex": true
  },
  "post_processor": {
    "type": "RobertaProcessing",
    "sep": [
      "</s>",
      2
    ],
    "cls": [
      "<s>",
      0
    ],
    "trim_offsets": true,
    "add_prefix_space": false
  },
  "decoder": {
    "type": "ByteLevel",
    "add_prefix_space": true,
    "trim_offsets": true,
    "use_regex": true
  },
  "model": {
    "type": "BPE",
    "dropout": null,
    "unk_token": null,
    "continuing_subword_prefix": "",
    "end_of_word_suffix": "",
    "fuse_unk": false,
    "byte_fallback": false,
    "ignore_merges": false,
    "vocab": {
      "<s>": 0,
      "<pad>": 1,
      "</s>": 2,
      "<unk>": 3,
      "<mask>": 4,
      "!": 5,
      "\"": 6,
      "#": 7,
      "$": 8,
      "%": 9,
      "&": 10,
      "'": 11,
      "(": 12,
      ")": 13,
      "*": 14,
      "+": 15,
      ",": 16,
      "-": 17,
      ".": 18,
      "/": 19,
      "0": 20,
      "1": 21,
      "2": 22,
      "3": 23,
      "4": 24,
      "5": 25,
      "6": 26,
      "7": 27,
      "8": 28,
      "9": 29,
      ":": 30,
      ";": 31,
      "<": 32,
      "=": 33,
      ">": 34,
      "?": 35,
      "@": 36,
      "A": 37,
      "B": 38,
      "C": 39,
      "D": 40,
      "E": 41,
      "F": 42,
      "G": 43,
      "H": 44,
      "I": 45,
      "J": 46,
      "K": 47,
      "L": 48,
      "M": 49,
      "N": 50,
      "O": 51,
      "P": 52,
      "Q": 53,
      "R": 54,
      "S": 55,
      "T": 56,
      "U": 57,
      "V": 58,
      "W": 59,
      "X": 60,
      "Y": 61,
      "Z": 62,
      "[": 63,
      "\\": 64,
      "]": 65,
      "^": 66,
      "_": 67,
      "`": 68,
      "a": 69,
      "b": 70,
      "c": 71,
      "d": 72,
      "e": 73,
      "f": 74,
      "g": 75,
      "h": 76,
      "i": 77,
      "j": 78,
      "k": 79,
      "l": 80,
      "m": 81,
      "n": 82,
      "o": 83,
      "p": 84,
      "q": 85,
      "r": 86,
      "s": 87,
      "t": 88,
      "u": 89,
      "v": 90,
      "w": 91,
      "x": 92,
      "y": 93,
      "z": 94,
      "{": 95,
      "|": 96,
      "}": 97,
      "~": 98,
      "¡": 99,
      "¢": 100,
      "£": 101,
      "¤": 102,
      "¥": 103,
      "¦": 104,
      "§": 105,
      "¨": 106,
      "©": 107,
      "ª": 108,
      "«": 109,
      "¬": 110,
      "®": 111,
      "¯": 112,
      "°": 113,
      "±": 114,
      "²": 115,
      "³": 116,
      "´": 117,
      "µ": 118,
      "¶": 119,
      "·": 120,
      "¸": 121,
      "¹": 122,
      "º": 123,
      "»": 124,
      "¼": 125,
      "½": 126,
      "¾": 127,
      "¿": 128,
      "À": 129,
      "Á": 130,
      "Â": 131,
      "Ã": 132,
      "Ä": 133,
      "Å": 134,
      "Æ": 135,
      "Ç": 136,
      "È": 137,
      "É": 138,
      "Ê": 139,
      "Ë": 140,
      "Ì": 141,
      "Í": 142,
      "Î": 143,
      "Ï": 144,
      "Ð": 145,
      "Ñ": 146,
      "Ò": 147,
      "Ó": 148,
      "Ô": 149,
      "Õ": 150,
      "Ö": 151,
      "×": 152,
      "Ø": 153,
      "Ù": 154,
      "Ú": 155,
      "Û": 156,
      "Ü": 157,
      "Ý": 158,
      "Þ": 159,
      "ß": 160,
      "à": 161,
      "á": 162,
      "â": 163,
      "ã": 164,
      "ä": 165,
      "å": 166,
      "æ": 167,
      "ç": 168,
      "è": 169,
      "é": 170,
      "ê": 171,
      "ë": 172,
      "ì": 173,
      "í": 174,
      "î": 175,
      "ï": 176,
      "ð": 177,
      "ñ": 178,
      "ò": 179,
      "ó": 180,
      "ô": 181,
      "õ": 182,
      "ö": 183,
      "÷": 184,
      "ø": 185,
      "ù": 186,
      "ú": 187,
      "û": 188,
      "ü": 189,
      "ý": 190,
      "þ": 191,
      "ÿ": 192,
      "Ā": 193,
      "ā": 194,
      "Ă": 195,
      "ă": 196,
      "Ą": 197,
      "ą": 198,
      "Ć": 199,
      "ć": 200,
      "Ĉ": 201,
      "ĉ": 202,
      "Ċ": 203,
      "ċ": 204,
      "Č": 205,
      "č": 206,
      "Ď": 207,
      "ď": 208,
      "Đ": 209,
      "đ": 210,
      "Ē": 211,
      "ē": 212,
      "Ĕ": 213,
      "ĕ": 214,
      "Ė": 215,
      "ė": 216,
      "Ę": 217,
      "ę": 218,
      "Ě": 219,
      "ě": 220,
      "Ĝ": 221,
      "ĝ": 222,
      "Ğ": 223,
      "ğ": 224,
      "Ġ": 225,
      "ġ": 226,
      "Ģ": 227,
      "ģ": 228,
      "Ĥ": 229,
      "ĥ": 230,
      "Ħ": 231,
      "ħ": 232,
      "Ĩ": 233,
      "ĩ": 234,
      "Ī": 235,
      "ī": 236,
      "Ĭ": 237,
      "ĭ": 238,
      "Į": 239,
      "į": 240,
      "İ": 241,
      "ı": 242,
      "Ĳ": 243,
      "ĳ": 244,
      "Ĵ": 245,
      "ĵ": 246,
      "Ķ": 247,
      "ķ": 248,
      "ĸ": 249,
      "Ĺ": 250,
      "ĺ": 251,
      "Ļ": 252,
      "ļ": 253,
      "Ľ": 254,
      "ľ": 255,
      "Ŀ": 256,
      "ŀ": 257,
      "Ł": 258,
      "ł": 259,
      "Ń": 260,
      "an": 261,
      "er": 262,
      "Ġd": 263,
      "en": 264,
      "la": 265,
      "Ġm": 266,
      "Ġs": 267,
      "ak": 268,
      "Ġt": 269,
      "Ġk": 270,
      "Ġb": 271,
      "ar": 272,
      "at": 273,
      "in": 274,
      "ang": 275,
      "Ġp": 276,
      "ah": 277,
      "Ġ.": 278,
      "as": 279,
      "un": 280,
      "em": 281,
      "am": 282,
      "al": 283,
      "ad": 284,
      "Ġdi": 285,
      "Ġ,": 286,
      "ya": 287,
      "it": 288,
      "ik": 289,
      "ap": 290,
      "Ġse": 291,
      "eng": 292,
      "uk": 293,
      "ala": 294,
      "Ġy": 295,
      "on": 296,
      "Ġn": 297,
      "is": 298,
      "Ġke": 299,
      "or": 300,
      "ur": 301,
      "Ġh": 302,
      "le": 303,
      "Ġyang": 304,
      "ĠS": 305,
      "ing": 306,
      "Ġdan": 307,
      "us": 308,
      "Ġj": 309,
      "es": 310,
      "ĠM": 311,
      "ĠP": 312,
      "kan": 313,
      "Ġber": 314,
      "ut": 315,
      "el": 316,
      "ĠA": 317,
      "Ġc": 318,
      "ga": 319,
      "ĠK": 320,
      "ir": 321,
      "Ġr": 322,
      "um": 323,
      "id": 324,
      "ada": 325,
      "Ġmen": 326,
      "il": 327,
      "ia": 328,
      "ela": 329,
      "Ġin": 330,
      "Ġla": 331,
      "ek": 332,
      "ĠB": 333,
      "Ġak": 334,
      "ul": 335,
      "et": 336,
      "Ġper": 337,
      "ĠT": 338,
      "gi": 339,
      "ih": 340,
      "Ġter": 341,
      "ab": 342,
      "im": 343,
      "ari": 344,
      "Ġg": 345,
      "Ġw": 346,
      "ti": 347,
      "aj": 348,
      "Ġmem": 349,
      "Ġ#": 350,
      "Ġl": 351,
      "and": 352,
      "aw": 353,
      "Ġth": 354,
      "Ġo": 355,
      "ed": 356,
      "nya": 357,
      "akan": 358,
      "alam": 359,
      "au": 360,
      "ĠI": 361,
      "ĠD": 362,
      "ent": 363,
      "ara": 364,
      "ai": 365,
      "ung": 366,
      "ud": 367,
      "om": 368,
      "Ġf": 369,
      "up": 370,
      "Ġ(": 371,
      "Ġmeng": 372,
      "Ġaku": 373,
      "ok": 374,
      "Ġun": 375,
      "Ġ1": 376,
      "engan": 377,
      "ol": 378,
      "ĠR": 379,
      "Ġa": 380,
      "uh": 381,
      "lah": 382,
      "Ġ2": 383,
      "tuk": 384,
      "Ġ:": 385,
      "aya": 386,
      "eb": 387,
      "end": 388,
      "Ġseb": 389,
      "ama": 390,
      "Ġini": 391,
      "ant": 392,
      "Ġdengan": 393,
      "alah": 394,
      "asa": 395,
      "itu": 396,
      "ĠJ": 397,
      "angan": 398,
      "leh": 399,
      "Ġ)": 400,
      "Ġdalam": 401,
      "ĠH": 402,
      "ian": 403,
      "os": 404,
      "Ġthe": 405,
      "Ġuntuk": 406,
      "ot": 407,
      "ay": 408,
      "amp": 409,
      "ĠL": 410,
      "eg": 411,
      "ep": 412,
      "emb": 413,
      "ikan": 414,
      "ac": 415,
      "Ġmer": 416,
      "ana": 417,
      "Ġ?": 418,
      "ĠC": 419,
      "ĠN": 420,
      "orang": 421,
      "atan": 422,
      "00": 423,
      "ua": 424,
      "Ġdari": 425,
      "Ġtak": 426,
      "aan": 427,
      "lu": 428,
      "ati": 429,
      "AN": 430,
      "apa": 431,
      "Ġni": 432,
      "asi": 433,
      "ro": 434,
      "ong": 435,
      "Ġle": 436,
      "per": 437,
      "adi": 438,
      "Ġat": 439,
      "anya": 440,
      "ku": 441,
      "aga": 442,
      "Ġmemb": 443,
      "pada": 444,
      "Ġ\"": 445,
      "uat": 446,
      "ta": 447,
      "ukan": 448,
      "Ġitu": 449,
      "ub": 450,
      "ita": 451,
      "ib": 452,
      "Ġmas": 453,
      "Ġsem": 454,
      "ic": 455,
      "Ġtid": 456,
      "Ġker": 457,
      "ter": 458,
      "Ġand": 459,
      "agi": 460,
      "Ġpen": 461,
      "Ġada": 462,
      "Ġ-": 463,
      "ula": 464,
      "Ġad": 465,
      "si": 466,
      "Ġof": 467,
      "ĠG": 468,
      "uan": 469,
      "oh": 470,
      "amb": 471,
      "ri": 472,
      "Ġto": 473,
      "Ġpeng": 474,
      "Ġju": 475,
      "lam": 476,
      "aran": 477,
      "od": 478,
      "Ġtidak": 479,
      "ĠU": 480,
      "api": 481,
      "ata": 482,
      "Ġdia": 483,
      "eri": 484,
      "Ġpada": 485,
      "Ġtah": 486,
      "elah": 487,
      "Ġyg": 488,
      "apat": 489,
      "Ġsek": 490,
      "emp": 491,
      "ec": 492,
      "Ġnak": 493,
      "ali": 494,
      "alan": 495,
      "Ġ!": 496,
      "eh": 497,
      "Ġtu": 498,
      "Ġis": 499,
      "Ġorang": 500,
      "oleh": 501,
      "ĠF": 502,
      "ag": 503,
      "Ġal": 504,
      "ow": 505,
      "Ġi": 506,
      "yak": 507,
      "ys": 508,
      "ĠW": 509,
      "ila": 510,
      "Ġakan": 511,
      "ĠPer": 512,
      "ĠE": 513,
      "Ġan": 514,
      "ahan": 515,
      "Ġkepada": 516,
      "eka": 517,
      "Ġst": 518,
      "atu": 519,
      "01": 520,
      "Ġjuga": 521,
      "ĠIn": 522,
      "aja": 523,
      "agai": 524,
      "iti": 525,
      "Ġmenj": 526,
      "Ġas": 527,
      "op": 528,
      "Ġpun": 529,
      "Ġadalah": 530,
      "Ġmeny": 531,
      "ĠY": 532,
      "Ġe": 533,
      "Ġlagi": 534,
      "Ġbah": 535,
      "iri": 536,
      "Ġ/": 537,
      "aik": 538,
      "Ġatau": 539,
      "ers": 540,
      "ĠIs": 541,
      "Ġ3": 542,
      "Ġkam": 543,
      "ind": 544,
      "uj": 545,
      "Ġoleh": 546,
      "angk": 547,
      "ĠO": 548,
      "af": 549,
      "ew": 550,
      "Ġkita": 551,
      "udah": 552,
      "ain": 553,
      "alays": 554,
      "uc": 555,
      "anj": 556,
      "Ġbel": 557,
      "ini": 558,
      "ĠAl": 559,
      "bih": 560,
      "re": 561,
      "ip": 562,
      "Ġkes": 563,
      "ump": 564,
      "Ġberk": 565,
      "elaj": 566,
      "alaysia": 567,
      "Ġboleh": 568,
      "Ġmereka": 569,
      "Ġdah": 570,
      "Ġtelah": 571,
      "angg": 572,
      "ena": 573,
      "aru": 574,
      "Ġser": 575,
      "Ġmak": 576,
      "alau": 577,
      "Ġbagi": 578,
      "Ġv": 579,
      "st": 580,
      "Ġpr": 581,
      "ika": 582,
      "ER": 583,
      "tu": 584,
      "uka": 585,
      "uah": 586,
      "Ġtahun": 587,
      "Ġ201": 588,
      "Ġsi": 589,
      "ja": 590,
      "Ġdib": 591,
      "Ġpas": 592,
      "Ġpro": 593,
      "ve": 594,
      "Ġkem": 595,
      "aha": 596,
      "Ġneg": 597,
      "ĠMalaysia": 598,
      "Ġlebih": 599,
      "Ġor": 600,
      "Ġhar": 601,
      "Ġbuat": 602,
      "he": 603,
      "Ġya": 604,
      "Ġdis": 605,
      "AH": 606,
      "angs": 607,
      "ation": 608,
      "anyak": 609,
      "ĠIslam": 610,
      "Ġsaya": 611,
      "ni": 612,
      "Ġbers": 613,
      "Ġpem": 614,
      "gun": 615,
      "Ġsebagai": 616,
      "anc": 617,
      "Ġlah": 618,
      "Ġmela": 619,
      "Ġar": 620,
      "isa": 621,
      "anan": 622,
      "tak": 623,
      "lak": 624,
      "Ġapa": 625,
      "yar": 626,
      "Ġsatu": 627,
      "awa": 628,
      "Ġsama": 629,
      "Ġga": 630,
      "Ġpemb": 631,
      "asan": 632,
      "Ġng": 633,
      "ly": 634,
      "imp": 635,
      "Ġje": 636,
      "ob": 637,
      "Ġon": 638,
      "aman": 639,
      "Ġdapat": 640,
      "ist": 641,
      "ingg": 642,
      "ont": 643,
      "Ġlain": 644,
      "Ġmin": 645,
      "Ġ'": 646,
      "Ġ19": 647,
      "arkan": 648,
      "aa": 649,
      "est": 650,
      "Ġ4": 651,
      "Ġhari": 652,
      "Ġ&": 653,
      "ingk": 654,
      "li": 655,
      "Ġsed": 656,
      "Ġsemua": 657,
      "gh": 658,
      "arang": 659,
      "Ġdik": 660,
      "Ġpak": 661,
      "iran": 662,
      "Ġpend": 663,
      "ele": 664,
      "AR": 665,
      "upakan": 666,
      "Ġman": 667,
      "Ġso": 668,
      "Ġmend": 669,
      "Ġia": 670,
      "Ġtapi": 671,
      "Ġ5": 672,
      "Ġag": 673,
      "Ġ;": 674,
      "Ġters": 675,
      "Ġdaripada": 676,
      "pas": 677,
      "da": 678,
      "Ġkeb": 679,
      "ej": 680,
      "yat": 681,
      "ulan": 682,
      "AT": 683,
      "ons": 684,
      "Ġket": 685,
      "Ġmerupakan": 686,
      "Ġkau": 687,
      "ma": 688,
      "Ġfor": 689,
      "olah": 690,
      "umah": 691,
      "inya": 692,
      "Ġkal": 693,
      "had": 694,
      "int": 695,
      "angat": 696,
      "Ġsamp": 697,
      "gn": 698,
      "Ġses": 699,
      "ch": 700,
      "Ġmakan": 701,
      "ebut": 702,
      "elajar": 703,
      "Ġtr": 704,
      "Ġseper": 705,
      "Ġap": 706,
      "unya": 707,
      "Ġjadi": 708,
      "Ġdit": 709,
      "enc": 710,
      "pa": 711,
      "EN": 712,
      "Ġbi": 713,
      "Ġbukan": 714,
      "IN": 715,
      "Ġseperti": 716,
      "ust": 717,
      "idup": 718,
      "gr": 719,
      "ĠAn": 720,
      "ulu": 721,
      "Ġbisa": 722,
      "atkan": 723,
      "Ġmel": 724,
      "isi": 725,
      "uran": 726,
      "ina": 727,
      "Ġkamu": 728,
      "Ġmenjadi": 729,
      "AL": 730,
      "Ġwh": 731,
      "Ġsec": 732,
      "yah": 733,
      "Ġre": 734,
      "Ġbaru": 735,
      "angkan": 736,
      "uhan": 737,
      "nah": 738,
      "Ġberb": 739,
      "ima": 740,
      "Ġmana": 741,
      "AK": 742,
      "Ġbanyak": 743,
      "Aku": 744,
      "ĠInd": 745,
      "Ġnegara": 746,
      "Ġpert": 747,
      "ver": 748,
      "Ġanak": 749,
      "Ġbe": 750,
      "AS": 751,
      "ou": 752,
      "arga": 753,
      "Ġsebuah": 754,
      "th": 755,
      "Ġkaw": 756,
      "apan": 757,
      "Ġsh": 758,
      "Ġku": 759,
      "Ġkat": 760,
      "umb": 761,
      "elak": 762,
      "ajaan": 763,
      "na": 764,
      "ungan": 765,
      "yu": 766,
      "idikan": 767,
      "iau": 768,
      "Ġmenc": 769,
      "hir": 770,
      "ihat": 771,
      "ahah": 772,
      "gu": 773,
      "acam": 774,
      "Ġkec": 775,
      "Ġkan": 776,
      "arah": 777,
      "wa": 778,
      "Ġkar": 779,
      "Ġterb": 780,
      "Ġrumah": 781,
      "Ġbaik": 782,
      "Ġaw": 783,
      "gunakan": 784,
      "oc": 785,
      "Ġkalau": 786,
      "Ġperk": 787,
      "uru": 788,
      "Ġpel": 789,
      "und": 790,
      "Ġus": 791,
      "Ġch": 792,
      "Ġbert": 793,
      "Ġsend": 794,
      "ess": 795,
      "AM": 796,
      "ee": 797,
      "Ġmau": 798,
      "ikut": 799,
      "usan": 800,
      "Ġkep": 801,
      "art": 802,
      "Ġ200": 803,
      "Ġsen": 804,
      "man": 805,
      "Ġant": 806,
      "Ġut": 807,
      "omp": 808,
      "ial": 809,
      "Ġ).": 810,
      "Ġtemp": 811,
      "og": 812,
      "Ġmasa": 813,
      "esar": 814,
      "alik": 815,
      "urut": 816,
      "Ġked": 817,
      "ambil": 818,
      "Ġsecara": 819,
      "Ġtersebut": 820,
      "ual": 821,
      "angun": 822,
      "ingga": 823,
      "akat": 824,
      "ĠTer": 825,
      "Ġthat": 826,
      "kin": 827,
      "Ġmasih": 828,
      "Ġtet": 829,
      "ones": 830,
      "if": 831,
      "ĠAllah": 832,
      "Ġset": 833,
      "Ġaja": 834,
      "Ġit": 835,
      "ANG": 836,
      "Ġtan": 837,
      "mas": 838,
      "ajian": 839,
      "Ġbeb": 840,
      "Ġab": 841,
      "era": 842,
      "ilik": 843,
      "Ġpula": 844,
      "Ġken": 845,
      "Ġ6": 846,
      "Ġhanya": 847,
      "Ġsela": 848,
      "ill": 849,
      "ith": 850,
      "Ġsudah": 851,
      "ond": 852,
      "orm": 853,
      "ilih": 854,
      "asil": 855,
      "hh": 856,
      "ami": 857,
      "sa": 858,
      "ate": 859,
      "san": 860,
      "asih": 861,
      "Ġsangat": 862,
      "ore": 863,
      "ort": 864,
      "onesia": 865,
      "Ġsendiri": 866,
      "Ġkena": 867,
      "mu": 868,
      "ĠV": 869,
      "Ġam": 870,
      "Ġmemp": 871,
      "ĠAb": 872,
      "tan": 873,
      "anti": 874,
      "ity": 875,
      "usia": 876,
      "erah": 877,
      "onal": 878,
      "iz": 879,
      "Ġkelu": 880,
      "Ġkerana": 881,
      "ue": 882,
      "Ġmacam": 883,
      "Ġind": 884,
      "Ġseh": 885,
      "Ġperlu": 886,
      "Ġpers": 887,
      "aat": 888,
      "aling": 889,
      "elum": 890,
      "Ġkami": 891,
      "Ġkur": 892,
      "ĠBer": 893,
      "our": 894,
      "Ġdip": 895,
      "ra": 896,
      "Ġatas": 897,
      "olong": 898,
      "Ġgi": 899,
      "Ġialah": 900,
      "Ġsej": 901,
      "ĠSh": 902,
      "ement": 903,
      "Ġnya": 904,
      "Ġkerja": 905,
      "Per": 906,
      "ide": 907,
      "inggi": 908,
      "Ġ*": 909,
      "Ġteng": 910,
      "Ġ7": 911,
      "Ġka": 912,
      "ss": 913,
      "Ġmah": 914,
      "000": 915,
      "tor": 916,
      "Ġpol": 917,
      "ĠCh": 918,
      "Ġmengh": 919,
      "imb": 920,
      "dul": 921,
      "Ġtent": 922,
      "Ġsampai": 923,
      "ota": 924,
      "Ġterus": 925,
      "ast": 926,
      "Ġserta": 927,
      "uang": 928,
      "uala": 929,
      "Ġ0": 930,
      "gan": 931,
      "Ġrasa": 932,
      "uar": 933,
      "hadap": 934,
      "iv": 935,
      "ans": 936,
      "Ġres": 937,
      "ĠRM": 938,
      "Ġme": 939,
      "ff": 940,
      "Ġsep": 941,
      "ĠPeng": 942,
      "amai": 943,
      "Ġpernah": 944,
      "gram": 945,
      "az": 946,
      "Ġti": 947,
      "Ġbet": 948,
      "Ġpelajar": 949,
      "Ġsah": 950,
      "Ġpeny": 951,
      "aku": 952,
      "Ġtau": 953,
      "erapa": 954,
      "lim": 955,
      "tif": 956,
      "ere": 957,
      "Ġhidup": 958,
      "ĠMela": 959,
      "utan": 960,
      "ĠAku": 961,
      "antu": 962,
      "Ġdiri": 963,
      "unj": 964,
      "ĠPen": 965,
      "enting": 966,
      "tion": 967,
      "ĠZ": 968,
      "min": 969,
      "Ġbaw": 970,
      "mat": 971,
      "Ġsebab": 972,
      "usi": 973,
      "Ġbahawa": 974,
      "Ġdo": 975,
      "yarakat": 976,
      "ood": 977,
      "olo": 978,
      "Ġterle": 979,
      "Ġair": 980,
      "Ġantara": 981,
      "Ġsekolah": 982,
      "Ġkata": 983,
      "ĠPr": 984,
      "Ġsel": 985,
      "Ġberd": 986,
      "Ġex": 987,
      "ard": 988,
      "uruh": 989,
      "Ġx": 990,
      "unt": 991,
      "Ġkh": 992,
      "ng": 993,
      "Ġterhadap": 994,
      "Ġkom": 995,
      "alkan": 996,
      "ani": 997,
      "Ġsp": 998,
      "tiv": 999,
      "Ġing": 1000,
      "ine": 1001,
      "IS": 1002,
      "unia": 1003,
      "Ġsay": 1004,
      "Ġdiper": 1005,
      "Ġsalah": 1006,
      "ekat": 1007,
      "Ġum": 1008,
      "kw": 1009,
      "ii": 1010,
      "Ġz": 1011,
      "ĠMelayu": 1012,
      "Ġac": 1013,
      "Ġ),": 1014,
      "one": 1015,
      "Ġsele": 1016,
      "Ġmur": 1017,
      "inc": 1018,
      "Ġib": 1019,
      "Ġiaitu": 1020,
      "enar": 1021,
      "ulis": 1022,
      "unyai": 1023,
      "akyat": 1024,
      "Ġhati": 1025,
      "Ġbeli": 1026,
      "Ġdulu": 1027,
      "Ġek": 1028,
      "Ġberj": 1029,
      "EL": 1030,
      "aju": 1031,
      "Ġdua": 1032,
      "ira": 1033,
      "atang": 1034,
      "aca": 1035,
      "akar": 1036,
      "Ġkak": 1037,
      "all": 1038,
      "cm": 1039,
      "aian": 1040,
      "Ġterd": 1041,
      "Ġsu": 1042,
      "ĠKer": 1043,
      "lui": 1044,
      "ĠIndonesia": 1045,
      "Ġmempunyai": 1046,
      "edah": 1047,
      "Ġ10": 1048,
      "edia": 1049,
      "ost": 1050,
      "Ġte": 1051,
      "Ġseorang": 1052,
      "ebab": 1053,
      "uatu": 1054,
      "elas": 1055,
      "Ġwith": 1056,
      "Ġbeliau": 1057,
      "Ġgak": 1058,
      "ov": 1059,
      "EM": 1060,
      "ihak": 1061,
      "ha": 1062,
      "Ġberp": 1063,
      "Ġmasalah": 1064,
      "Ġfr": 1065,
      "Ġnot": 1066,
      "ĠNeg": 1067,
      "Ġah": 1068,
      "Ġsuka": 1069,
      "Ġbalik": 1070,
      "Ġyou": 1071,
      "mp": 1072,
      "adan": 1073,
      "Ġtahu": 1074,
      "Ġdij": 1075,
      "ON": 1076,
      "Ġkerajaan": 1077,
      "Ġtim": 1078,
      "Ġare": 1079,
      "ght": 1080,
      "atanya": 1081,
      "UN": 1082,
      "lis": 1083,
      "lat": 1084,
      "ĠSt": 1085,
      "Ġbeberapa": 1086,
      "elajaran": 1087,
      "ikat": 1088,
      "Ġbesar": 1089,
      "Ġbang": 1090,
      "ĠAs": 1091,
      "Ġsebelum": 1092,
      "Ġmemper": 1093,
      "any": 1094,
      "Ġseg": 1095,
      "der": 1096,
      "Ġ8": 1097,
      "Ġmasuk": 1098,
      "Ġha": 1099,
      "ment": 1100,
      "Al": 1101,
      "mad": 1102,
      "uku": 1103,
      "Ġny": 1104,
      "Ġmasyarakat": 1105,
      "20": 1106,
      "entuk": 1107,
      "Ġberh": 1108,
      "ank": 1109,
      "ilang": 1110,
      "Ġterletak": 1111,
      "onom": 1112,
      "Ġcer": 1113,
      "gak": 1114,
      "ĠAr": 1115,
      "Ġkali": 1116,
      "tiap": 1117,
      "Ġ9": 1118,
      "eker": 1119,
      "Ġpar": 1120,
      "ologi": 1121,
      "Ġdir": 1122,
      "ungkin": 1123,
      "Ġsk": 1124,
      "Ġtem": 1125,
      "itik": 1126,
      "Ġen": 1127,
      "ear": 1128,
      "Ġmanusia": 1129,
      "AP": 1130,
      "Ġdgn": 1131,
      "Ġsetiap": 1132,
      "Ġ20": 1133,
      "mm": 1134,
      "arat": 1135,
      "pr": 1136,
      "Ġperb": 1137,
      "elang": 1138,
      "agian": 1139,
      "oo": 1140,
      "Ġkej": 1141,
      "angsa": 1142,
      "Ġ%": 1143,
      "eli": 1144,
      "In": 1145,
      "engk": 1146,
      "Ġbila": 1147,
      "uit": 1148,
      "Ġsup": 1149,
      "ach": 1150,
      "Ġem": 1151,
      "Ġsik": 1152,
      "Ġsekali": 1153,
      "Ġdep": 1154,
      "IT": 1155,
      "Ġkek": 1156,
      "av": 1157,
      "Ġjalan": 1158,
      "Ġbersama": 1159,
      "Ġtempat": 1160,
      "Ġtidur": 1161,
      "low": 1162,
      "ingan": 1163,
      "Ġmener": 1164,
      "Ġwak": 1165,
      "Ġde": 1166,
      "ike": 1167,
      "Ġmelalui": 1168,
      "ij": 1169,
      "Ġkawasan": 1170,
      "Ġmelak": 1171,
      "Ġ2019": 1172,
      "gt": 1173,
      "ge": 1174,
      "itan": 1175,
      "inan": 1176,
      "Ġmembuat": 1177,
      "uman": 1178,
      "ingkat": 1179,
      "YA": 1180,
      "ous": 1181,
      "awab": 1182,
      "Ġlalu": 1183,
      "Ġhad": 1184,
      "Ġbut": 1185,
      "ener": 1186,
      "The": 1187,
      "Ġpihak": 1188,
      "ĠSek": 1189,
      "Ġpe": 1190,
      "ĠSem": 1191,
      "jek": 1192,
      "Ġkela": 1193,
      "Ġhal": 1194,
      "Ġkul": 1195,
      "Ġjam": 1196,
      "ĠPro": 1197,
      "Ġmenggunakan": 1198,
      "Ġmes": 1199,
      "Ġsekarang": 1200,
      "Ġberm": 1201,
      "Ġjangan": 1202,
      "ome": 1203,
      "ham": 1204,
      "Ter": 1205,
      "Ġdekat": 1206,
      "unc": 1207,
      "uma": 1208,
      "Ġda": 1209,
      "amun": 1210,
      "ĠKuala": 1211,
      "Ġlama": 1212,
      "uduk": 1213,
      "inta": 1214,
      "angsung": 1215,
      "Ġkanan": 1216,
      "Ġpunya": 1217,
      "Ġorg": 1218,
      "eta": 1219,
      "Ġkalo": 1220,
      "Ġbo": 1221,
      "omb": 1222,
      "ampung": 1223,
      "Ġketika": 1224,
      "Ġdid": 1225,
      "erikan": 1226,
      "Ġup": 1227,
      "epat": 1228,
      "unjuk": 1229,
      "Ġpaling": 1230,
      "ism": 1231,
      "Ġanda": 1232,
      "ahkan": 1233,
      "Ġselam": 1234,
      "oga": 1235,
      "An": 1236,
      "ikir": 1237,
      ",\"": 1238,
      "Ġguru": 1239,
      "angunan": 1240,
      "Ġhe": 1241,
      "atakan": 1242,
      "ekn": 1243,
      "Ġbahasa": 1244,
      "Sela": 1245,
      "Ġberla": 1246,
      "Ġkeh": 1247,
      "hat": 1248,
      "Ġmengen": 1249,
      "ger": 1250,
      "we": 1251,
      "sh": 1252,
      "Pada": 1253,
      "tar": 1254,
      "Ġdunia": 1255,
      "Ġtentang": 1256,
      "ink": 1257,
      "Ġharus": 1258,
      "Ġmod": 1259,
      "Ġkajian": 1260,
      "Ġberkata": 1261,
      "ure": 1262,
      "iao": 1263,
      "lo": 1264,
      "enteri": 1265,
      "esi": 1266,
      "Ġtinggi": 1267,
      "tern": 1268,
      "Ġpakai": 1269,
      "anjang": 1270,
      "Ġdim": 1271,
      "enda": 1272,
      "ĠDi": 1273,
      "andar": 1274,
      "ĠMoh": 1275,
      "uda": 1276,
      "Ġdem": 1277,
      "ilan": 1278,
      "Ġwas": 1279,
      "asar": 1280,
      "ES": 1281,
      "ĠMen": 1282,
      "lik": 1283,
      "Ġsus": 1284,
      "Ġdilak": 1285,
      "de": 1286,
      "istem": 1287,
      "AD": 1288,
      "Ġbawah": 1289,
      "Ġnegeri": 1290,
      "Ġstr": 1291,
      "Ġ]": 1292,
      "masuk": 1293,
      "umpur": 1294,
      "tr": 1295,
      "Ġagama": 1296,
      "Ġcan": 1297,
      "adah": 1298,
      "Ġmendapat": 1299,
      "ĠAm": 1300,
      "ĠUn": 1301,
      "IK": 1302,
      "di": 1303,
      "akap": 1304,
      "Ġdr": 1305,
      "Ġkarena": 1306,
      "Ġbulan": 1307,
      "qu": 1308,
      "Ġraya": 1309,
      "UK": 1310,
      "so": 1311,
      "upa": 1312,
      "Ġkel": 1313,
      "apkan": 1314,
      "ce": 1315,
      "vers": 1316,
      "Ġmemang": 1317,
      "Ġrakyat": 1318,
      "ect": 1319,
      "ack": 1320,
      "laki": 1321,
      "ĠYang": 1322,
      "Ġmamp": 1323,
      "etah": 1324,
      "ĠBah": 1325,
      "akin": 1326,
      "ensi": 1327,
      "Ġlo": 1328,
      "UR": 1329,
      "antik": 1330,
      "ie": 1331,
      "amu": 1332,
      "wan": 1333,
      "ei": 1334,
      "askan": 1335,
      "onomi": 1336,
      "Ġpenting": 1337,
      "Ġthis": 1338,
      "Ġudah": 1339,
      "lek": 1340,
      "oses": 1341,
      "antan": 1342,
      "Ġmalam": 1343,
      "Ġsini": 1344,
      "agaim": 1345,
      "enis": 1346,
      "ahaha": 1347,
      "Ġmemberi": 1348,
      "Ġpertama": 1349,
      "umlah": 1350,
      "Ġdil": 1351,
      "ĠLumpur": 1352,
      "Ġterk": 1353,
      "ult": 1354,
      "Ġmcm": 1355,
      "upun": 1356,
      "Ġselalu": 1357,
      "uu": 1358,
      "Ġtanpa": 1359,
      "Ġsy": 1360,
      "urun": 1361,
      "ori": 1362,
      "Ini": 1363,
      "Ġ199": 1364,
      "ark": 1365,
      "ry": 1366,
      "Ġtetapi": 1367,
      "Ġmula": 1368,
      "Ġko": 1369,
      "adang": 1370,
      "Ġfrom": 1371,
      "'s": 1372,
      "Ġnk": 1373,
      "inggal": 1374,
      "Ġpendidikan": 1375,
      "Ġpes": 1376,
      "engar": 1377,
      "Ber": 1378,
      "Ġco": 1379,
      "ET": 1380,
      "ĠPend": 1381,
      "Ġno": 1382,
      "Ġbud": 1383,
      "Ġnama": 1384,
      "pt": 1385,
      "unga": 1386,
      "abila": 1387,
      "ihan": 1388,
      "Ġcon": 1389,
      "ĠMas": 1390,
      "Ġma": 1391,
      "aks": 1392,
      "Men": 1393,
      "Ġpergi": 1394,
      "form": 1395,
      "duk": 1396,
      "ug": 1397,
      "ĠMenteri": 1398,
      "Ġdigunakan": 1399,
      "Ġmain": 1400,
      "Ġkatanya": 1401,
      "are": 1402,
      "ny": 1403,
      "Ġlepas": 1404,
      "Ġwor": 1405,
      "Ġsaja": 1406,
      "Di": 1407,
      "Ġmat": 1408,
      "akit": 1409,
      "ulang": 1410,
      "Ġgo": 1411,
      "anda": 1412,
      "Ġbetul": 1413,
      "Ġcont": 1414,
      "lm": 1415,
      "erian": 1416,
      "ey": 1417,
      "Ġmata": 1418,
      "Ġnanti": 1419,
      "Ġliao": 1420,
      "Ġpagi": 1421,
      "ĠSela": 1422,
      "Ġbelum": 1423,
      "oto": 1424,
      "amad": 1425,
      "Ġakhir": 1426,
      "Ġbeg": 1427,
      "ayaan": 1428,
      "elangor": 1429,
      "Ġwan": 1430,
      "ui": 1431,
      "Ġlelaki": 1432,
      "uti": 1433,
      "Ġjika": 1434,
      "Ġnasi": 1435,
      "aikan": 1436,
      "Ġgr": 1437,
      "auh": 1438,
      "illah": 1439,
      "uslim": 1440,
      "Ġli": 1441,
      "iliki": 1442,
      "ungg": 1443,
      "Ġtert": 1444,
      "ez": 1445,
      "ampak": 1446,
      "Ġkasih": 1447,
      "Ġisu": 1448,
      "ence": 1449,
      "out": 1450,
      "Ġmy": 1451,
      "ĠAh": 1452,
      "bagai": 1453,
      "ili": 1454,
      "Ġsehingga": 1455,
      "engah": 1456,
      "Ġsos": 1457,
      "Ġtermasuk": 1458,
      "rang": 1459,
      "uskan": 1460,
      "idang": 1461,
      "ajaran": 1462,
      "Sem": 1463,
      "abis": 1464,
      "empuan": 1465,
      "abatan": 1466,
      "ĠIb": 1467,
      "Ġdepan": 1468,
      "pak": 1469,
      "Ġpand": 1470,
      "usnya": 1471,
      "abat": 1472,
      "ĠTak": 1473,
      "Ġhingga": 1474,
      "Ġibu": 1475,
      "Ġsaat": 1476,
      "Ġlangsung": 1477,
      "ukup": 1478,
      "Seb": 1479,
      "ert": 1480,
      "app": 1481,
      "ĠSelangor": 1482,
      "UM": 1483,
      "Ġpos": 1484,
      "IM": 1485,
      "aji": 1486,
      "ĠThe": 1487,
      "ĠDat": 1488,
      "Ġluar": 1489,
      "Ġselepas": 1490,
      "Tak": 1491,
      "uta": 1492,
      "lum": 1493,
      "Ġdatang": 1494,
      "abar": 1495,
      "Ġu": 1496,
      "Dalam": 1497,
      "ambah": 1498,
      "Ġmurid": 1499,
      "enang": 1500,
      "IL": 1501,
      "iah": 1502,
      "matan": 1503,
      "Ġkr": 1504,
      "Ġwar": 1505,
      ").": 1506,
      "empat": 1507,
      "atif": 1508,
      "Ġkeluar": 1509,
      "angka": 1510,
      "Ġtime": 1511,
      "idak": 1512,
      "Ġtengok": 1513,
      "Ġlike": 1514,
      "ĠKeb": 1515,
      "Ġstud": 1516,
      "Ġlap": 1517,
      "US": 1518,
      "Ġbay": 1519,
      "ĠUni": 1520,
      "Saya": 1521,
      "Ġbanget": 1522,
      "ell": 1523,
      "Ġil": 1524,
      "'m": 1525,
      "anding": 1526,
      "abi": 1527,
      "Ġpara": 1528,
      "Ġharga": 1529,
      "ilihan": 1530,
      "Ġutk": 1531,
      "Ġkn": 1532,
      "Ġwaktu": 1533,
      "umpulan": 1534,
      "ahun": 1535,
      "itar": 1536,
      "ungi": 1537,
      "Ġcara": 1538,
      "hi": 1539,
      "Ġala": 1540,
      "edi": 1541,
      "ĠMah": 1542,
      "Ġawal": 1543,
      "Ġtadi": 1544,
      "awan": 1545,
      "..": 1546,
      "alis": 1547,
      "abah": 1548,
      "ĠSy": 1549,
      "ajar": 1550,
      "Ġpet": 1551,
      "ice": 1552,
      "Ġok": 1553,
      "Ġkecil": 1554,
      "pek": 1555,
      "ĠAk": 1556,
      "umber": 1557,
      "Ġkemud": 1558,
      "\".": 1559,
      "ajah": 1560,
      "ahiran": 1561,
      "unjukkan": 1562,
      "Ġprogram": 1563,
      "awat": 1564,
      "Ġduit": 1565,
      "uas": 1566,
      "Ġramai": 1567,
      "Ġmampu": 1568,
      "Ġput": 1569,
      "her": 1570,
      "han": 1571,
      "Ġkedua": 1572,
      "yarikat": 1573,
      "ĠQ": 1574,
      "Ġ[": 1575,
      "iba": 1576,
      "asaan": 1577,
      "unggu": 1578,
      "ĠAd": 1579,
      "itas": 1580,
      "Ġsahaja": 1581,
      "alaupun": 1582,
      "ubah": 1583,
      "Ġbr": 1584,
      "ollow": 1585,
      "ase": 1586,
      "elu": 1587,
      "uri": 1588,
      "50": 1589,
      "arik": 1590,
      "vel": 1591,
      "Ġsih": 1592,
      "anak": 1593,
      "Ġsayang": 1594,
      "006": 1595,
      "Ġcakap": 1596,
      "ational": 1597,
      "eorang": 1598,
      "Ġmungkin": 1599,
      "Ġsistem": 1600,
      "indakan": 1601,
      "ĠPers": 1602,
      "dang": 1603,
      "Ġpelbagai": 1604,
      "Ġdih": 1605,
      "adar": 1606,
      "Ġne": 1607,
      "Ġbaju": 1608,
      "ujud": 1609,
      "asarkan": 1610,
      "Ġsesuatu": 1611,
      "angsaan": 1612,
      "ame": 1613,
      "Ġkawan": 1614,
      "Ġutama": 1615,
      "Ġone": 1616,
      "atus": 1617,
      "ebabkan": 1618,
      "uai": 1619,
      "Kalau": 1620,
      "19": 1621,
      "Ġ+": 1622,
      "Ġkemb": 1623,
      "Ġpulak": 1624,
      "Ġmengg": 1625,
      "Ġingin": 1626,
      "Ġkomun": 1627,
      "Ġberlaku": 1628,
      "Ġgue": 1629,
      "tiviti": 1630,
      "Ġkons": 1631,
      "str": 1632,
      "Bel": 1633,
      "Ġkulit": 1634,
      "iden": 1635,
      "inggu": 1636,
      "apak": 1637,
      "),": 1638,
      "awatan": 1639,
      "ember": 1640,
      "yam": 1641,
      "Ġterj": 1642,
      "tic": 1643,
      "Ġob": 1644,
      "Ġint": 1645,
      "ING": 1646,
      "Ġsur": 1647,
      "Ġpake": 1648,
      "Ġbuah": 1649,
      "ish": 1650,
      "oy": 1651,
      "ĠPER": 1652,
      "Ġmakanan": 1653,
      "Ġ12": 1654,
      "Ġkurang": 1655,
      "UL": 1656,
      "sanakan": 1657,
      "Ġtp": 1658,
      "ĠJoh": 1659,
      "ubungan": 1660,
      "ekerja": 1661,
      "hid": 1662,
      "Ġkeluarga": 1663,
      "AHAH": 1664,
      "Ġ:(": 1665,
      "Ġperempuan": 1666,
      "ven": 1667,
      "Ġpenj": 1668,
      "ambar": 1669,
      "Ġbak": 1670,
      "Ġpasti": 1671,
      "Ġnaik": 1672,
      "Ġsb": 1673,
      "aris": 1674,
      "ĠAbdul": 1675,
      "Ġcuma": 1676,
      "Ġproses": 1677,
      "oran": 1678,
      "alas": 1679,
      "Ġmele": 1680,
      "Ġhasil": 1681,
      "Ġrep": 1682,
      "ongan": 1683,
      "ĠTapi": 1684,
      "ola": 1685,
      "Ġmembantu": 1686,
      "ich": 1687,
      "Ġall": 1688,
      "mi": 1689,
      "adikan": 1690,
      "ĠUnivers": 1691,
      "din": 1692,
      "Ġlak": 1693,
      "teri": 1694,
      "urusan": 1695,
      "Ġapabila": 1696,
      "Ġleh": 1697,
      "adaan": 1698,
      "ubuh": 1699,
      "se": 1700,
      "Ġbag": 1701,
      "jid": 1702,
      "Ġperc": 1703,
      "Ġras": 1704,
      "Un": 1705,
      "Ġpenc": 1706,
      "Ġmemiliki": 1707,
      "ura": 1708,
      "Ġbadan": 1709,
      "Ġins": 1710,
      "ingkatkan": 1711,
      "Ġcom": 1712,
      "hamdul": 1713,
      "ĠPendidikan": 1714,
      "Ġterdapat": 1715,
      "kk": 1716,
      "ĠDan": 1717,
      "Ġpolitik": 1718,
      "Ġhave": 1719,
      "Ġkenapa": 1720,
      "ĠKerajaan": 1721,
      "Ġes": 1722,
      "rah": 1723,
      "endah": 1724,
      "10": 1725,
      "Ġbiasa": 1726,
      "ally": 1727,
      "ilayah": 1728,
      "Ġalam": 1729,
      "Ġtangan": 1730,
      "Ġsiapa": 1731,
      "ĠMuh": 1732,
      "Ġkalian": 1733,
      "ĠKet": 1734,
      "Ġmelihat": 1735,
      "Ġturut": 1736,
      "Ia": 1737,
      "Beliau": 1738,
      "Ġbat": 1739,
      "Ġwe": 1740,
      "alu": 1741,
      "Ġmaka": 1742,
      "Ġpembelajaran": 1743,
      "Ġbelajar": 1744,
      "Ġgun": 1745,
      "IR": 1746,
      "apun": 1747,
      "usat": 1748,
      "ents": 1749,
      "AW": 1750,
      "Ġresp": 1751,
      "OR": 1752,
      "AY": 1753,
      "Ġimp": 1754,
      "ĠNegeri": 1755,
      "ĠKes": 1756,
      "Ġsedang": 1757,
      "erb": 1758,
      "Ġmenunjukkan": 1759,
      "pun": 1760,
      "Ġsm": 1761,
      "ementerian": 1762,
      "Ġproduk": 1763,
      "akarta": 1764,
      "Ġsemp": 1765,
      "Ġwanita": 1766,
      "Ġmengenai": 1767,
      "Ġpenggun": 1768,
      "Ġlupa": 1769,
      "Ġmus": 1770,
      "Ġagar": 1771,
      "Ġpin": 1772,
      "UT": 1773,
      "ital": 1774,
      "Ġtolong": 1775,
      "ĠDr": 1776,
      "Ġeh": 1777,
      "anggung": 1778,
      "Ġekonomi": 1779,
      "ji": 1780,
      "ID": 1781,
      "IA": 1782,
      "odoh": 1783,
      "port": 1784,
      "Ġsosial": 1785,
      "erint": 1786,
      "Th": 1787,
      "Ġbahan": 1788,
      "stit": 1789,
      "uch": 1790,
      "30": 1791,
      "ĠAz": 1792,
      "Ġilmu": 1793,
      "Ġperm": 1794,
      "Ġby": 1795,
      "ambut": 1796,
      "amanya": 1797,
      "Ġmengikut": 1798,
      "Ġdilakukan": 1799,
      "Ġperkara": 1800,
      "Ġpela": 1801,
      "ĠPem": 1802,
      "ĠPar": 1803,
      "Ġdin": 1804,
      "Ġjenis": 1805,
      "Ġjuta": 1806,
      "Sek": 1807,
      "ammad": 1808,
      "ibat": 1809,
      "Ġ15": 1810,
      "yang": 1811,
      "Ġ08": 1812,
      "tur": 1813,
      "Ġ18": 1814,
      "lan": 1815,
      "ree": 1816,
      "Ġmudah": 1817,
      "Ġsakit": 1818,
      "Ġkiri": 1819,
      "Ġmelakukan": 1820,
      "Ġcerita": 1821,
      "Ġbenda": 1822,
      "mb": 1823,
      "Ġ?\"": 1824,
      "uld": 1825,
      "ning": 1826,
      "Ġwill": 1827,
      "alo": 1828,
      "Ġ11": 1829,
      "aka": 1830,
      "OL": 1831,
      "Ġcari": 1832,
      "ick": 1833,
      "Ġdic": 1834,
      "ef": 1835,
      "uju": 1836,
      "ĠTr": 1837,
      "tara": 1838,
      "ĠPol": 1839,
      "ideo": 1840,
      "les": 1841,
      "Set": 1842,
      "Ġkereta": 1843,
      "Ġet": 1844,
      "ru": 1845,
      "Ġkembali": 1846,
      "Ġtiga": 1847,
      "eks": 1848,
      "Ġmengambil": 1849,
      "aham": 1850,
      "Ġsemasa": 1851,
      "hamdulillah": 1852,
      "ĠMeng": 1853,
      "Ġtengah": 1854,
      "ĠPemb": 1855,
      "ĠSi": 1856,
      "AB": 1857,
      "su": 1858,
      "Ġmuka": 1859,
      "Ġselama": 1860,
      "idupan": 1861,
      "ajib": 1862,
      "EK": 1863,
      "Ġsc": 1864,
      "Ġsebanyak": 1865,
      "Ġtekn": 1866,
      "lai": 1867,
      "uba": 1868,
      "angkah": 1869,
      "ber": 1870,
      "Ġ.\"": 1871,
      "Ġop": 1872,
      "led": 1873,
      "Ġbentuk": 1874,
      "alankan": 1875,
      "Ġlagu": 1876,
      "ĠSet": 1877,
      "Ġbl": 1878,
      "Ġmaj": 1879,
      "uasa": 1880,
      "alaman": 1881,
      "oba": 1882,
      "Ġbas": 1883,
      "Ġdaerah": 1884,
      "Ġsebenar": 1885,
      "ĠSep": 1886,
      "apai": 1887,
      "agaimana": 1888,
      "yan": 1889,
      "Ġdig": 1890,
      "Ġusaha": 1891,
      "AJ": 1892,
      "Ġhas": 1893,
      "Ġdok": 1894,
      "elur": 1895,
      "Ġbant": 1896,
      "Ġberada": 1897,
      "ĠAg": 1898,
      "amah": 1899,
      "OM": 1900,
      "ohon": 1901,
      "ENG": 1902,
      "Ġcomp": 1903,
      "ne": 1904,
      "Ġinf": 1905,
      "ĠPas": 1906,
      "rit": 1907,
      "Ġmemberikan": 1908,
      "Ġsupaya": 1909,
      "Ġnih": 1910,
      "esan": 1911,
      "AG": 1912,
      "ĠDatuk": 1913,
      "Ġsemula": 1914,
      "Ġhis": 1915,
      "awak": 1916,
      "Ġkok": 1917,
      "ical": 1918,
      "ĠPak": 1919,
      "sy": 1920,
      "uhi": 1921,
      "ose": 1922,
      "ĠAlam": 1923,
      "kwk": 1924,
      "Ġkemudian": 1925,
      "Ġtetap": 1926,
      "Ġberka": 1927,
      "ju": 1928,
      "ereka": 1929,
      "Ġcukup": 1930,
      "ĠNegara": 1931,
      "Ġkot": 1932,
      "Ġro": 1933,
      "ĠHar": 1934,
      "Ġdap": 1935,
      "utup": 1936,
      "ran": 1937,
      "Ġminta": 1938,
      "antai": 1939,
      "Ġberas": 1940,
      "ikal": 1941,
      "Ġ14": 1942,
      "Ġfak": 1943,
      "Ġmo": 1944,
      "Peng": 1945,
      "ph": 1946,
      "angi": 1947,
      "ĠTan": 1948,
      "Ġdes": 1949,
      "ook": 1950,
      "Ġbatu": 1951,
      "Ġsub": 1952,
      "Ġbuku": 1953,
      "ikin": 1954,
      "lalu": 1955,
      "lin": 1956,
      "Pen": 1957,
      "ĠKem": 1958,
      "Ġtheir": 1959,
      "KU": 1960,
      "Ġtw": 1961,
      "ance": 1962,
      "Ġtanah": 1963,
      "Ġhak": 1964,
      "Ġkini": 1965,
      "Ġmati": 1966,
      "Ġhabis": 1967,
      "ikasi": 1968,
      "men": 1969,
      "Ġtahap": 1970,
      "Dia": 1971,
      "Ġkemahiran": 1972,
      "Ġbidang": 1973,
      "ary": 1974,
      "Ġdiken": 1975,
      "Ġbu": 1976,
      "Ġberken": 1977,
      "wat": 1978,
      "Ġnilai": 1979,
      "Ġjumlah": 1980,
      "ilai": 1981,
      "erl": 1982,
      "amil": 1983,
      "Ġahli": 1984,
      "urah": 1985,
      "Ġkont": 1986,
      "isme": 1987,
      "Ġsa": 1988,
      "Ġbin": 1989,
      "andi": 1990,
      "ord": 1991,
      "Ġalso": 1992,
      "weet": 1993,
      "Ġmis": 1994,
      "umpa": 1995,
      "ite": 1996,
      "endak": 1997,
      "Ada": 1998,
      "ustri": 1999,
      "ĠKementerian": 2000,
      "Ġfil": 2001,
      "Ġkelas": 2002,
      "Ġkeper": 2003,
      "ker": 2004,
      "ĠDia": 2005,
      "ender": 2006,
      "ĠPut": 2007,
      "201": 2008,
      "ĠJohor": 2009,
      "duc": 2010,
      "Ġthey": 2011,
      "dana": 2012,
      "Ġbuk": 2013,
      "Ġpengajaran": 2014,
      "enti": 2015,
      "nak": 2016,
      "Ġsiap": 2017,
      "urn": 2018,
      "umi": 2019,
      "Ġditer": 2020,
      "Ġ|": 2021,
      "esiden": 2022,
      "gk": 2023,
      "Ġbgt": 2024,
      "ahw": 2025,
      "Ġknow": 2026,
      "Ġtanya": 2027,
      "Ġsejak": 2028,
      "Ġkorang": 2029,
      "ĠMuslim": 2030,
      "Ġmaklum": 2031,
      "itam": 2032,
      "Ġterl": 2033,
      "asional": 2034,
      "Ġkehidupan": 2035,
      "ivid": 2036,
      "Ġlem": 2037,
      "iman": 2038,
      "wah": 2039,
      "Ġkos": 2040,
      "ĠKe": 2041,
      "Ġmedia": 2042,
      "olongan": 2043,
      "12": 2044,
      "iaga": 2045,
      "ĠKalau": 2046,
      "Ġ=": 2047,
      "ĠTh": 2048,
      "Ġkampung": 2049,
      "ekut": 2050,
      "ĠDI": 2051,
      "Ġtindakan": 2052,
      "ihatan": 2053,
      "Ġuj": 2054,
      "Ġed": 2055,
      "Ġbek": 2056,
      "Ġpan": 2057,
      "elakang": 2058,
      "Ġpla": 2059,
      "Ġjugak": 2060,
      "Ġgu": 2061,
      "Tapi": 2062,
      "ikiran": 2063,
      "Ġayat": 2064,
      "Ġsetelah": 2065,
      "Ġjauh": 2066,
      "Ġmu": 2067,
      "Ġ30": 2068,
      "te": 2069,
      "ultan": 2070,
      "ris": 2071,
      "Ġseseorang": 2072,
      "Ġbegitu": 2073,
      "Ġayah": 2074,
      "ĠX": 2075,
      "ĠKh": 2076,
      "Ġadik": 2077,
      "Ġkomp": 2078,
      "isah": 2079,
      "Ġyour": 2080,
      "ĠSeri": 2081,
      "Ġanj": 2082,
      "Ġkhus": 2083,
      "Ġsesuai": 2084,
      "ĠHari": 2085,
      "ory": 2086,
      "fer": 2087,
      "Ġel": 2088,
      "Ġbandar": 2089,
      "ba": 2090,
      "Ġaktiviti": 2091,
      "impin": 2092,
      "Ġangg": 2093,
      "Ġikut": 2094,
      "Ġout": 2095,
      "Ġgitu": 2096,
      "Ġberkaitan": 2097,
      "enggan": 2098,
      "Ġseluruh": 2099,
      "Ġjelas": 2100,
      "aud": 2101,
      "ĠKel": 2102,
      "alnya": 2103,
      "Jangan": 2104,
      "Ġdh": 2105,
      "ĠIN": 2106,
      "ile": 2107,
      "Ġmalah": 2108,
      "Ġkeadaan": 2109,
      "angga": 2110,
      "Ġpembangunan": 2111,
      "angis": 2112,
      "Ġpon": 2113,
      "Ġbiar": 2114,
      "able": 2115,
      "Ġnampak": 2116,
      "engg": 2117,
      "ayah": 2118,
      "anjut": 2119,
      "Ġkon": 2120,
      "ĠSar": 2121,
      "ĠKebangsaan": 2122,
      "Ġtakut": 2123,
      "Ġkay": 2124,
      "ock": 2125,
      "okok": 2126,
      "Ġ100": 2127,
      "enapa": 2128,
      "Ġberc": 2129,
      "Ġ198": 2130,
      "erti": 2131,
      "Ġpat": 2132,
      "Ġkumpulan": 2133,
      "PR": 2134,
      "Ġhahah": 2135,
      "mana": 2136,
      "ewan": 2137,
      "Ġsikit": 2138,
      "Ġgila": 2139,
      "Ġberkenaan": 2140,
      "akah": 2141,
      "Ġorder": 2142,
      "Ġlor": 2143,
      "Ġberg": 2144,
      "ĠBahasa": 2145,
      "rat": 2146,
      "ĠPR": 2147,
      "yo": 2148,
      "Ġberjaya": 2149,
      "akhir": 2150,
      "fat": 2151,
      "ediakan": 2152,
      "ungai": 2153,
      "wak": 2154,
      "Ġmesti": 2155,
      "Ġjust": 2156,
      "Ġcantik": 2157,
      "Ġaj": 2158,
      "ĠKar": 2159,
      "Ġberat": 2160,
      "ĠSekolah": 2161,
      "vi": 2162,
      "pe": 2163,
      "Ġwa": 2164,
      "Ġtiba": 2165,
      "Ġmenerima": 2166,
      "Ġik": 2167,
      "Ġph": 2168,
      "ĠShah": 2169,
      "ern": 2170,
      "Ġhi": 2171,
      "Ġsekitar": 2172,
      "Ġkalangan": 2173,
      "ains": 2174,
      "utusan": 2175,
      "Ġindivid": 2176,
      "Ġmeningkatkan": 2177,
      "ungk": 2178,
      "Ġkap": 2179,
      "Ġinter": 2180,
      "Ġkuat": 2181,
      "Ġperingkat": 2182,
      "AA": 2183,
      "usaha": 2184,
      "Ġ\".": 2185,
      "ikit": 2186,
      "ld": 2187,
      "irkan": 2188,
      "Ġtinggal": 2189,
      "no": 2190,
      "untuk": 2191,
      "emu": 2192,
      "ĠSer": 2193,
      "Ġkaya": 2194,
      "ts": 2195,
      "Ġud": 2196,
      "ese": 2197,
      "Ġnamun": 2198,
      "Ġger": 2199,
      "Ġwhich": 2200,
      "Ġsambil": 2201,
      "Ġsemakin": 2202,
      "Ġwhat": 2203,
      "kt": 2204,
      "Ġamat": 2205,
      "Ġsis": 2206,
      "ekan": 2207,
      "ĠTim": 2208,
      "ĠKE": 2209,
      "ĠMuhammad": 2210,
      "Ġfollow": 2211,
      "usah": 2212,
      "ens": 2213,
      "Ġq": 2214,
      "embangan": 2215,
      "Ġkaum": 2216,
      "ĠRT": 2217,
      "ould": 2218,
      "Ġ13": 2219,
      "Ġgambar": 2220,
      "Ġvideo": 2221,
      "Ġcepat": 2222,
      "Ġtrans": 2223,
      "ight": 2224,
      "angkat": 2225,
      "Ġbar": 2226,
      "ĠAda": 2227,
      "Ġberdasarkan": 2228,
      "Ġterp": 2229,
      "ech": 2230,
      "Ġsbb": 2231,
      "ĠDalam": 2232,
      "Ġbarang": 2233,
      "**": 2234,
      "Ġduduk": 2235,
      "Ġtuj": 2236,
      "way": 2237,
      "Ġsegala": 2238,
      "aaa": 2239,
      "mg": 2240,
      "Ġmenyatakan": 2241,
      "row": 2242,
      "anaan": 2243,
      "ukur": 2244,
      "Ġbaca": 2245,
      "ĠRp": 2246,
      "Ġkira": 2247,
      "Ġlg": 2248,
      "eter": 2249,
      "ĠMin": 2250,
      "elaka": 2251,
      "res": 2252,
      "tem": 2253,
      "very": 2254,
      "Ġtok": 2255,
      "Ġpilihan": 2256,
      "ĠSo": 2257,
      "hidmatan": 2258,
      "ĠMohd": 2259,
      "Ġjual": 2260,
      "ks": 2261,
      "Ġwho": 2262,
      "Selain": 2263,
      "ig": 2264,
      "ĠJabatan": 2265,
      "ibatkan": 2266,
      "Ġminyak": 2267,
      "Ġmul": 2268,
      "ĠNo": 2269,
      "Ġkerj": 2270,
      "ĠMaj": 2271,
      "ukar": 2272,
      "DA": 2273,
      "ehe": 2274,
      "Ġ16": 2275,
      "ĠTun": 2276,
      "ĠMak": 2277,
      "Ġberikut": 2278,
      "ilangan": 2279,
      "Ġjer": 2280,
      "Ġkew": 2281,
      "Ġsuatu": 2282,
      "Ġapp": 2283,
      "Menurut": 2284,
      "ĠAhmad": 2285,
      "Ġkaedah": 2286,
      "Ġsitu": 2287,
      "insi": 2288,
      "Ġmembawa": 2289,
      "Ġped": 2290,
      "por": 2291,
      "indu": 2292,
      "Ġtiada": 2293,
      "ĠBER": 2294,
      "ban": 2295,
      "Ġbikin": 2296,
      "inda": 2297,
      "Ġye": 2298,
      "Pr": 2299,
      "ye": 2300,
      "Ġif": 2301,
      "ĠIslamic": 2302,
      "15": 2303,
      "Ġsering": 2304,
      "Ġmew": 2305,
      "Ġ17": 2306,
      "Ġwalaupun": 2307,
      "Ġpengh": 2308,
      "ings": 2309,
      "atuh": 2310,
      "OS": 2311,
      "Ġsyarikat": 2312,
      "IP": 2313,
      "dah": 2314,
      "Ġterbaik": 2315,
      "kn": 2316,
      "undang": 2317,
      "Ġteman": 2318,
      "Ġturun": 2319,
      "Ġsedih": 2320,
      "Ġfir": 2321,
      "Ġayam": 2322,
      "Ġminum": 2323,
      "itter": 2324,
      "astikan": 2325,
      "ĠEn": 2326,
      "Ġbur": 2327,
      "Ġrem": 2328,
      "antung": 2329,
      "ĠMar": 2330,
      "itif": 2331,
      "als": 2332,
      "Ġthen": 2333,
      "tt": 2334,
      "ukum": 2335,
      "ool": 2336,
      "Ġhubungan": 2337,
      "urang": 2338,
      "Ġpasal": 2339,
      "udi": 2340,
      "OT": 2341,
      "own": 2342,
      "Ġher": 2343,
      "ĠSeb": 2344,
      "zah": 2345,
      "engganu": 2346,
      "opi": 2347,
      "ĠPert": 2348,
      "Ġdong": 2349,
      "Ġim": 2350,
      "agia": 2351,
      "Ġbilik": 2352,
      "jak": 2353,
      "Ġdlm": 2354,
      "Ġorgan": 2355,
      "ser": 2356,
      "iap": 2357,
      "line": 2358,
      "Ġwilayah": 2359,
      "As": 2360,
      "Ġmaklumat": 2361,
      "ĠAS": 2362,
      "fi": 2363,
      "Ġdata": 2364,
      "Mas": 2365,
      "atik": 2366,
      "Ġsusah": 2367,
      "old": 2368,
      "OK": 2369,
      "ampir": 2370,
      "ther": 2371,
      "elidikan": 2372,
      "etahuan": 2373,
      "Ġ2020": 2374,
      "Ġterut": 2375,
      "rop": 2376,
      "idik": 2377,
      "asanya": 2378,
      "Ġlat": 2379,
      "Ġbelakang": 2380,
      "ĠSaya": 2381,
      "ahagian": 2382,
      "eki": 2383,
      "14": 2384,
      "Ġzaman": 2385,
      "Ġterlalu": 2386,
      "inar": 2387,
      "Ad": 2388,
      "ukul": 2389,
      "Nak": 2390,
      "urkan": 2391,
      "jawab": 2392,
      "Ġkuasa": 2393,
      "Ġawak": 2394,
      "uny": 2395,
      "Ġhuj": 2396,
      "Ap": 2397,
      "wai": 2398,
      "ĠAmer": 2399,
      "ade": 2400,
      "Ġsana": 2401,
      "Ġarah": 2402,
      "Ġ:)": 2403,
      "ekerj": 2404,
      "yakit": 2405,
      "ĠIni": 2406,
      "Ġtakde": 2407,
      "Ġguna": 2408,
      "ongk": 2409,
      "Namun": 2410,
      "ĠRe": 2411,
      "Untuk": 2412,
      "ĠPeny": 2413,
      "Ġ(@": 2414,
      "yataan": 2415,
      "Ġkt": 2416,
      "Ġmendapatkan": 2417,
      "Ġmasak": 2418,
      "ĠUniversiti": 2419,
      "Ġide": 2420,
      "Ġsal": 2421,
      "ĠAir": 2422,
      "rg": 2423,
      "ular": 2424,
      "Ġmulai": 2425,
      "Ġdasar": 2426,
      "ulau": 2427,
      "Ġpanjang": 2428,
      "Ġpenggunaan": 2429,
      "Ġbis": 2430,
      "Ġgolongan": 2431,
      "co": 2432,
      "ĠSabah": 2433,
      "ĠPerdana": 2434,
      "gas": 2435,
      "ape": 2436,
      "kuasa": 2437,
      "alahan": 2438,
      "Ket": 2439,
      "ucing": 2440,
      "Ġmember": 2441,
      "adb": 2442,
      "ulisan": 2443,
      "nn": 2444,
      "ungguh": 2445,
      "isan": 2446,
      "AU": 2447,
      "air": 2448,
      "araan": 2449,
      "Ġaspek": 2450,
      "urus": 2451,
      "Ġbahagian": 2452,
      "Ġperub": 2453,
      "ki": 2454,
      "ĠMa": 2455,
      "sel": 2456,
      "embaga": 2457,
      "Ġpenuh": 2458,
      "Ġcar": 2459,
      "Ġcuba": 2460,
      "Ġ50": 2461,
      "emen": 2462,
      "awi": 2463,
      "Ġikan": 2464,
      "was": 2465,
      "aksi": 2466,
      "egang": 2467,
      "Ġpemerint": 2468,
      "ci": 2469,
      "ĠIng": 2470,
      "ka": 2471,
      "Ġpent": 2472,
      "13": 2473,
      "eda": 2474,
      "Yang": 2475,
      "Ġbest": 2476,
      "kah": 2477,
      "Ġmasing": 2478,
      "Ġrendah": 2479,
      "Ġprof": 2480,
      "apati": 2481,
      "Ġsar": 2482,
      "Ġlu": 2483,
      "aliti": 2484,
      "Ġkaki": 2485,
      "GA": 2486,
      "Ġwarna": 2487,
      "war": 2488,
      "Ġingat": 2489,
      "Ġmore": 2490,
      "Ġmenarik": 2491,
      "Ker": 2492,
      "adian": 2493,
      "ĠIndia": 2494,
      "IH": 2495,
      "Ġpelak": 2496,
      "Kita": 2497,
      "Ġpart": 2498,
      "Ġsumber": 2499,
      "Ġver": 2500,
      "alian": 2501,
      "EB": 2502,
      "iter": 2503,
      "bar": 2504,
      "Ġsemb": 2505,
      "ullah": 2506,
      "ĠJakarta": 2507,
      "ĠArab": 2508,
      "Ġminggu": 2509,
      "Ġdibuat": 2510,
      "Ġbahwa": 2511,
      "oreng": 2512,
      "ENT": 2513,
      "ife": 2514,
      "read": 2515,
      "osi": 2516,
      "Ġindividu": 2517,
      "unan": 2518,
      "atur": 2519,
      "Ġrela": 2520,
      "anggil": 2521,
      "Ġbenar": 2522,
      "ĠNak": 2523,
      "Ġ01": 2524,
      "uli": 2525,
      "Ġsimp": 2526,
      "ayang": 2527,
      "EP": 2528,
      "Ġjumpa": 2529,
      "ĠMan": 2530,
      "Ġmenyebabkan": 2531,
      "mar": 2532,
      "gal": 2533,
      "perasi": 2534,
      "tions": 2535,
      "ujuk": 2536,
      "ĠMelaka": 2537,
      "OD": 2538,
      "apatan": 2539,
      "ĠJangan": 2540,
      "use": 2541,
      "Ġbudak": 2542,
      "40": 2543,
      "Ġtuh": 2544,
      "ĠSultan": 2545,
      "Ġbern": 2546,
      "Ġkeputusan": 2547,
      "ĠMat": 2548,
      "Ġsedikit": 2549,
      "adu": 2550,
      "bah": 2551,
      "Ġmuda": 2552,
      "ll": 2553,
      "luan": 2554,
      "fa": 2555,
      "Ġdiberikan": 2556,
      "ahami": 2557,
      "ekatan": 2558,
      "ĠRaya": 2559,
      "entukan": 2560,
      "ingap": 2561,
      "Ġparti": 2562,
      "Ġbakal": 2563,
      "lic": 2564,
      "sanaan": 2565,
      "Meng": 2566,
      "Mereka": 2567,
      "ekutuan": 2568,
      "ĠTahun": 2569,
      "Ġfac": 2570,
      "age": 2571,
      "anggungjawab": 2572,
      "Ġcal": 2573,
      "antikan": 2574,
      "ĠRas": 2575,
      "ĠAnda": 2576,
      "ĠRep": 2577,
      "Ġgini": 2578,
      "ED": 2579,
      "anyakan": 2580,
      "adahal": 2581,
      "ĠApr": 2582,
      "Ġbab": 2583,
      "Ġja": 2584,
      "Ġsia": 2585,
      "ĠAc": 2586,
      "Ġpop": 2587,
      "ĠDAN": 2588,
      "Ak": 2589,
      "ĠKep": 2590,
      "Ġpul": 2591,
      "Ġmemastikan": 2592,
      "Ġthem": 2593,
      "ĠDis": 2594,
      "ĠKota": 2595,
      "Ġgua": 2596,
      "Ġumum": 2597,
      "ĠMem": 2598,
      "Dari": 2599,
      "asilkan": 2600,
      "eluruhan": 2601,
      "Ġsuami": 2602,
      "ĠAN": 2603,
      "Ġwarga": 2604,
      "ses": 2605,
      "Ġkl": 2606,
      "ikian": 2607,
      "uddin": 2608,
      "AC": 2609,
      "alang": 2610,
      "anggap": 2611,
      "ulai": 2612,
      "ream": 2613,
      "Ġpenduduk": 2614,
      "ĠUM": 2615,
      "ĠWA": 2616,
      "Ġmot": 2617,
      "velop": 2618,
      "Dan": 2619,
      "ahu": 2620,
      "uanya": 2621,
      "ĠJalan": 2622,
      "day": 2623,
      "Ġpern": 2624,
      "Ġta": 2625,
      "Apa": 2626,
      "ner": 2627,
      "Ġstill": 2628,
      "antau": 2629,
      "adakan": 2630,
      "Ġseri": 2631,
      "Bagi": 2632,
      "Ġrez": 2633,
      "cik": 2634,
      "Ġhilang": 2635,
      "ĠKita": 2636,
      "Ġsebenarnya": 2637,
      "ĠPulau": 2638,
      "AI": 2639,
      "entu": 2640,
      "ash": 2641,
      "Ġmencari": 2642,
      "Ġantar": 2643,
      "Selamat": 2644,
      "Ġmencapai": 2645,
      "Ġawam": 2646,
      "Ġrambut": 2647,
      "io": 2648,
      "andung": 2649,
      "ĠKedah": 2650,
      "Ġ25": 2651,
      "Ġterima": 2652,
      "Ġthere": 2653,
      "Ġsesi": 2654,
      "za": 2655,
      "asama": 2656,
      "okasi": 2657,
      "ĠUntuk": 2658,
      "ĠBarat": 2659,
      "Ġperj": 2660,
      "Dengan": 2661,
      "ited": 2662,
      "ĠBers": 2663,
      "Ġwere": 2664,
      "Ġmarah": 2665,
      "Ġmut": 2666,
      "Ġambil": 2667,
      "Ġpengetahuan": 2668,
      "Ġagak": 2669,
      "okong": 2670,
      "Ġbec": 2671,
      "rib": 2672,
      "oi": 2673,
      "sion": 2674,
      "Ġindustri": 2675,
      "ikum": 2676,
      "ĠBel": 2677,
      "Ġten": 2678,
      "ĠPerak": 2679,
      "eza": 2680,
      "ĠApril": 2681,
      "Ġbekerja": 2682,
      "Ġmelibatkan": 2683,
      "baik": 2684,
      "Is": 2685,
      "onton": 2686,
      "Ġbos": 2687,
      "ĠLi": 2688,
      "gawai": 2689,
      "ĠTerengganu": 2690,
      "Ġpl": 2691,
      "Ġkit": 2692,
      "Ġputih": 2693,
      "Ġpuasa": 2694,
      "ancis": 2695,
      "UNG": 2696,
      "ĠRes": 2697,
      "Ġumat": 2698,
      "Ġbot": 2699,
      "ated": 2700,
      "ople": 2701,
      "Ġtemen": 2702,
      "ĠJun": 2703,
      "Ġkesan": 2704,
      "Ġmahu": 2705,
      "ĠMe": 2706,
      "Ġundang": 2707,
      "ahwin": 2708,
      "ĠWan": 2709,
      "Ġ~": 2710,
      "Ġkonsep": 2711,
      "EMB": 2712,
      "Ġ2014": 2713,
      "adem": 2714,
      "Ġbuka": 2715,
      "gg": 2716,
      "ternational": 2717,
      "Ġkepala": 2718,
      "Ġwat": 2719,
      "Ġkedai": 2720,
      "Ġprojek": 2721,
      "ayar": 2722,
      "rol": 2723,
      "ĠPet": 2724,
      "Ġliat": 2725,
      "alisis": 2726,
      "11": 2727,
      "adual": 2728,
      "anjir": 2729,
      "awal": 2730,
      "TAN": 2731,
      "Ġ2018": 2732,
      "my": 2733,
      "Ġkor": 2734,
      "ariah": 2735,
      "yarat": 2736,
      "Ġkeseluruhan": 2737,
      "sus": 2738,
      "Ġoff": 2739,
      "uhkan": 2740,
      "okow": 2741,
      "Ġhahaha": 2742,
      "erta": 2743,
      "Ġmaaf": 2744,
      "Ġmet": 2745,
      "limen": 2746,
      "ca": 2747,
      "ĠKL": 2748,
      "Ġteknologi": 2749,
      "Ġtempoh": 2750,
      "ataan": 2751,
      "amat": 2752,
      "ĠKelantan": 2753,
      "Ġlemb": 2754,
      "ĠDar": 2755,
      "osp": 2756,
      "uktur": 2757,
      "\",": 2758,
      "NO": 2759,
      "Ġjd": 2760,
      "Ġpot": 2761,
      "Ġ24": 2762,
      "Ġsebelah": 2763,
      "Ġmenjadikan": 2764,
      "anji": 2765,
      "Ġpercaya": 2766,
      "Oleh": 2767,
      "ujuan": 2768,
      "Ġnik": 2769,
      "Ġ2010": 2770,
      "ted": 2771,
      "ĠYa": 2772,
      "ck": 2773,
      "Dah": 2774,
      "ĠKetua": 2775,
      "Ġbantuan": 2776,
      "Ġtua": 2777,
      "Ġcontoh": 2778,
      "Ġmakin": 2779,
      "ERI": 2780,
      "ĠBr": 2781,
      "upat": 2782,
      "ĠAmerika": 2783,
      "Ġrt": 2784,
      "Ġbangun": 2785,
      "ancangan": 2786,
      "ĠAp": 2787,
      "yy": 2788,
      "Ġketi": 2789,
      "aut": 2790,
      "anja": 2791,
      "ition": 2792,
      "ĠEng": 2793,
      "ĠChina": 2794,
      "ĠDewan": 2795,
      "Ġjawab": 2796,
      "Ġvir": 2797,
      "Ġkucing": 2798,
      "Ġdiberi": 2799,
      "Ġrespond": 2800,
      "Ġbilang": 2801,
      "Ġperatus": 2802,
      "ahang": 2803,
      "Ġsenti": 2804,
      "Ġtujuan": 2805,
      "Ġexp": 2806,
      "Ġsoal": 2807,
      "Ġperl": 2808,
      "Ġsedap": 2809,
      "Ġmay": 2810,
      "isasi": 2811,
      "Ġhaha": 2812,
      "ho": 2813,
      "ren": 2814,
      "Ġasal": 2815,
      "uf": 2816,
      "Ġpo": 2817,
      "Ġcinta": 2818,
      "Ġperkhidmatan": 2819,
      "Ġsentiasa": 2820,
      "Ġumur": 2821,
      "Ġang": 2822,
      "ĠHarga": 2823,
      "Ġtrad": 2824,
      "Ġlangkah": 2825,
      "Ġbermula": 2826,
      "Ġpulang": 2827,
      "Ġbudaya": 2828,
      "Ġakhirnya": 2829,
      "Jika": 2830,
      "Ġsamb": 2831,
      "ĠSM": 2832,
      "Ġfaktor": 2833,
      "Ġdilaksanakan": 2834,
      "ely": 2835,
      "ĠOrang": 2836,
      "Ġmandi": 2837,
      "Ġkeperluan": 2838,
      "Ġpastu": 2839,
      "Ġbawa": 2840,
      "ime": 2841,
      "Ġneed": 2842,
      "Si": 2843,
      "tih": 2844,
      "eluarkan": 2845,
      "Alhamdulillah": 2846,
      "Ġonly": 2847,
      "uci": 2848,
      "ona": 2849,
      "Ġment": 2850,
      "nyata": 2851,
      "xt": 2852,
      "Ġform": 2853,
      "Ġmaks": 2854,
      "Ġbodoh": 2855,
      "enal": 2856,
      "ĠKom": 2857,
      "ĠKab": 2858,
      "sur": 2859,
      "Bila": 2860,
      "Ġcomm": 2861,
      "ait": 2862,
      "007": 2863,
      "Ġdilihat": 2864,
      "abangsa": 2865,
      "hatian": 2866,
      "ĠMei": 2867,
      "erh": 2868,
      "Jadi": 2869,
      "Ġsemangat": 2870,
      "ulkan": 2871,
      "tas": 2872,
      "inggalkan": 2873,
      "yum": 2874,
      "Ġpintu": 2875,
      "So": 2876,
      "Ġsampe": 2877,
      "Ġpemimpin": 2878,
      "rip": 2879,
      "ĠSarawak": 2880,
      "okowi": 2881,
      "formasi": 2882,
      "22": 2883,
      "Ġhampir": 2884,
      "ras": 2885,
      "ubung": 2886,
      "Ġeng": 2887,
      "ĠTER": 2888,
      "Ġid": 2889,
      "Allah": 2890,
      "Ġdiam": 2891,
      "Ġcr": 2892,
      "Ġpeluang": 2893,
      "faat": 2894,
      "stitusi": 2895,
      "Ġwajah": 2896,
      "atas": 2897,
      "Ġjaga": 2898,
      "ĠCina": 2899,
      "TI": 2900,
      "lain": 2901,
      "lec": 2902,
      "ote": 2903,
      "ting": 2904,
      "Ġris": 2905,
      "olog": 2906,
      "Ġany": 2907,
      "Ġaut": 2908,
      "ingkatan": 2909,
      "etahui": 2910,
      "Ġperasaan": 2911,
      "ebat": 2912,
      "roup": 2913,
      "alami": 2914,
      "bu": 2915,
      "Ġother": 2916,
      "aaaa": 2917,
      "ulum": 2918,
      "ĠPersekutuan": 2919,
      "Ġpost": 2920,
      "Ġsome": 2921,
      "Ġesok": 2922,
      "Ġtel": 2923,
      "Ġfoto": 2924,
      "Ġsejarah": 2925,
      "Ġanggota": 2926,
      "Ġtk": 2927,
      "Ġtunggu": 2928,
      "Ġmake": 2929,
      "ewa": 2930,
      "ĠApa": 2931,
      "ahaman": 2932,
      "antar": 2933,
      "har": 2934,
      "Ġselain": 2935,
      "Ġ197": 2936,
      "Ġsuara": 2937,
      "Ġmelaksanakan": 2938,
      "Ġent": 2939,
      "002": 2940,
      "ations": 2941,
      "of": 2942,
      "Kem": 2943,
      "Ġrezeki": 2944,
      "ĠBaru": 2945,
      "erang": 2946,
      "Ġgood": 2947,
      "kamah": 2948,
      "Ġenak": 2949,
      "Ġrec": 2950,
      "RE": 2951,
      "aruh": 2952,
      "Pro": 2953,
      "18": 2954,
      "Ġtd": 2955,
      "Ġbes": 2956,
      "Ġseramai": 2957,
      "Ġpanas": 2958,
      "Ġberf": 2959,
      "Ġinc": 2960,
      "riend": 2961,
      "Ġisi": 2962,
      "ĠMala": 2963,
      "tain": 2964,
      "Ġfilem": 2965,
      "ARI": 2966,
      "Ġtip": 2967,
      "Ġmmg": 2968,
      "Ya": 2969,
      "athir": 2970,
      "Ġwork": 2971,
      "egara": 2972,
      "elamatan": 2973,
      "Ġpukul": 2974,
      "Ġbus": 2975,
      "aksud": 2976,
      "jah": 2977,
      "Ġdar": 2978,
      "wal": 2979,
      "Ġempat": 2980,
      "ĠAL": 2981,
      "ungsi": 2982,
      "Ġprom": 2983,
      "Ġdpt": 2984,
      "Ġperang": 2985,
      "ingin": 2986,
      "Ġjatuh": 2987,
      "ĠMajlis": 2988,
      "Ġbangsa": 2989,
      "entingan": 2990,
      "amatan": 2991,
      "Pert": 2992,
      "ivers": 2993,
      "ral": 2994,
      "Ġacc": 2995,
      "Ġberbanding": 2996,
      "ĠDa": 2997,
      "agaiman": 2998,
      "ĠAKU": 2999,
      "Ġmasjid": 3000,
      "Ġsuruh": 3001,
      "rr": 3002,
      "amily": 3003,
      "IC": 3004,
      "ĠBuk": 3005,
      "las": 3006,
      "Ġcab": 3007,
      "Ġgoreng": 3008,
      "Ġdikenali": 3009,
      "Ġpusat": 3010,
      "ower": 3011,
      "lem": 3012,
      "atuan": 3013,
      "impinan": 3014,
      "Ġpasukan": 3015,
      "kh": 3016,
      "ekerjaan": 3017,
      "Ġday": 3018,
      "get": 3019,
      "Ġpandangan": 3020,
      "Ġqu": 3021,
      "ĠAli": 3022,
      "ĠBukan": 3023,
      "Ġthink": 3024,
      "entang": 3025,
      "Ġmodel": 3026,
      "ikm": 3027,
      "ibu": 3028,
      "ĠPresiden": 3029,
      "Ġnew": 3030,
      "Ġmerah": 3031,
      "Ġdon": 3032,
      "Ġlatihan": 3033,
      "Ġsabar": 3034,
      "Ġhim": 3035,
      "agaimanapun": 3036,
      "Ġfirst": 3037,
      "ork": 3038,
      "ĠPerancis": 3039,
      "Ġselamat": 3040,
      "lish": 3041,
      "Ġdijalankan": 3042,
      "Ġbantu": 3043,
      "arian": 3044,
      "ĠSen": 3045,
      "iranya": 3046,
      "Ġret": 3047,
      "rak": 3048,
      "Ġpenyakit": 3049,
      "amadhan": 3050,
      "Ġteg": 3051,
      "Ġdag": 3052,
      "iq": 3053,
      "Ġsenang": 3054,
      "Ġdeh": 3055,
      "OP": 3056,
      "inal": 3057,
      "Ġmurah": 3058,
      "land": 3059,
      "ĠTe": 3060,
      "ĠMac": 3061,
      "Ġevery": 3062,
      "RI": 3063,
      "Ġpener": 3064,
      "ĠPin": 3065,
      "Ġperubahan": 3066,
      "Ġtop": 3067,
      "17": 3068,
      "ĠTuhan": 3069,
      "ĠAsia": 3070,
      "Ġanjing": 3071,
      "Ġmenghad": 3072,
      "Ġ.,": 3073,
      "ualan": 3074,
      "Ġji": 3075,
      "ilion": 3076,
      "rasi": 3077,
      "ound": 3078,
      "Ġbagus": 3079,
      "ingat": 3080,
      "dan": 3081,
      "Ġgot": 3082,
      "Ġpengen": 3083,
      "unyi": 3084,
      "Ġaman": 3085,
      "Ġmembaca": 3086,
      "Ġstudy": 3087,
      "ĠDah": 3088,
      "Ġabang": 3089,
      "Ġkas": 3090,
      "Ġwujud": 3091,
      "Ġfaham": 3092,
      "aq": 3093,
      "Mem": 3094,
      "umpah": 3095,
      "ĠKo": 3096,
      "alak": 3097,
      "urat": 3098,
      "Ġ**": 3099,
      "appy": 3100,
      "Ġasas": 3101,
      "Ġterjadi": 3102,
      "AYA": 3103,
      "ode": 3104,
      "Ġsepanjang": 3105,
      "ĠSri": 3106,
      "UAN": 3107,
      "ambahan": 3108,
      "ĠUs": 3109,
      "bang": 3110,
      "ĠJaya": 3111,
      "ejabat": 3112,
      "Ġcap": 3113,
      "Ġlear": 3114,
      "Ġmengur": 3115,
      "Ġhendak": 3116,
      "Ġtep": 3117,
      "Ġhel": 3118,
      "akai": 3119,
      "earch": 3120,
      "ĠRah": 3121,
      "Ġteach": 3122,
      "Ġpolis": 3123,
      "ĠSelatan": 3124,
      "Ġwhen": 3125,
      "ĠGr": 3126,
      "estasi": 3127,
      "Ġsorang": 3128,
      "ĠRaja": 3129,
      "Ġtik": 3130,
      "kanak": 3131,
      "Ġcik": 3132,
      "Ġart": 3133,
      "Ġits": 3134,
      "ĠTidak": 3135,
      "ospital": 3136,
      "ĠTuan": 3137,
      "Ġcons": 3138,
      "dapat": 3139,
      "dua": 3140,
      "osa": 3141,
      "Ġamalan": 3142,
      "olak": 3143,
      "Ġdak": 3144,
      "Ġkadar": 3145,
      "Ġpeople": 3146,
      "ĠIS": 3147,
      "eles": 3148,
      "Ġkisah": 3149,
      "Ġsegi": 3150,
      "Ġcam": 3151,
      "elaskan": 3152,
      "udukan": 3153,
      "Ġsoalan": 3154,
      "Ġtubuh": 3155,
      "Ġkota": 3156,
      "ĠJep": 3157,
      "Ġpengalaman": 3158,
      "ĠBesar": 3159,
      "ĠMer": 3160,
      "Ġ22": 3161,
      "ĠMes": 3162,
      "ken": 3163,
      "iagaan": 3164,
      "Ġeks": 3165,
      "tive": 3166,
      "Ġbod": 3167,
      "aduan": 3168,
      "Ġkac": 3169,
      "Ġmal": 3170,
      "dh": 3171,
      "Ġcor": 3172,
      "ĠDe": 3173,
      "engkap": 3174,
      "alal": 3175,
      "Ġokay": 3176,
      "ium": 3177,
      "Ġsat": 3178,
      "anjung": 3179,
      "etik": 3180,
      "Ġist": 3181,
      "Ġfit": 3182,
      "IB": 3183,
      "PA": 3184,
      "Ġkanak": 3185,
      "Ġfe": 3186,
      "asis": 3187,
      "ĠMemb": 3188,
      "amaan": 3189,
      "pen": 3190,
      "ĠJer": 3191,
      "Ġtgk": 3192,
      "Ġjah": 3193,
      "Ġgw": 3194,
      "ĠOr": 3195,
      "Ġdemikian": 3196,
      "Ġhitam": 3197,
      "saikan": 3198,
      "Ġsegera": 3199,
      "Ġberbeza": 3200,
      "ĠTimur": 3201,
      "Ġinv": 3202,
      "ARA": 3203,
      "com": 3204,
      "rik": 3205,
      "eran": 3206,
      "unuh": 3207,
      "tw": 3208,
      "Ġalat": 3209,
      "Ġ21": 3210,
      "Ġperanan": 3211,
      "ĠIm": 3212,
      "hy": 3213,
      "uz": 3214,
      "ĠFeb": 3215,
      "irim": 3216,
      "Ġperkembangan": 3217,
      "arap": 3218,
      "Ġpi": 3219,
      "Ġgab": 3220,
      "Ġjabatan": 3221,
      "Ġgener": 3222,
      "KAN": 3223,
      "Ġsok": 3224,
      "Ġbagaimana": 3225,
      "kwkw": 3226,
      "Ġmenyediakan": 3227,
      "Ġmemilih": 3228,
      "Ġdemi": 3229,
      "ail": 3230,
      "Ġaf": 3231,
      "Ġget": 3232,
      "Ġdri": 3233,
      "asikan": 3234,
      "Ġlima": 3235,
      "org": 3236,
      "Ġsch": 3237,
      "Ġruang": 3238,
      "Ġberapa": 3239,
      "ĠJan": 3240,
      "Ġhand": 3241,
      "raj": 3242,
      "Ġjawatan": 3243,
      "ikulum": 3244,
      "Ġjgn": 3245,
      "ull": 3246,
      "Ġtertentu": 3247,
      "Ġbayar": 3248,
      "ONG": 3249,
      "hhh": 3250,
      "act": 3251,
      "Ġtweet": 3252,
      "60": 3253,
      "Ġamb": 3254,
      "ĠUN": 3255,
      "reat": 3256,
      "Ġyaa": 3257,
      "Ġnow": 3258,
      "ĠAt": 3259,
      "Ġguys": 3260,
      "embang": 3261,
      "ssalam": 3262,
      "Ke": 3263,
      "Ġhigh": 3264,
      "ĠUMNO": 3265,
      "Ġmanis": 3266,
      "Ġconf": 3267,
      "ies": 3268,
      "Ġtele": 3269,
      "uhu": 3270,
      "amin": 3271,
      "2019": 3272,
      "VE": 3273,
      "Ġstart": 3274,
      "Ġbapak": 3275,
      "ĠKec": 3276,
      "ĠSe": 3277,
      "Ġhukum": 3278,
      "ontoh": 3279,
      "Quran": 3280,
      "ubungi": 3281,
      "Ġlast": 3282,
      "alk": 3283,
      "Ġsolat": 3284,
      "ass": 3285,
      "Ġabout": 3286,
      "Ġbekas": 3287,
      "Ġterdiri": 3288,
      "Ġkenal": 3289,
      "akala": 3290,
      "Ġsemoga": 3291,
      "Ġgaji": 3292,
      "ĠPAS": 3293,
      "EH": 3294,
      "ty": 3295,
      "ĠRakyat": 3296,
      "ake": 3297,
      "Ġpap": 3298,
      "ush": 3299,
      "II": 3300,
      "ĠNor": 3301,
      "Ġmenulis": 3302,
      "Ġcm": 3303,
      "Kami": 3304,
      "ause": 3305,
      "inaan": 3306,
      "Ġunivers": 3307,
      "Ġlaa": 3308,
      "Ġkayak": 3309,
      "Kes": 3310,
      "Ġperkataan": 3311,
      "uatan": 3312,
      "Ġseng": 3313,
      "ĠKau": 3314,
      "Ġbaharu": 3315,
      "inggit": 3316,
      "21": 3317,
      "Ġnggak": 3318,
      "ĠTaman": 3319,
      "ise": 3320,
      "abu": 3321,
      "Ġgad": 3322,
      "alim": 3323,
      "âĢ": 3324,
      "Ġpelajaran": 3325,
      "Ġmenurut": 3326,
      "ĠSemoga": 3327,
      "ĠParlimen": 3328,
      "annya": 3329,
      "Ġresponden": 3330,
      "Ġbener": 3331,
      "andang": 3332,
      "Ġbola": 3333,
      "Ġbilion": 3334,
      "Ġberl": 3335,
      "ĠIbn": 3336,
      "ema": 3337,
      "umen": 3338,
      "ĠAbu": 3339,
      "Ġwkwk": 3340,
      "ukai": 3341,
      "pir": 3342,
      "Ġterakhir": 3343,
      "Ġbapa": 3344,
      "iling": 3345,
      "uck": 3346,
      "Ġbank": 3347,
      "ĠSingap": 3348,
      "eligi": 3349,
      "Orang": 3350,
      "Ġdila": 3351,
      "Ġpekerjaan": 3352,
      "mail": 3353,
      "oa": 3354,
      "ihkan": 3355,
      "ubuhan": 3356,
      "Ġyear": 3357,
      "ĠSungai": 3358,
      "Hahah": 3359,
      "Pem": 3360,
      "wasta": 3361,
      "Ġmengatakan": 3362,
      "Ġsamping": 3363,
      "Ġkenyataan": 3364,
      "Ġdur": 3365,
      "likasi": 3366,
      "Ġcall": 3367,
      "empatan": 3368,
      "rahim": 3369,
      "owo": 3370,
      "velopment": 3371,
      "iaya": 3372,
      "ategi": 3373,
      "ĠMahathir": 3374,
      "hari": 3375,
      "ĠSk": 3376,
      "Ġtepat": 3377,
      "ĠAnd": 3378,
      "masing": 3379,
      "Ġpekerja": 3380,
      "Ġula": 3381,
      "Ġmerasa": 3382,
      "Ġlaut": 3383,
      "Ġ23": 3384,
      "Ġcla": 3385,
      "Ġseter": 3386,
      "ajuk": 3387,
      "ĠIP": 3388,
      "Ġtugas": 3389,
      "TS": 3390,
      "Ġkopi": 3391,
      "Bukan": 3392,
      "insip": 3393,
      "Ġback": 3394,
      "Ġberubah": 3395,
      "Ġ2009": 3396,
      "ĠUtara": 3397,
      "Ġsaid": 3398,
      "Ġlamp": 3399,
      "ton": 3400,
      "Ġmanakala": 3401,
      "ampai": 3402,
      "ĠPerk": 3403,
      "ugh": 3404,
      "Ġgela": 3405,
      "Ġkhas": 3406,
      "angkap": 3407,
      "awah": 3408,
      "ĠNew": 3409,
      "Ġsing": 3410,
      "RT": 3411,
      "inj": 3412,
      "Ġpositif": 3413,
      "Ġtempatan": 3414,
      "Ġsgt": 3415,
      "Ġhow": 3416,
      "ĠTinggi": 3417,
      "Ġhor": 3418,
      "Ġtry": 3419,
      "Ġnangis": 3420,
      "ĠLeb": 3421,
      "arak": 3422,
      "PM": 3423,
      "ĠJadi": 3424,
      "ulit": 3425,
      "Ġpelaksanaan": 3426,
      "epas": 3427,
      "lob": 3428,
      "EW": 3429,
      "Ġali": 3430,
      "ĠPH": 3431,
      "caya": 3432,
      "Ġbir": 3433,
      "Ġsib": 3434,
      "Hal": 3435,
      "Ġterlibat": 3436,
      "25": 3437,
      "ĠTekn": 3438,
      "adbiran": 3439,
      "tikan": 3440,
      "Ġmeh": 3441,
      "Ġyuk": 3442,
      "not": 3443,
      "Ġdengar": 3444,
      "Ġbebas": 3445,
      "Ġsikap": 3446,
      "erita": 3447,
      "Ġ,\"": 3448,
      "erlukan": 3449,
      "Ġkewangan": 3450,
      "Ġdiambil": 3451,
      "Ġdisebabkan": 3452,
      "Ġkakak": 3453,
      "Ġmenjalankan": 3454,
      "lebih": 3455,
      "esanan": 3456,
      "Ġlang": 3457,
      "\")": 3458,
      "andungan": 3459,
      "Ġmilik": 3460,
      "Ġ2017": 3461,
      "ualaikum": 3462,
      "Ġmotor": 3463,
      "tg": 3464,
      "ĠMus": 3465,
      "utang": 3466,
      "Ġshould": 3467,
      "ams": 3468,
      "fore": 3469,
      "Ġev": 3470,
      "Ġujian": 3471,
      "ulasi": 3472,
      "Ġrek": 3473,
      "Ġpur": 3474,
      "Ġasing": 3475,
      "Ġtuk": 3476,
      "Ġkepentingan": 3477,
      "orea": 3478,
      "ST": 3479,
      "be": 3480,
      "Ġdianggap": 3481,
      "nis": 3482,
      "Ġshe": 3483,
      "echn": 3484,
      "Ġtwitter": 3485,
      "uni": 3486,
      "ecah": 3487,
      "ĠPahang": 3488,
      "AMA": 3489,
      "aftar": 3490,
      "ucu": 3491,
      "Ġisteri": 3492,
      "opee": 3493,
      "Ġakibat": 3494,
      "Ġdesa": 3495,
      "Ġmenjaga": 3496,
      "Ġmunc": 3497,
      "let": 3498,
      "ĠTanah": 3499,
      "Ġrakan": 3500,
      "Ġmemerlukan": 3501,
      "Ġlink": 3502,
      "Ġsebarang": 3503,
      "ĠAw": 3504,
      "ke": 3505,
      "Ġpilih": 3506,
      "Ġmemahami": 3507,
      "Ġ40": 3508,
      "bi": 3509,
      "Ġarea": 3510,
      "oin": 3511,
      "KM": 3512,
      "Ġdek": 3513,
      "ujudkan": 3514,
      "ace": 3515,
      "Ġtenaga": 3516,
      "Ġconc": 3517,
      "ĠNasional": 3518,
      "Ġsemalam": 3519,
      "IAN": 3520,
      "Ar": 3521,
      "ĠKampung": 3522,
      "ANGAN": 3523,
      "imu": 3524,
      "arin": 3525,
      "Ġsebahagian": 3526,
      "Ġbanjir": 3527,
      "16": 3528,
      "Ġsee": 3529,
      "angani": 3530,
      "Ġ2013": 3531,
      "ĠPusat": 3532,
      "ĠBi": 3533,
      "Sed": 3534,
      "emuk": 3535,
      "Kenapa": 3536,
      "Ġnas": 3537,
      "okus": 3538,
      "Ġterc": 3539,
      "Ġfamily": 3540,
      "iks": 3541,
      "Ġseterusnya": 3542,
      "Ġkhusus": 3543,
      "Ġru": 3544,
      "sapp": 3545,
      "Ġmeninggal": 3546,
      "Ġbro": 3547,
      "Ġlaw": 3548,
      "ĠEduc": 3549,
      "OH": 3550,
      "lektr": 3551,
      "ĠSal": 3552,
      "reen": 3553,
      "akt": 3554,
      "nt": 3555,
      "45": 3556,
      "Ġkejadian": 3557,
      "Ġuc": 3558,
      "Ġ2015": 3559,
      "EG": 3560,
      "elesaikan": 3561,
      "Ġpengurusan": 3562,
      "Ġbahagia": 3563,
      "Ġwang": 3564,
      "ormat": 3565,
      "Ġkhususnya": 3566,
      "Ġbiasanya": 3567,
      "Ġhujan": 3568,
      "umbuhan": 3569,
      "Ġade": 3570,
      "asakan": 3571,
      "ĠST": 3572,
      "aiz": 3573,
      "This": 3574,
      "utnya": 3575,
      "Ġmembentuk": 3576,
      "Ġlanjut": 3577,
      "eper": 3578,
      "andu": 3579,
      "Ġberjalan": 3580,
      "uter": 3581,
      "Ġmenang": 3582,
      "otel": 3583,
      "lang": 3584,
      "Ġlewat": 3585,
      "Ġover": 3586,
      "ĠKed": 3587,
      "Ġbeen": 3588,
      "its": 3589,
      "ative": 3590,
      "Ġsektor": 3591,
      "ĠBandar": 3592,
      "bat": 3593,
      "Ġpemain": 3594,
      "ĠKu": 3595,
      "mur": 3596,
      "giatan": 3597,
      "Ġbahkan": 3598,
      "Tidak": 3599,
      "ĠKami": 3600,
      "Ġlaporan": 3601,
      "ĠSej": 3602,
      "Ġcol": 3603,
      "set": 3604,
      "Ġinstitusi": 3605,
      "Ġmenghasilkan": 3606,
      "Ġkadang": 3607,
      "Ġdiff": 3608,
      "Ġmark": 3609,
      "enuhi": 3610,
      "fr": 3611,
      "Ġdahulu": 3612,
      "43": 3613,
      "Ġlife": 3614,
      "Kar": 3615,
      "Ġtahan": 3616,
      "Ġemas": 3617,
      "Ġ2012": 3618,
      "jana": 3619,
      "Ġmelayu": 3620,
      "ĠCo": 3621,
      "ĠSyarikat": 3622,
      "Ġkesihatan": 3623,
      "ten": 3624,
      "UP": 3625,
      "Ġkebanyakan": 3626,
      "ĠBatu": 3627,
      "Ġsila": 3628,
      "Ġmb": 3629,
      "Ġ2016": 3630,
      "Ġmengalami": 3631,
      "Ġseni": 3632,
      "upaten": 3633,
      "kr": 3634,
      "Ġkeselamatan": 3635,
      "Ġlaki": 3636,
      "Ġend": 3637,
      "END": 3638,
      "ĠProgram": 3639,
      "Ġpendekatan": 3640,
      "wn": 3641,
      "apaian": 3642,
      "syen": 3643,
      "omen": 3644,
      "oss": 3645,
      "esign": 3646,
      "sek": 3647,
      "adangan": 3648,
      "uji": 3649,
      "afi": 3650,
      "Ġweh": 3651,
      "Ġringgit": 3652,
      "Ġperniagaan": 3653,
      "ety": 3654,
      "Ġskrg": 3655,
      "Ġmuncul": 3656,
      "ĠLe": 3657,
      "Ġsuk": 3658,
      "UH": 3659,
      "ĠDunia": 3660,
      "anyi": 3661,
      "78": 3662,
      "Ġmemas": 3663,
      "Ġbunga": 3664,
      "ayat": 3665,
      "ĠNur": 3666,
      "Ġberusaha": 3667,
      "abil": 3668,
      "Ġperp": 3669,
      "view": 3670,
      "Ġperband": 3671,
      "idah": 3672,
      "Ġdef": 3673,
      "Ġstudents": 3674,
      "Ġeff": 3675,
      "Ġlihat": 3676,
      "aki": 3677,
      "erd": 3678,
      "99": 3679,
      "It": 3680,
      "Ġpemikiran": 3681,
      "Ġasli": 3682,
      "arisan": 3683,
      "Ġkursus": 3684,
      "Ġternyata": 3685,
      "Ġfree": 3686,
      "Ġcalon": 3687,
      "eck": 3688,
      "amakan": 3689,
      "ampaikan": 3690,
      "Ġpub": 3691,
      "iii": 3692,
      "Ġletak": 3693,
      "indak": 3694,
      "ĠBukit": 3695,
      "ĠBh": 3696,
      "omm": 3697,
      "ology": 3698,
      "St": 3699,
      "Ġgroup": 3700,
      "nik": 3701,
      "ĠRam": 3702,
      "pan": 3703,
      "Ġmar": 3704,
      "ron": 3705,
      "Ġhadir": 3706,
      "ving": 3707,
      "Ġsahabat": 3708,
      "Ġben": 3709,
      "elan": 3710,
      "Ġminat": 3711,
      "Ġmusim": 3712,
      "ruari": 3713,
      "Ġperhatian": 3714,
      "Ġmob": 3715,
      "rajaya": 3716,
      "alanan": 3717,
      "23": 3718,
      "lar": 3719,
      "Ġgive": 3720,
      "Ġusah": 3721,
      "geris": 3722,
      "Ġjen": 3723,
      "indah": 3724,
      "ikh": 3725,
      "ild": 3726,
      "Ġpelab": 3727,
      "Ġbersi": 3728,
      "ĠJepun": 3729,
      "Ġhutan": 3730,
      "etapkan": 3731,
      "go": 3732,
      "Ġberbagai": 3733,
      "Ġlong": 3734,
      "elepas": 3735,
      "uga": 3736,
      "Ġemang": 3737,
      "murah": 3738,
      "Ġkeku": 3739,
      "ĠHaji": 3740,
      "Ġck": 3741,
      "phone": 3742,
      "ĠMohamad": 3743,
      "Ġdimana": 3744,
      "umat": 3745,
      "Ġduk": 3746,
      "lamat": 3747,
      "Ġemp": 3748,
      "Assalam": 3749,
      "ampur": 3750,
      "sama": 3751,
      "Ġkedudukan": 3752,
      "ĠMod": 3753,
      "Ġeven": 3754,
      "idi": 3755,
      "Ġteruk": 3756,
      "ĠEk": 3757,
      "gerak": 3758,
      "ute": 3759,
      "ĠAhli": 3760,
      "Semoga": 3761,
      "Ġrm": 3762,
      "Ġkecamatan": 3763,
      "Ġtradisi": 3764,
      "uara": 3765,
      "urangan": 3766,
      "Ġterpak": 3767,
      "Ġpay": 3768,
      "Ġpasangan": 3769,
      "Ġ27": 3770,
      "Ġvery": 3771,
      "Ġkm": 3772,
      "Ġthan": 3773,
      "ilaian": 3774,
      "Ġjg": 3775,
      "Ġbayi": 3776,
      "Keb": 3777,
      "Ġfi": 3778,
      "umpul": 3779,
      "udahkan": 3780,
      "Ġ28": 3781,
      "Ġintern": 3782,
      "Ġmaksud": 3783,
      "iku": 3784,
      "Ġbarat": 3785,
      "Ġdarah": 3786,
      "ping": 3787,
      "ics": 3788,
      "ĠDari": 3789,
      "ĠKamu": 3790,
      "entara": 3791,
      "ĠJam": 3792,
      "UD": 3793,
      "ĠIns": 3794,
      "Ġkahwin": 3795,
      "etul": 3796,
      "son": 3797,
      "Ġsurat": 3798,
      "ĠGuru": 3799,
      "Jom": 3800,
      "Ġsains": 3801,
      "ahaya": 3802,
      "untukan": 3803,
      "orong": 3804,
      "Baru": 3805,
      "Ġprov": 3806,
      "ĠCon": 3807,
      "Ġ196": 3808,
      "Ġharta": 3809,
      "ĠPinang": 3810,
      "ze": 3811,
      "ĠInggeris": 3812,
      "aliknya": 3813,
      "yyah": 3814,
      "RM": 3815,
      "ĠSur": 3816,
      "oll": 3817,
      "Ġlamb": 3818,
      "ĠPK": 3819,
      "tagram": 3820,
      "aturan": 3821,
      "isang": 3822,
      "tian": 3823,
      "impi": 3824,
      "'t": 3825,
      "Ġmembangun": 3826,
      "bum": 3827,
      "Ġtiap": 3828,
      "Ġurusan": 3829,
      "Ġmed": 3830,
      "YAAN": 3831,
      "cs": 3832,
      "ledge": 3833,
      "ĠKam": 3834,
      "ript": 3835,
      "Ġberter": 3836,
      "Ġfood": 3837,
      "Ġdom": 3838,
      "ANT": 3839,
      "Ġrindu": 3840,
      "Ġpetang": 3841,
      "sai": 3842,
      "Ġlari": 3843,
      "Ġpendapatan": 3844,
      "Ġkapal": 3845,
      "Ġnorm": 3846,
      "Ġmendapati": 3847,
      "afs": 3848,
      "Ġbawak": 3849,
      "Ġ2011": 3850,
      "Walaupun": 3851,
      "hal": 3852,
      "Ab": 3853,
      "Ġlainnya": 3854,
      "ementara": 3855,
      "Sekolah": 3856,
      "Ġmenteri": 3857,
      "Ġpegawai": 3858,
      "ĠYANG": 3859,
      "Ġdown": 3860,
      "Ġkang": 3861,
      "Ġgagal": 3862,
      "Ġunt": 3863,
      "Terdapat": 3864,
      "Ġakh": 3865,
      "ystem": 3866,
      "lease": 3867,
      "imbalan": 3868,
      "Ġmalas": 3869,
      "Ġketiga": 3870,
      "uari": 3871,
      "Ġchat": 3872,
      "ĠRasul": 3873,
      "Ġterutama": 3874,
      "red": 3875,
      "istik": 3876,
      "ASA": 3877,
      "Ġterbang": 3878,
      "Ġtas": 3879,
      "Ġfikir": 3880,
      "Ġpokok": 3881,
      "ĠJav": 3882,
      "ĠMasjid": 3883,
      "Antara": 3884,
      "Ġmenerusi": 3885,
      "ĠIt": 3886,
      "ĠInternational": 3887,
      "Ġdisi": 3888,
      "itkan": 3889,
      "oon": 3890,
      "Ġyakin": 3891,
      "uss": 3892,
      "Ġtentera": 3893,
      "Ġshare": 3894,
      "me": 3895,
      "Ġudh": 3896,
      "endang": 3897,
      "ĠAbdullah": 3898,
      "Ġuk": 3899,
      "Ġ26": 3900,
      "Ġsedia": 3901,
      "Ġsusu": 3902,
      "Ġharini": 3903,
      "Ġtud": 3904,
      "Ġswasta": 3905,
      "arai": 3906,
      "Ġread": 3907,
      "wi": 3908,
      "hip": 3909,
      "Ġdirinya": 3910,
      "audara": 3911,
      "the": 3912,
      "Ġhij": 3913,
      "Ġpemerintah": 3914,
      "Ġpant": 3915,
      "Ġtangga": 3916,
      "ft": 3917,
      "dag": 3918,
      "Ġtol": 3919,
      "Sebagai": 3920,
      "oklat": 3921,
      "ĠSed": 3922,
      "ins": 3923,
      "Ġpad": 3924,
      "ĠSelamat": 3925,
      "Ġpengguna": 3926,
      "Ġkerjasama": 3927,
      "Ġalasan": 3928,
      "ĠGo": 3929,
      "TA": 3930,
      "Ġcat": 3931,
      "Ah": 3932,
      "ais": 3933,
      "vis": 3934,
      "Ġkebangsaan": 3935,
      "Ġkarna": 3936,
      "Sej": 3937,
      "Ġmust": 3938,
      "ĠBoleh": 3939,
      "erk": 3940,
      "ĠDAP": 3941,
      "ĠPembangunan": 3942,
      "Ġbg": 3943,
      "ĠNi": 3944,
      "omet": 3945,
      "ĠIbrahim": 3946,
      "ĠFebruari": 3947,
      "rs": 3948,
      "Ġsaw": 3949,
      "Ġ(\"": 3950,
      "Ġund": 3951,
      "awasan": 3952,
      "abung": 3953,
      "ĠNov": 3954,
      "kenalkan": 3955,
      "ĠHas": 3956,
      "Ġsementara": 3957,
      "Ġngan": 3958,
      "asc": 3959,
      "elar": 3960,
      "002000": 3961,
      "TM": 3962,
      "Mak": 3963,
      "Ġgam": 3964,
      "ful": 3965,
      "Kau": 3966,
      "pec": 3967,
      "Ġsud": 3968,
      "ved": 3969,
      "Ġgaya": 3970,
      "200": 3971,
      "baru": 3972,
      "Ġpengajian": 3973,
      "jadi": 3974,
      "Ġterh": 3975,
      "ĠRumah": 3976,
      "ustom": 3977,
      "ĠPERTAN": 3978,
      "Ġajak": 3979,
      "cess": 3980,
      "Ġmodal": 3981,
      "ASI": 3982,
      "emahan": 3983,
      "ĠPi": 3984,
      "for": 3985,
      "Ġotak": 3986,
      "90": 3987,
      "Ġberita": 3988,
      "55": 3989,
      "Ġmil": 3990,
      "tle": 3991,
      "Ġditerima": 3992,
      "38": 3993,
      "ret": 3994,
      "Ġsempat": 3995,
      "ĠHam": 3996,
      "24": 3997,
      "ĠIbu": 3998,
      "Ġpentadbiran": 3999,
      "Ġidea": 4000,
      "ĠSingapura": 4001,
      "irah": 4002,
      "Ġpenyel": 4003,
      "Ġkeras": 4004,
      "ities": 4005,
      "luk": 4006,
      "araf": 4007,
      "Pas": 4008,
      "Ġsifat": 4009,
      "Ġunit": 4010,
      "alikan": 4011,
      "ezaan": 4012,
      "ough": 4013,
      "Itu": 4014,
      "cayaan": 4015,
      "Ġmor": 4016,
      "27": 4017,
      "ĠYus": 4018,
      "Ġterpaksa": 4019,
      "Ġteh": 4020,
      "Ġjanji": 4021,
      "Semua": 4022,
      "ĠIran": 4023,
      "tilah": 4024,
      "EC": 4025,
      "Ġkut": 4026,
      "entar": 4027,
      "nal": 4028,
      "uster": 4029,
      "28": 4030,
      "fo": 4031,
      "olusi": 4032,
      "endiri": 4033,
      "Ġitem": 4034,
      "Ġabis": 4035,
      "Ġpres": 4036,
      "ajak": 4037,
      "kand": 4038,
      "Sebab": 4039,
      "Ġgimana": 4040,
      "Ġsab": 4041,
      "mer": 4042,
      "Ġsuch": 4043,
      "ĠEducation": 4044,
      "iga": 4045,
      "agu": 4046,
      "ps": 4047,
      "ĠPe": 4048,
      "umkan": 4049,
      "SI": 4050,
      "Ġkab": 4051,
      "Ġvia": 4052,
      "ida": 4053,
      "Ġroti": 4054,
      "ikmati": 4055,
      "guna": 4056,
      "Sep": 4057,
      "Ġkemas": 4058,
      "Ġpadahal": 4059,
      "adiah": 4060,
      "Ġprob": 4061,
      "Ġtangg": 4062,
      "Hari": 4063,
      "kira": 4064,
      "ider": 4065,
      "inasi": 4066,
      "Ġmembina": 4067,
      "ĠSab": 4068,
      "ĠKa": 4069,
      "ĠPal": 4070,
      "Ġuang": 4071,
      "asaran": 4072,
      "Ġworld": 4073,
      "Ġmahal": 4074,
      "law": 4075,
      "Ġmalu": 4076,
      "Ġhai": 4077,
      "embagaan": 4078,
      "Setelah": 4079,
      "gab": 4080,
      "He": 4081,
      "Ġmeminta": 4082,
      "Ġhadapan": 4083,
      "Lap": 4084,
      "Ġapi": 4085,
      "ĠJokowi": 4086,
      "Ġelektr": 4087,
      "pakah": 4088,
      "Sh": 4089,
      "Ġ2008": 4090,
      "ating": 4091,
      "Ġlar": 4092,
      "ĠWar": 4093,
      "asiswa": 4094,
      "Ġrah": 4095,
      "Ġketer": 4096,
      "Ġlip": 4097,
      "yen": 4098,
      "irl": 4099,
      "kaji": 4100,
      "Ġcek": 4101,
      "pert": 4102,
      "Ġba": 4103,
      "Ġhehe": 4104,
      "esa": 4105,
      "Ġburuk": 4106,
      "unda": 4107,
      "Ġlevel": 4108,
      "ĠSa": 4109,
      "ĠBank": 4110,
      "Ġ2001": 4111,
      "UB": 4112,
      "Ġberkesan": 4113,
      "OW": 4114,
      "atasi": 4115,
      "âĢ¦": 4116,
      "iko": 4117,
      "olehkan": 4118,
      "ĠSub": 4119,
      "Ġwant": 4120,
      "Ġkandungan": 4121,
      "Ġbalas": 4122,
      "Ġtar": 4123,
      "ĠEx": 4124,
      "erahkan": 4125,
      "ĠUS": 4126,
      "Ġteam": 4127,
      "Ġhere": 4128,
      "lukan": 4129,
      "ĠPERTANYAAN": 4130,
      "ĠTH": 4131,
      "Ġkarya": 4132,
      "Ġway": 4133,
      "Ġsehat": 4134,
      "inkan": 4135,
      "ouse": 4136,
      "ĠHe": 4137,
      "ors": 4138,
      "afah": 4139,
      "Ch": 4140,
      "ĠJawa": 4141,
      "Ġreligi": 4142,
      "ĠPenyelidikan": 4143,
      "ĠSains": 4144,
      "ilem": 4145,
      "imak": 4146,
      "Ġwajib": 4147,
      "Ok": 4148,
      "Ġlearning": 4149,
      "Ġafter": 4150,
      "oni": 4151,
      "atian": 4152,
      "syar": 4153,
      "Ġsekiranya": 4154,
      "ward": 4155,
      "uhnya": 4156,
      "epan": 4157,
      "erit": 4158,
      "incangan": 4159,
      "pd": 4160,
      "Ġataupun": 4161,
      "Ġkesalahan": 4162,
      "ancang": 4163,
      "Ġpekan": 4164,
      "ĠKabupaten": 4165,
      "Ġlokasi": 4166,
      "ahh": 4167,
      "Ġinst": 4168,
      "ĠUniversity": 4169,
      "ADA": 4170,
      "Ġselesai": 4171,
      "intang": 4172,
      "ĠUt": 4173,
      "Ġep": 4174,
      "Ġdijadikan": 4175,
      "Ġsemuanya": 4176,
      "Ġsmp": 4177,
      "Dis": 4178,
      "jektif": 4179,
      "Sy": 4180,
      "ĠJanuari": 4181,
      "Ġdikatakan": 4182,
      "uki": 4183,
      "Ġmerujuk": 4184,
      "allah": 4185,
      "Ġtaknak": 4186,
      "Ġsokongan": 4187,
      "Ġterutamanya": 4188,
      "alat": 4189,
      "anggar": 4190,
      "po": 4191,
      "do": 4192,
      "aib": 4193,
      "ĠEh": 4194,
      "Ġpembinaan": 4195,
      "PP": 4196,
      "Ġtambah": 4197,
      "Bi": 4198,
      "Ġeduc": 4199,
      "26": 4200,
      "Ġutara": 4201,
      "ecara": 4202,
      "ĠMAL": 4203,
      "ompok": 4204,
      "ĠKur": 4205,
      "other": 4206,
      "Ġaktif": 4207,
      "Ġdeng": 4208,
      "emui": 4209,
      "ling": 4210,
      "erhana": 4211,
      "ĠBe": 4212,
      "Ġterkenal": 4213,
      "Ġreg": 4214,
      "Ġright": 4215,
      "kar": 4216,
      "Ġreal": 4217,
      "Ġberhubung": 4218,
      "elek": 4219,
      "Ġmengenal": 4220,
      "dasarkan": 4221,
      "aft": 4222,
      "Ġharapan": 4223,
      "Ġmajlis": 4224,
      "hing": 4225,
      "Ġhmm": 4226,
      "Ġps": 4227,
      "Ġperis": 4228,
      "rom": 4229,
      "Ġpenyelidikan": 4230,
      "alagi": 4231,
      "idur": 4232,
      "oot": 4233,
      "eral": 4234,
      "Ġsepak": 4235,
      "Ġngga": 4236,
      "gunaan": 4237,
      "ajuan": 4238,
      "Ġpenat": 4239,
      "Ġ29": 4240,
      "Ġterbuka": 4241,
      "Ġperjalanan": 4242,
      "ĠUm": 4243,
      "zz": 4244,
      "ertai": 4245,
      "ĠAgama": 4246,
      "Ġmenghadapi": 4247,
      "Ġlampu": 4248,
      "ĠAziz": 4249,
      "Ġinto": 4250,
      "Ġvi": 4251,
      "Ġdoa": 4252,
      "Ġdaya": 4253,
      "Ġmeningkat": 4254,
      "Malaysia": 4255,
      "ascript": 4256,
      "Boleh": 4257,
      "Ġdec": 4258,
      "UA": 4259,
      "Ġsiang": 4260,
      "ĠMana": 4261,
      "ĠJavascript": 4262,
      "Ġmenjelaskan": 4263,
      "ahanan": 4264,
      "andungi": 4265,
      "Ġpandai": 4266,
      "Ġdisc": 4267,
      "Ġmama": 4268,
      "Ġhid": 4269,
      "ĠWhat": 4270,
      "ĠTok": 4271,
      "Ġlemak": 4272,
      "ĠKajian": 4273,
      "ince": 4274,
      "Ġbertujuan": 4275,
      "ĠAbd": 4276,
      "Ġkegiatan": 4277,
      "incangkan": 4278,
      "ampus": 4279,
      "Ġremaja": 4280,
      "Ġdrama": 4281,
      "Ġkekal": 4282,
      "Ġpre": 4283,
      "Ġnaf": 4284,
      "dagangan": 4285,
      "==": 4286,
      "Kuala": 4287,
      "Ġear": 4288,
      "Ġstat": 4289,
      "Ġperut": 4290,
      "ĠMakan": 4291,
      "Ġorganisasi": 4292,
      "iksaan": 4293,
      "ĠSup": 4294,
      "uruf": 4295,
      "awarkan": 4296,
      "Ġdoang": 4297,
      "Ni": 4298,
      "eluarga": 4299,
      "Ġterm": 4300,
      "Ġhuman": 4301,
      "Ġwell": 4302,
      "Ġpantai": 4303,
      "ĠDengan": 4304,
      "Ġfriend": 4305,
      "andard": 4306,
      "ĠWilayah": 4307,
      "ĠIsmail": 4308,
      "esh": 4309,
      "Ġpasaran": 4310,
      "Ġmuslim": 4311,
      "ĠItu": 4312,
      "Ġdiffer": 4313,
      "Ġstatus": 4314,
      "ĠTerima": 4315,
      "Kep": 4316,
      "atau": 4317,
      "ween": 4318,
      "arti": 4319,
      "Ġmom": 4320,
      "Ġapakah": 4321,
      "Ġdkt": 4322,
      "Nya": 4323,
      "akak": 4324,
      "Ġsun": 4325,
      "Seh": 4326,
      "Ġtanggungjawab": 4327,
      "Ġbau": 4328,
      "anian": 4329,
      "orry": 4330,
      "Pemb": 4331,
      "ĠBN": 4332,
      "Islam": 4333,
      "fit": 4334,
      "ipta": 4335,
      "70": 4336,
      "Ġsesiapa": 4337,
      "Ġdisebut": 4338,
      "Ġteb": 4339,
      "Ġbangunan": 4340,
      "Ġur": 4341,
      "Ġmany": 4342,
      "Ġbac": 4343,
      "alsafah": 4344,
      "ĠRamadhan": 4345,
      "Ġsent": 4346,
      "Ġdm": 4347,
      "Ġckp": 4348,
      "enangan": 4349,
      "Ġsungai": 4350,
      "ĠPM": 4351,
      "Pend": 4352,
      "Ġpus": 4353,
      "Ġinfo": 4354,
      "Ġcuti": 4355,
      "Ġbecause": 4356,
      "Ġberasaskan": 4357,
      "una": 4358,
      "ubuhkan": 4359,
      "Ġperbandaran": 4360,
      "Ġ60": 4361,
      "awang": 4362,
      "ĠNasi": 4363,
      "Ġplay": 4364,
      "porkan": 4365,
      "Ġantarabangsa": 4366,
      "ĠYB": 4367,
      "udian": 4368,
      "untut": 4369,
      "elam": 4370,
      "ekalkan": 4371,
      "Ġsebaga": 4372,
      "ombor": 4373,
      "Ġstrategi": 4374,
      "ject": 4375,
      "Assalamualaikum": 4376,
      "Ġape": 4377,
      "Ġnikah": 4378,
      "rough": 4379,
      "ept": 4380,
      "ALA": 4381,
      "Ġdapet": 4382,
      "antara": 4383,
      "ALAN": 4384,
      "ale": 4385,
      "ĠDir": 4386,
      "Ġshow": 4387,
      "etapi": 4388,
      "ENTERI": 4389,
      "takkan": 4390,
      "Ġmangsa": 4391,
      "bo": 4392,
      "Ġbutuh": 4393,
      "Ġhang": 4394,
      "Ġmendengar": 4395,
      "Ġmintak": 4396,
      "Ġmalaysia": 4397,
      "Ġkalah": 4398,
      "irm": 4399,
      "OC": 4400,
      "Ġberhenti": 4401,
      "anggup": 4402,
      "ope": 4403,
      "elanj": 4404,
      "Ġakun": 4405,
      "uali": 4406,
      "NYA": 4407,
      "dr": 4408,
      "Ġpencapaian": 4409,
      "Ġminit": 4410,
      "YAT": 4411,
      "Ġbagian": 4412,
      "ution": 4413,
      "Ġki": 4414,
      "Ġmenjawab": 4415,
      "Perk": 4416,
      "Ġpendapat": 4417,
      "Ġsehari": 4418,
      "lahkan": 4419,
      "Ġsepen": 4420,
      "akwa": 4421,
      "Ġtimur": 4422,
      "ĠNabi": 4423,
      "Ġthese": 4424,
      "iring": 4425,
      "mah": 4426,
      "adik": 4427,
      "oke": 4428,
      "Ġlengkap": 4429,
      "Ġanti": 4430,
      "Ġharap": 4431,
      "Ġiya": 4432,
      "Ġpeserta": 4433,
      "syarah": 4434,
      "iput": 4435,
      "umbang": 4436,
      "encana": 4437,
      "ire": 4438,
      "Ġrequ": 4439,
      "Ġpemerintahan": 4440,
      "Ġtek": 4441,
      "Ġmemenuhi": 4442,
      "Ġciri": 4443,
      "Ġmiskin": 4444,
      "Ġmenuju": 4445,
      "egah": 4446,
      "ĠJerman": 4447,
      "Ġer": 4448,
      "Ġmost": 4449,
      "lobal": 4450,
      "imbang": 4451,
      "Ġsebagainya": 4452,
      "ĠBud": 4453,
      "bb": 4454,
      "Ġpinj": 4455,
      "Ġprinsip": 4456,
      "entera": 4457,
      "Ġmengajar": 4458,
      "ibadi": 4459,
      "Ġkant": 4460,
      "irian": 4461,
      "Ġrasanya": 4462,
      "sen": 4463,
      "ĠSemua": 4464,
      "engaruhi": 4465,
      "Ġmaju": 4466,
      "Ġbabi": 4467,
      "Ġplan": 4468,
      "esen": 4469,
      "AMP": 4470,
      "Ma": 4471,
      "meng": 4472,
      "ĠPutrajaya": 4473,
      "Ġpingg": 4474,
      "Ind": 4475,
      "Ġdiadakan": 4476,
      "Ġlib": 4477,
      "Ġsyarat": 4478,
      "Ġamp": 4479,
      "Ġlahir": 4480,
      "Ġpersek": 4481,
      "Ġsihat": 4482,
      "ĠMad": 4483,
      "Ġdapur": 4484,
      "ude": 4485,
      "Ġperuntukan": 4486,
      "undi": 4487,
      "amkan": 4488,
      "Ġpengan": 4489,
      "ester": 4490,
      "Ġsayur": 4491,
      "ATAN": 4492,
      "44": 4493,
      "Ġbersih": 4494,
      "emua": 4495,
      "Ġlayan": 4496,
      "Ġcoba": 4497,
      "Ġwould": 4498,
      "ĠAkta": 4499,
      "ĠAman": 4500,
      "Ġmi": 4501,
      "KW": 4502,
      "ĠOR": 4503,
      "Sementara": 4504,
      "urunan": 4505,
      "oalan": 4506,
      "less": 4507,
      "EE": 4508,
      "Ġbad": 4509,
      "egori": 4510,
      "Ġmengandungi": 4511,
      "but": 4512,
      "Ġacara": 4513,
      "andingan": 4514,
      "ĠKan": 4515,
      "ĠTah": 4516,
      "Ġhutang": 4517,
      "Ġcl": 4518,
      "Ġmembolehkan": 4519,
      "Ġserius": 4520,
      "Ġsaling": 4521,
      "Ġganti": 4522,
      "umur": 4523,
      "aih": 4524,
      "Ġlog": 4525,
      "Ġnga": 4526,
      "ĠKej": 4527,
      "Ġbaj": 4528,
      "alakkan": 4529,
      "hhhh": 4530,
      "ehatan": 4531,
      "Ġrasmi": 4532,
      "afe": 4533,
      "ever": 4534,
      "ongsi": 4535,
      "ipt": 4536,
      "ANA": 4537,
      "Ġimport": 4538,
      "jo": 4539,
      "erial": 4540,
      "Ġnonton": 4541,
      "33": 4542,
      "iss": 4543,
      "ulus": 4544,
      "nif": 4545,
      "Ġpolit": 4546,
      "Ġbetween": 4547,
      "vern": 4548,
      "asatan": 4549,
      "Ġsta": 4550,
      "astr": 4551,
      "Ġef": 4552,
      "ĠKomun": 4553,
      "ĠProf": 4554,
      "Ġtg": 4555,
      "Ġklo": 4556,
      "Ketika": 4557,
      "lej": 4558,
      "Ġtentu": 4559,
      "Ġ\",": 4560,
      "Hahaha": 4561,
      "ATI": 4562,
      "itaran": 4563,
      "Ġterg": 4564,
      "Ġpac": 4565,
      "Ġthose": 4566,
      "Ġbumi": 4567,
      "zi": 4568,
      "pro": 4569,
      "Ġbakar": 4570,
      "Tuan": 4571,
      "Ġtanda": 4572,
      "Ġabad": 4573,
      "Ġtaw": 4574,
      "Ġnie": 4575,
      "Ġmempert": 4576,
      "Ġonline": 4577,
      "Har": 4578,
      "ĠSept": 4579,
      "Ġmeninggalkan": 4580,
      "ĠRaz": 4581,
      "Ġyak": 4582,
      "Ġtukang": 4583,
      "Ġyo": 4584,
      "Terima": 4585,
      "Ġyah": 4586,
      "Ġtutup": 4587,
      "esis": 4588,
      "ĠBisa": 4589,
      "back": 4590,
      "Ġkonteks": 4591,
      "Ġna": 4592,
      "Ġhp": 4593,
      "emerl": 4594,
      "Ġpeningkatan": 4595,
      "Ġmengetahui": 4596,
      "Ġislam": 4597,
      "Ġtekan": 4598,
      "enci": 4599,
      "Ġdisini": 4600,
      "enya": 4601,
      "Ġlook": 4602,
      "enter": 4603,
      "ĠNas": 4604,
      "Ġhappy": 4605,
      "ewasa": 4606,
      "awapan": 4607,
      "enarkan": 4608,
      "AGI": 4609,
      "ĠBahan": 4610,
      "unci": 4611,
      "Kamu": 4612,
      "ĠAust": 4613,
      "Ġcle": 4614,
      "ove": 4615,
      "Ġ2007": 4616,
      "Ġulama": 4617,
      "Ġkuliah": 4618,
      "uluh": 4619,
      "88": 4620,
      "ohong": 4621,
      "mak": 4622,
      "ocok": 4623,
      "Ġcond": 4624,
      "ĠTeknologi": 4625,
      "ĠNg": 4626,
      "ober": 4627,
      "edaran": 4628,
      "ĠPengajian": 4629,
      "Ġoperasi": 4630,
      "Ġnamanya": 4631,
      "ves": 4632,
      "ĠSemb": 4633,
      "Sebelum": 4634,
      "Ġcoklat": 4635,
      "Ġsibuk": 4636,
      "Ġangin": 4637,
      "kwkwk": 4638,
      "Ġtun": 4639,
      "by": 4640,
      "Ġsl": 4641,
      "yuarat": 4642,
      "ering": 4643,
      "Ġ!\"": 4644,
      "Ġtambahan": 4645,
      "ustak": 4646,
      "Ġtepi": 4647,
      "Ġbermain": 4648,
      "esional": 4649,
      "Ġfokus": 4650,
      "Ġpu": 4651,
      "umahan": 4652,
      "Ġknowledge": 4653,
      "ĠSEM": 4654,
      "emuan": 4655,
      "ĠRasulullah": 4656,
      "Ġlove": 4657,
      "Ġberku": 4658,
      "asnya": 4659,
      "Ġmag": 4660,
      "Ġdana": 4661,
      "Ġbagaimanapun": 4662,
      "ehat": 4663,
      "Ġdiperoleh": 4664,
      "Ġig": 4665,
      "Ġcadangan": 4666,
      "ournal": 4667,
      "Ġgame": 4668,
      "Ġmajor": 4669,
      "ediaan": 4670,
      "Ses": 4671,
      "Ġterbesar": 4672,
      "Siapa": 4673,
      "Ked": 4674,
      "Ġsupport": 4675,
      "ianya": 4676,
      "Ġmewujudkan": 4677,
      "ĠOn": 4678,
      "aring": 4679,
      "ĠPel": 4680,
      "Ġbefore": 4681,
      "br": 4682,
      "ĠDaerah": 4683,
      "pp": 4684,
      "ĠAnak": 4685,
      "ĠBin": 4686,
      "Ġass": 4687,
      "57": 4688,
      "Ġkene": 4689,
      "Mau": 4690,
      "Ġresearch": 4691,
      "alangan": 4692,
      "ason": 4693,
      "Ġ2006": 4694,
      "Ġbio": 4695,
      "Ġopen": 4696,
      "Ġsig": 4697,
      "cial": 4698,
      "Hasil": 4699,
      "Ġberpend": 4700,
      "leksi": 4701,
      "Ġtulisan": 4702,
      "icara": 4703,
      "Maka": 4704,
      "Ġkertas": 4705,
      "Ġsedar": 4706,
      "ĠAceh": 4707,
      "Ġbersifat": 4708,
      "Ġbor": 4709,
      "100": 4710,
      "Setiap": 4711,
      "ĠMEN": 4712,
      "ejut": 4713,
      "vice": 4714,
      "tual": 4715,
      "TER": 4716,
      "Ġschool": 4717,
      "Ġmembuka": 4718,
      "ator": 4719,
      "ĠSel": 4720,
      "tera": 4721,
      "Ġresult": 4722,
      "Kalo": 4723,
      "tiba": 4724,
      "ĠBila": 4725,
      "ĠNajib": 4726,
      "Ġour": 4727,
      "osed": 4728,
      "juangan": 4729,
      "Ġkemudahan": 4730,
      "ukung": 4731,
      "ange": 4732,
      "Ġkad": 4733,
      "Ġpelanc": 4734,
      "LAH": 4735,
      "36": 4736,
      "ĠII": 4737,
      "umpang": 4738,
      "Ġberusia": 4739,
      "ainkan": 4740,
      "Ġberharap": 4741,
      "Ġloh": 4742,
      "Ġdiperlukan": 4743,
      "emukan": 4744,
      "Ġaz": 4745,
      "Ġcour": 4746,
      "lus": 4747,
      "usteru": 4748,
      "KL": 4749,
      "Ġagensi": 4750,
      "Ġ:'": 4751,
      "ĠKerja": 4752,
      "ĠDM": 4753,
      "ĠSatu": 4754,
      "Ġatt": 4755,
      "anakala": 4756,
      "Ġkitab": 4757,
      "Ġthrough": 4758,
      "Ġmenyelesaikan": 4759,
      "CT": 4760,
      "ĠFak": 4761,
      "Ġmanfaat": 4762,
      "fah": 4763,
      "Ġperbezaan": 4764,
      "ĠKenapa": 4765,
      "Ġkond": 4766,
      "Ġtoo": 4767,
      "gain": 4768,
      "Ġ2004": 4769,
      "ĠAM": 4770,
      "Kajian": 4771,
      "Ġkamar": 4772,
      "ugerah": 4773,
      "Ġpal": 4774,
      "Ġpisang": 4775,
      "alitas": 4776,
      "Ġnon": 4777,
      "eman": 4778,
      "ungkan": 4779,
      "ĠTengah": 4780,
      "Ġref": 4781,
      "GI": 4782,
      "HH": 4783,
      "Selepas": 4784,
      "Ġlepak": 4785,
      "ĠMahkamah": 4786,
      "oma": 4787,
      "ĠSeptember": 4788,
      "Ġpemer": 4789,
      "ony": 4790,
      "Ġtarik": 4791,
      "AND": 4792,
      "Katanya": 4793,
      "Ġluas": 4794,
      "Ġberper": 4795,
      "ahahaha": 4796,
      "Ġunder": 4797,
      "...": 4798,
      "JA": 4799,
      "Ġrun": 4800,
      "iness": 4801,
      "Ġmerangk": 4802,
      "ĠMENTERI": 4803,
      "ayan": 4804,
      "Ġav": 4805,
      "Ġmenentukan": 4806,
      "ungguhnya": 4807,
      "Ġlayak": 4808,
      "Ġusia": 4809,
      "Ġsukar": 4810,
      "ĠSeminar": 4811,
      "Ġmutualan": 4812,
      "Ġ31": 4813,
      "ipas": 4814,
      "ulakan": 4815,
      "Ġbrow": 4816,
      "umaat": 4817,
      "Ġkering": 4818,
      "PER": 4819,
      "Ġmenambah": 4820,
      "ĠSyariah": 4821,
      "Ġri": 4822,
      "Ġtake": 4823,
      "Ġsituasi": 4824,
      "ility": 4825,
      "jur": 4826,
      "elahirkan": 4827,
      "Ġmeneg": 4828,
      "Ġaq": 4829,
      "ĠBat": 4830,
      "ĠBar": 4831,
      "tah": 4832,
      "Ġpenulisan": 4833,
      "usahaan": 4834,
      "ĠDato": 4835,
      "ĠSH": 4836,
      "Ġcikgu": 4837,
      "yukur": 4838,
      "Satu": 4839,
      "ebook": 4840,
      "ills": 4841,
      "Ġuniversiti": 4842,
      "erst": 4843,
      "Ġkurus": 4844,
      "Ġindah": 4845,
      "eee": 4846,
      "Ġtenang": 4847,
      "Ġmenangis": 4848,
      "Ġrest": 4849,
      "Ġadmin": 4850,
      "95": 4851,
      "48": 4852,
      "Ġsemata": 4853,
      "gos": 4854,
      "erusi": 4855,
      "Ġmengaku": 4856,
      "Ġcommun": 4857,
      "Ġuse": 4858,
      "35": 4859,
      "ritish": 4860,
      "ĠBagi": 4861,
      "Ġalbum": 4862,
      "enaran": 4863,
      "Ġfin": 4864,
      "indonesia": 4865,
      "Ġbla": 4866,
      "Ġwah": 4867,
      "Ġmuk": 4868,
      "akkan": 4869,
      "ainan": 4870,
      "taz": 4871,
      "Ġhuruf": 4872,
      "ĠFac": 4873,
      "bor": 4874,
      "Ġkematian": 4875,
      "Ġpah": 4876,
      "Ġproblem": 4877,
      "Ġadanya": 4878,
      "Ġhat": 4879,
      "Ġtiket": 4880,
      "Ġhospital": 4881,
      "onik": 4882,
      "amak": 4883,
      "ĠSes": 4884,
      "Banyak": 4885,
      "Ġtukar": 4886,
      "Ġkebaikan": 4887,
      "olehan": 4888,
      "ĠTrans": 4889,
      "tau": 4890,
      "For": 4891,
      "Ġmulut": 4892,
      "Ġsebulan": 4893,
      "ĠHad": 4894,
      "indungi": 4895,
      "ancarkan": 4896,
      "Ġkacang": 4897,
      "ĠPh": 4898,
      "Harga": 4899,
      "ĠDasar": 4900,
      "impan": 4901,
      "Ġmengeluarkan": 4902,
      "Ġec": 4903,
      "tinya": 4904,
      "osk": 4905,
      "ĠAB": 4906,
      "Ġspec": 4907,
      "umbangan": 4908,
      "aun": 4909,
      "Ġmengurangkan": 4910,
      "Ġnger": 4911,
      "ible": 4912,
      "apatkan": 4913,
      "mata": 4914,
      "Ġpengg": 4915,
      "UMP": 4916,
      "Ġberi": 4917,
      "Ġmimpi": 4918,
      "Ġkre": 4919,
      "ora": 4920,
      "ahasa": 4921,
      "Ġberasal": 4922,
      "Ġjoin": 4923,
      "Ġmengikuti": 4924,
      "Ġbaby": 4925,
      "Ġdibawa": 4926,
      "anjian": 4927,
      "ampuan": 4928,
      "emukakan": 4929,
      "Ġbertemu": 4930,
      "Ġpertanian": 4931,
      "Ġ_": 4932,
      "Ġpuas": 4933,
      "Ġleb": 4934,
      "urna": 4935,
      "Ġdidapati": 4936,
      "pirasi": 4937,
      "imana": 4938,
      "erintah": 4939,
      "ikel": 4940,
      "ĠTa": 4941,
      "anggu": 4942,
      "Ġelok": 4943,
      "Ġbernama": 4944,
      "Ġkomuniti": 4945,
      "ences": 4946,
      "Ġbilangan": 4947,
      "Ġbuang": 4948,
      "Ġmenya": 4949,
      "ĠNovember": 4950,
      "Ġpanggil": 4951,
      "ĠPolis": 4952,
      "Ġtat": 4953,
      "Ġtwo": 4954,
      "enj": 4955,
      "lok": 4956,
      "ulti": 4957,
      "Ġlaku": 4958,
      "Ġjarang": 4959,
      "ongs": 4960,
      "ĠKorea": 4961,
      "Ġdihad": 4962,
      "Ġ2000": 4963,
      "ĠPEN": 4964,
      "Ġfeel": 4965,
      "Ġclass": 4966,
      "Ġhebat": 4967,
      "Ġberani": 4968,
      "Ġkejayaan": 4969,
      "usun": 4970,
      "minat": 4971,
      "imah": 4972,
      "Ġmental": 4973,
      "Ġkekuatan": 4974,
      "Ġterasa": 4975,
      "ademik": 4976,
      "leks": 4977,
      "Ġred": 4978,
      "yung": 4979,
      "Ġsebaliknya": 4980,
      "lahan": 4981,
      "put": 4982,
      "engok": 4983,
      "Ġleg": 4984,
      "Ġcre": 4985,
      "imin": 4986,
      "Ġbermaksud": 4987,
      "Kerajaan": 4988,
      "ĠEkonomi": 4989,
      "Min": 4990,
      "Pers": 4991,
      "ĠImam": 4992,
      "Ġsanggup": 4993,
      "ene": 4994,
      "Ġcustom": 4995,
      "Ġtido": 4996,
      "Ġmenunggu": 4997,
      "reak": 4998,
      "Ġweek": 4999,
      "Ġkain": 5000,
      "Ġsystem": 5001,
      "Ġsame": 5002,
      "Ġketua": 5003,
      "ĠJika": 5004,
      "Ġdat": 5005,
      "fon": 5006,
      "omong": 5007,
      "anggan": 5008,
      "sk": 5009,
      "iland": 5010,
      "Ġteori": 5011,
      "Ġrapat": 5012,
      "Ġlead": 5013,
      "raya": 5014,
      "96": 5015,
      "rb": 5016,
      "Ġkecik": 5017,
      "Ġbesok": 5018,
      "ĠPerl": 5019,
      "Ġsaham": 5020,
      "Ġperform": 5021,
      "ĠLap": 5022,
      "Ġjiwa": 5023,
      "ĠRo": 5024,
      "Ġkualiti": 5025,
      "Ġperbincangan": 5026,
      "500": 5027,
      "ness": 5028,
      "Ġche": 5029,
      "alth": 5030,
      "ĠCor": 5031,
      "ĠPenang": 5032,
      "BN": 5033,
      "Salah": 5034,
      "ukaan": 5035,
      "yle": 5036,
      "lebihan": 5037,
      "Manakala": 5038,
      "eras": 5039,
      "Ġfat": 5040,
      "Ġdikeluarkan": 5041,
      "ĠSun": 5042,
      "Ġindonesia": 5043,
      "ĠBur": 5044,
      "abowo": 5045,
      "edar": 5046,
      "you": 5047,
      "Ġtingk": 5048,
      "gement": 5049,
      "Ġlapangan": 5050,
      "AF": 5051,
      "Ġmengadakan": 5052,
      "Ġsaudara": 5053,
      "ĠTindakan": 5054,
      "Ġkehilangan": 5055,
      "ĠSya": 5056,
      "ĠMau": 5057,
      "omo": 5058,
      "haz": 5059,
      "ganya": 5060,
      "Ġlembut": 5061,
      "Ġenam": 5062,
      "Ġlemah": 5063,
      "....": 5064,
      "ĠFat": 5065,
      "iron": 5066,
      "Ġalias": 5067,
      "ĠKarena": 5068,
      "amar": 5069,
      "cc": 5070,
      "Ġminuman": 5071,
      "Ġmembeli": 5072,
      "Ġmade": 5073,
      "Ġty": 5074,
      "Ġpower": 5075,
      "Ġmelahirkan": 5076,
      "amba": 5077,
      "Ġ2005": 5078,
      "ĠBritish": 5079,
      "PK": 5080,
      "Ġdisediakan": 5081,
      "Ġpenilaian": 5082,
      "Ġperbuatan": 5083,
      "Ġlist": 5084,
      "ĠHAHAH": 5085,
      "Ġpasar": 5086,
      "kip": 5087,
      "Ġsignif": 5088,
      "linik": 5089,
      "Ġhm": 5090,
      "Ġsetahun": 5091,
      "alaysian": 5092,
      "Salam": 5093,
      "ters": 5094,
      "Ġsw": 5095,
      "eluk": 5096,
      "Ġmobil": 5097,
      "nd": 5098,
      "ĠInstit": 5099,
      "ĠEd": 5100,
      "Mes": 5101,
      "ĠMAS": 5102,
      "ĠJl": 5103,
      "ĠTur": 5104,
      "Ġpakaian": 5105,
      "ision": 5106,
      "Ġemosi": 5107,
      "LE": 5108,
      "ĠTerbang": 5109,
      "Ġkelapa": 5110,
      "Ġsocial": 5111,
      "ilu": 5112,
      "ĠBag": 5113,
      "ĠMy": 5114,
      "Ġtimb": 5115,
      "kalau": 5116,
      "Ġkosong": 5117,
      "ĠOkt": 5118,
      "Ġdevelopment": 5119,
      "imal": 5120,
      "enggara": 5121,
      "Ġjualan": 5122,
      "ĠYg": 5123,
      "ental": 5124,
      "dia": 5125,
      "yik": 5126,
      "Ġgeng": 5127,
      "uuu": 5128,
      "Mela": 5129,
      "Ġsepenuhnya": 5130,
      "ĠGer": 5131,
      "ĠHi": 5132,
      "ondon": 5133,
      "ALAM": 5134,
      "enek": 5135,
      "Hai": 5136,
      "Ġjemp": 5137,
      "yid": 5138,
      "Ġbatik": 5139,
      "ĠSah": 5140,
      "ahwinan": 5141,
      "ĠWah": 5142,
      "Ġpri": 5143,
      "ĠSp": 5144,
      "ajikan": 5145,
      "Ġcur": 5146,
      "Ġmatlamat": 5147,
      "ĠTi": 5148,
      "isu": 5149,
      "ĠAntar": 5150,
      "Ġtamp": 5151,
      "emas": 5152,
      "Buat": 5153,
      "AKAN": 5154,
      "Ġkepercayaan": 5155,
      "ict": 5156,
      "mn": 5157,
      "ĠRahman": 5158,
      "Iya": 5159,
      "kat": 5160,
      "yatakan": 5161,
      "akna": 5162,
      "umumkan": 5163,
      "enderaan": 5164,
      "iner": 5165,
      "Ġdipilih": 5166,
      "Ġbukti": 5167,
      "nam": 5168,
      "lawanan": 5169,
      "ĠMel": 5170,
      "77": 5171,
      "Ġnasib": 5172,
      "egitu": 5173,
      "Ġkomunikasi": 5174,
      "eberapa": 5175,
      "Ġlakukan": 5176,
      "Ġreally": 5177,
      "hailand": 5178,
      "Ġskin": 5179,
      "luar": 5180,
      "Ġdaging": 5181,
      "Ġsederhana": 5182,
      "ĠHidup": 5183,
      "Ġstress": 5184,
      "astruktur": 5185,
      "Ġmean": 5186,
      "Ġulang": 5187,
      "upanya": 5188,
      "ĠBas": 5189,
      "Ġhahahaha": 5190,
      "Apabila": 5191,
      "Ġ2003": 5192,
      "elesaian": 5193,
      "ature": 5194,
      "Ġfull": 5195,
      "Ġsya": 5196,
      "BM": 5197,
      "Ġinsan": 5198,
      "Ġdadah": 5199,
      "Ġband": 5200,
      "adilan": 5201,
      "Ġgk": 5202,
      "ARAN": 5203,
      "ĠJulai": 5204,
      "ume": 5205,
      "Ġdeg": 5206,
      "ayakan": 5207,
      "ancar": 5208,
      "Ġgigi": 5209,
      "ĠWanita": 5210,
      "Ġetnik": 5211,
      "Ġbergantung": 5212,
      "Ser": 5213,
      "Ġpertumbuhan": 5214,
      "Ġpejabat": 5215,
      "witter": 5216,
      "80": 5217,
      "Ġagain": 5218,
      "Ġhalal": 5219,
      "ĠRAK": 5220,
      "ĠWak": 5221,
      "anyaan": 5222,
      "Ġask": 5223,
      "Ġcew": 5224,
      "Ġmenyokong": 5225,
      "pet": 5226,
      "rian": 5227,
      "Ġpatut": 5228,
      "Ġsumpah": 5229,
      "Ġbelanja": 5230,
      "Ġgula": 5231,
      "intaan": 5232,
      "aper": 5233,
      "uage": 5234,
      "PS": 5235,
      "Pol": 5236,
      "Ġcukai": 5237,
      "dn": 5238,
      "ono": 5239,
      "arakan": 5240,
      "ĠLat": 5241,
      "Ġcheck": 5242,
      "incang": 5243,
      "ĠTimbalan": 5244,
      "Ġgel": 5245,
      "Ġbertindak": 5246,
      "ĠMo": 5247,
      "Hi": 5248,
      "Ġdll": 5249,
      "away": 5250,
      "isiatif": 5251,
      "Ġub": 5252,
      "omor": 5253,
      "Ġdie": 5254,
      "Tah": 5255,
      "Ġtdk": 5256,
      "ohor": 5257,
      "elajari": 5258,
      "ilangkan": 5259,
      "ĠSiapa": 5260,
      "eme": 5261,
      "Ġringk": 5262,
      "Ġpersoalan": 5263,
      "Ġmenikmati": 5264,
      "ĠMenengah": 5265,
      "Ġmov": 5266,
      "Ġraja": 5267,
      "dak": 5268,
      "Ġsampah": 5269,
      "Ġjak": 5270,
      "Ġbal": 5271,
      "adanya": 5272,
      "sia": 5273,
      "akh": 5274,
      "Ġkontrak": 5275,
      "Ġajaran": 5276,
      "Ġdiorang": 5277,
      "hati": 5278,
      "ĠTAK": 5279,
      "ayu": 5280,
      "Ġmenyel": 5281,
      "negara": 5282,
      "etuju": 5283,
      "onya": 5284,
      "46": 5285,
      "Ġteknik": 5286,
      "NI": 5287,
      "ĠPENG": 5288,
      "Ġrespons": 5289,
      "Ġberterusan": 5290,
      "Ġnombor": 5291,
      "angkutan": 5292,
      "Yg": 5293,
      "ĠPat": 5294,
      "ĠSembilan": 5295,
      "Ġfitnah": 5296,
      "Justeru": 5297,
      "elanjaan": 5298,
      "cal": 5299,
      "Ġlingk": 5300,
      "Ġditetapkan": 5301,
      "Contoh": 5302,
      "ĠSoc": 5303,
      "ĠSEL": 5304,
      "Ġsens": 5305,
      "Ġsudut": 5306,
      "ekah": 5307,
      "Ġklik": 5308,
      "Ġsetuju": 5309,
      "vernment": 5310,
      "Ġkelak": 5311,
      "Ġkah": 5312,
      "ĠGA": 5313,
      "phet": 5314,
      "Ġdibina": 5315,
      "ĠDisember": 5316,
      "Ġinstr": 5317,
      "alay": 5318,
      "Ġperangai": 5319,
      "Ġvirus": 5320,
      "to": 5321,
      "Ġkun": 5322,
      "Ġcome": 5323,
      "Ġyaitu": 5324,
      "Ġged": 5325,
      "Ġberkembang": 5326,
      "Ġkend": 5327,
      "Ġpoint": 5328,
      "iam": 5329,
      "ĠPengarah": 5330,
      "Ġpensyarah": 5331,
      "ĠRAKYAT": 5332,
      "Ġtrus": 5333,
      "epsi": 5334,
      "Ġsebelumnya": 5335,
      "Ġbodo": 5336,
      "ĠKat": 5337,
      "Man": 5338,
      "ĠAsli": 5339,
      "Ġmuch": 5340,
      "Ġliter": 5341,
      "Ġmengam": 5342,
      "Berdasarkan": 5343,
      "imum": 5344,
      "Walau": 5345,
      "ĠBTS": 5346,
      "ĠMed": 5347,
      "Ġtulis": 5348,
      "ĠAD": 5349,
      "Ġbermakna": 5350,
      "Ġ70": 5351,
      "ĠHarapan": 5352,
      "Ġsol": 5353,
      "ĠFor": 5354,
      "elasan": 5355,
      "yakan": 5356,
      "Ġdif": 5357,
      "Ġsepat": 5358,
      "Ġmemperoleh": 5359,
      "ĠAW": 5360,
      "ĠKalo": 5361,
      "Ġjawapan": 5362,
      "29": 5363,
      "ĠOktober": 5364,
      "ĠPT": 5365,
      "Ġprot": 5366,
      "Ġaplikasi": 5367,
      "Ġapapun": 5368,
      "Ġtuan": 5369,
      "osial": 5370,
      "Ġlambat": 5371,
      "Ġtump": 5372,
      "Ġmenolak": 5373,
      "ĠON": 5374,
      "ĠKon": 5375,
      "Ġprestasi": 5376,
      "Ġfa": 5377,
      "Ġexc": 5378,
      "Ġpesan": 5379,
      "Ġtest": 5380,
      "tiwa": 5381,
      "Memb": 5382,
      "kipun": 5383,
      "Ġgenerasi": 5384,
      "Ġanalisis": 5385,
      "Ġstory": 5386,
      "ĠOgos": 5387,
      "tapi": 5388,
      "Ġpendek": 5389,
      "ĠBahagian": 5390,
      "Ġbole": 5391,
      "Ġtungg": 5392,
      "adangkan": 5393,
      "Ġkebenaran": 5394,
      "Ġbersetuju": 5395,
      "udayaan": 5396,
      "Ġmelebih": 5397,
      "tice": 5398,
      "Ġpayah": 5399,
      "ĠYah": 5400,
      "Ġkomen": 5401,
      "ĠINI": 5402,
      "Ġfungsi": 5403,
      "Ġjerawat": 5404,
      "itahu": 5405,
      "ĠHan": 5406,
      "ĠThailand": 5407,
      "Ġbeing": 5408,
      "ĠHal": 5409,
      "arm": 5410,
      "Ġbyk": 5411,
      "Ġdesign": 5412,
      "UKAN": 5413,
      "Ġangkat": 5414,
      "ĠGod": 5415,
      "uasai": 5416,
      "Ġistilah": 5417,
      "Ġbegini": 5418,
      "Ġunsur": 5419,
      "Ġdapatkan": 5420,
      "Ġthread": 5421,
      "auan": 5422,
      "okrasi": 5423,
      "ĠPerlis": 5424,
      "SIA": 5425,
      "Ġsoci": 5426,
      "Ġajar": 5427,
      "Ġpa": 5428,
      "ĠIndustri": 5429,
      "erg": 5430,
      "Ġprakt": 5431,
      "Ġaliran": 5432,
      "elian": 5433,
      "amed": 5434,
      "ews": 5435,
      "Lagi": 5436,
      "angkang": 5437,
      "Ġseminggu": 5438,
      "Ġcount": 5439,
      "uktikan": 5440,
      "stik": 5441,
      "ĠKap": 5442,
      "Ġfav": 5443,
      "ebuah": 5444,
      "ĠFr": 5445,
      "ĠAlhamdulillah": 5446,
      "akaran": 5447,
      "ĠNG": 5448,
      "ĠShopee": 5449,
      "Ġpegi": 5450,
      "dy": 5451,
      "Ġharam": 5452,
      "ĠSch": 5453,
      "Ġtumb": 5454,
      "jazah": 5455,
      "Ġbertanggungjawab": 5456,
      "Tan": 5457,
      "ication": 5458,
      "Ġmoden": 5459,
      "0065": 5460,
      "ĠBerh": 5461,
      "ĠAnwar": 5462,
      "ural": 5463,
      "Ġbetter": 5464,
      "ĠSebab": 5465,
      "Ġkelompok": 5466,
      "Ġsomet": 5467,
      "ĠSI": 5468,
      "lama": 5469,
      "Ġmenjual": 5470,
      "Ġproduc": 5471,
      "Ġsempurna": 5472,
      "ident": 5473,
      "uth": 5474,
      "ĠPilihan": 5475,
      "Ġmant": 5476,
      "Bers": 5477,
      "Sudah": 5478,
      "Ġkesehatan": 5479,
      "ĠBIN": 5480,
      "ubur": 5481,
      "Ġera": 5482,
      "ĠMeny": 5483,
      "rif": 5484,
      "Ġweb": 5485,
      "eluaran": 5486,
      "ralia": 5487,
      "ahagia": 5488,
      "ria": 5489,
      "Ġreply": 5490,
      "ajin": 5491,
      "TUK": 5492,
      "Eh": 5493,
      "udang": 5494,
      "ĠCar": 5495,
      "itor": 5496,
      "Ġmotiv": 5497,
      "ĠYou": 5498,
      "ĠHAR": 5499,
      "upayaan": 5500,
      "56": 5501,
      "Ġsingle": 5502,
      "ĠAntarabangsa": 5503,
      "Ġbergerak": 5504,
      "istan": 5505,
      "ily": 5506,
      "Ġ2002": 5507,
      "ĠProv": 5508,
      "imbangan": 5509,
      "ayangkan": 5510,
      "Ġprofesional": 5511,
      "Ġsukan": 5512,
      "Ġmenyebut": 5513,
      "Ġsawit": 5514,
      "inet": 5515,
      "Ġgas": 5516,
      "ublik": 5517,
      "Ġberkuasa": 5518,
      "ex": 5519,
      "ungkinan": 5520,
      "ĠKak": 5521,
      "Ġsenyum": 5522,
      "Ġline": 5523,
      "amadun": 5524,
      "gian": 5525,
      "hod": 5526,
      "Ġsetia": 5527,
      "ĠId": 5528,
      "ĠNama": 5529,
      "Ġallah": 5530,
      "ahari": 5531,
      "Ġtakkan": 5532,
      "ways": 5533,
      "Ġperi": 5534,
      "andangan": 5535,
      "entangan": 5536,
      "awatankuasa": 5537,
      "ingung": 5538,
      "Ġberfikir": 5539,
      "Ġdtg": 5540,
      "Ġmun": 5541,
      "imat": 5542,
      "abaya": 5543,
      "Ġinfr": 5544,
      "Qur": 5545,
      "ĠSetia": 5546,
      "ĠKit": 5547,
      "otong": 5548,
      "Ġsuper": 5549,
      "UU": 5550,
      "Ġelemen": 5551,
      "ĠLa": 5552,
      "Ġown": 5553,
      "Ing": 5554,
      "Ġdurian": 5555,
      "etak": 5556,
      "ukkan": 5557,
      "ĠMereka": 5558,
      "Ġmerangkumi": 5559,
      "Ġlet": 5560,
      "bur": 5561,
      "oman": 5562,
      "Ġlol": 5563,
      "Ġmemba": 5564,
      "ĠBak": 5565,
      "ency": 5566,
      "ujukan": 5567,
      "Ġniat": 5568,
      "ead": 5569,
      "audi": 5570,
      "shop": 5571,
      "Ġbon": 5572,
      "Ġself": 5573,
      "Ġgen": 5574,
      "APA": 5575,
      "Ġpeper": 5576,
      "eting": 5577,
      "illi": 5578,
      "Mungkin": 5579,
      "Ġpesawat": 5580,
      "Ġhadiah": 5581,
      "Ġmenyertai": 5582,
      "eo": 5583,
      "Ġudara": 5584,
      "Ġmohon": 5585,
      "Ng": 5586,
      "ĠDem": 5587,
      "Ġnext": 5588,
      "ĠSumber": 5589,
      "IF": 5590,
      "Ġfiz": 5591,
      "kes": 5592,
      "Tr": 5593,
      "ateg": 5594,
      "Secara": 5595,
      "ĠMasyarakat": 5596,
      "pl": 5597,
      "ĠPiala": 5598,
      "And": 5599,
      "kata": 5600,
      "Ġpeg": 5601,
      "ĠBuat": 5602,
      "Ġpersonal": 5603,
      "ahankan": 5604,
      "Ġ35": 5605,
      "Ġpelaburan": 5606,
      "utuskan": 5607,
      "Ġmuz": 5608,
      "Ġdosa": 5609,
      "ISAN": 5610,
      "Ġterlihat": 5611,
      "Ġwhere": 5612,
      "van": 5613,
      "Ġpengaruh": 5614,
      "atis": 5615,
      "Ġrak": 5616,
      "ble": 5617,
      "ĠMay": 5618,
      "Ġdibuka": 5619,
      "Ġmelebihi": 5620,
      "ĠBab": 5621,
      "alin": 5622,
      "Ġmenentang": 5623,
      "intah": 5624,
      "eraan": 5625,
      "enyum": 5626,
      "yer": 5627,
      "gar": 5628,
      "ehehe": 5629,
      "Ġhendaklah": 5630,
      "jin": 5631,
      "Ġunderst": 5632,
      "hu": 5633,
      "Ġmenengah": 5634,
      "illa": 5635,
      "Ġsumbangan": 5636,
      "ĠKU": 5637,
      "Ġtot": 5638,
      "ference": 5639,
      "ebar": 5640,
      "oney": 5641,
      "Ġsejuk": 5642,
      "elit": 5643,
      "kau": 5644,
      "Ġzakat": 5645,
      "Ġcase": 5646,
      "ĠTp": 5647,
      "ĠPada": 5648,
      "Ġkenderaan": 5649,
      "Karena": 5650,
      "ĠPerb": 5651,
      "ĠPay": 5652,
      "Ġkurikulum": 5653,
      "ĠIa": 5654,
      "Ġphone": 5655,
      "uaian": 5656,
      "umiput": 5657,
      "Ġtemb": 5658,
      "Buku": 5659,
      "Ġbunyi": 5660,
      "Ġkuota": 5661,
      "Ġberbuka": 5662,
      "Ġabah": 5663,
      "Ġikh": 5664,
      "Ġeducation": 5665,
      "Ġros": 5666,
      "Ġpenulis": 5667,
      "kg": 5668,
      "etan": 5669,
      "47": 5670,
      "ĠTV": 5671,
      "ience": 5672,
      "ĠRos": 5673,
      "PN": 5674,
      "onan": 5675,
      "ismillah": 5676,
      "ĠSc": 5677,
      "Ġngomong": 5678,
      "Ġakademik": 5679,
      "ces": 5680,
      "adium": 5681,
      "ĠMasa": 5682,
      "Ġgirl": 5683,
      "ĠCik": 5684,
      "ĠKew": 5685,
      "Ġspe": 5686,
      "Ġselatan": 5687,
      "sc": 5688,
      "Ġdewasa": 5689,
      "Ġpakar": 5690,
      "Makan": 5691,
      "Ġanal": 5692,
      "Ġmac": 5693,
      "ĠCol": 5694,
      "Ġnasional": 5695,
      "Ġsimpan": 5696,
      "iru": 5697,
      "Ġprem": 5698,
      "Ġprac": 5699,
      "ley": 5700,
      "Ġplease": 5701,
      "antas": 5702,
      "kut": 5703,
      "mal": 5704,
      "Ġbersyukur": 5705,
      "iet": 5706,
      "KK": 5707,
      "Ġmenyer": 5708,
      "Ġused": 5709,
      "anjaya": 5710,
      "Ġwis": 5711,
      "Ġdorang": 5712,
      "ĠPener": 5713,
      "Ġserangan": 5714,
      "AYSIA": 5715,
      "takat": 5716,
      "Ġcu": 5717,
      "ĠHak": 5718,
      "Ġexper": 5719,
      "niah": 5720,
      "Ġbukanlah": 5721,
      "alani": 5722,
      "Ġpandang": 5723,
      "Ġambik": 5724,
      "Ġmenimb": 5725,
      "Ġhelp": 5726,
      "Ġbrowser": 5727,
      "Ġribu": 5728,
      "vent": 5729,
      "Ġhubungi": 5730,
      "Ġstudent": 5731,
      "ĠPub": 5732,
      "jaya": 5733,
      "Ġpenyelesaian": 5734,
      "ĠFollow": 5735,
      "ĠKAM": 5736,
      "Ġ80": 5737,
      "Ġsisi": 5738,
      "Ġpresiden": 5739,
      "Ġpersekitaran": 5740,
      "itamin": 5741,
      "Ġbukak": 5742,
      "ought": 5743,
      "inding": 5744,
      "Ġsetakat": 5745,
      "sem": 5746,
      "Ġbukannya": 5747,
      "ambarkan": 5748,
      "ĠDEW": 5749,
      "Ġmengatasi": 5750,
      "Ġcabaran": 5751,
      "EMBER": 5752,
      "ropah": 5753,
      "gus": 5754,
      "Ġkategori": 5755,
      "ITA": 5756,
      "Ġianya": 5757,
      "Ġperdagangan": 5758,
      "Ġjog": 5759,
      "Ġmenguasai": 5760,
      "Ġrib": 5761,
      "Ġgem": 5762,
      "Ġwhy": 5763,
      "Ġcult": 5764,
      "ĠBo": 5765,
      "Ġperaturan": 5766,
      "anks": 5767,
      "Leb": 5768,
      "sed": 5769,
      "utr": 5770,
      "ĠSyed": 5771,
      "PT": 5772,
      "untukkan": 5773,
      "Ġbook": 5774,
      "Ġlucu": 5775,
      "ĠBEL": 5776,
      "Ġwakil": 5777,
      "iak": 5778,
      "Ġpaham": 5779,
      "ilo": 5780,
      "iaan": 5781,
      "Ġpark": 5782,
      "Ġperjuangan": 5783,
      "aip": 5784,
      "ube": 5785,
      "ĠBut": 5786,
      "intai": 5787,
      "Ġgerakan": 5788,
      "afik": 5789,
      "Nasi": 5790,
      "Ġhotel": 5791,
      "ukuman": 5792,
      "Ġkim": 5793,
      "ohonan": 5794,
      "iskin": 5795,
      "udin": 5796,
      "cayai": 5797,
      "Ġmeja": 5798,
      "MA": 5799,
      "Ġnyaman": 5800,
      "etail": 5801,
      "ĠPenc": 5802,
      "Ġmesin": 5803,
      "urunkan": 5804,
      "mem": 5805,
      "Ġjasa": 5806,
      "ĠBu": 5807,
      "39": 5808,
      "eld": 5809,
      "Ġyears": 5810,
      "Ġmenyampaikan": 5811,
      "Ġtertinggi": 5812,
      "Ġpopular": 5813,
      "ĠEl": 5814,
      "grap": 5815,
      "Ġbul": 5816,
      "Ġpenjara": 5817,
      "teraan": 5818,
      "Ġperlawanan": 5819,
      "Ġdilantik": 5820,
      "ihi": 5821,
      "ĠStr": 5822,
      "Ġmenangani": 5823,
      "Ġkecuali": 5824,
      "ampang": 5825,
      "rama": 5826,
      "andingkan": 5827,
      "Ġglobal": 5828,
      "ikap": 5829,
      "orld": 5830,
      "eliling": 5831,
      "Ġom": 5832,
      "ino": 5833,
      "mmm": 5834,
      "Ġcould": 5835,
      "etap": 5836,
      "Masa": 5837,
      "Ġbisnis": 5838,
      "Ġpecah": 5839,
      "ĠAustralia": 5840,
      "rep": 5841,
      "andat": 5842,
      "tir": 5843,
      "ship": 5844,
      "Ġtudung": 5845,
      "arusnya": 5846,
      "Ġgar": 5847,
      "idil": 5848,
      "ĠEropah": 5849,
      "Ġteks": 5850,
      "outh": 5851,
      "Ġ90": 5852,
      "Ġmengubah": 5853,
      "Ġantaranya": 5854,
      "Ġbaginda": 5855,
      "ĠIst": 5856,
      "ĠMuda": 5857,
      "Ġperkahwinan": 5858,
      "Ġkonf": 5859,
      "SH": 5860,
      "ĠFil": 5861,
      "Ġtingkat": 5862,
      "Ġcampur": 5863,
      "asat": 5864,
      "Ġtokoh": 5865,
      "date": 5866,
      "ĠLiga": 5867,
      "Ġbeh": 5868,
      "elih": 5869,
      "Ġefek": 5870,
      "oda": 5871,
      "ĠAmin": 5872,
      "Ġamong": 5873,
      "ĠWP": 5874,
      "Ġcannot": 5875,
      "Ġkepimpinan": 5876,
      "Ġreport": 5877,
      "alanya": 5878,
      "Ġ02": 5879,
      "Ġperh": 5880,
      "Ġsial": 5881,
      "unch": 5882,
      "Ġpadi": 5883,
      "Ġkipas": 5884,
      "ĠPD": 5885,
      "ization": 5886,
      "ĠSeksyen": 5887,
      "Ġsoalnya": 5888,
      "Ġasyik": 5889,
      "agam": 5890,
      "uam": 5891,
      "Ġboth": 5892,
      "ĠSEK": 5893,
      "amer": 5894,
      "Ġapalagi": 5895,
      "Ġpromo": 5896,
      "enanjung": 5897,
      "ater": 5898,
      "ica": 5899,
      "Ġjahat": 5900,
      "ĠUNTUK": 5901,
      "ilkan": 5902,
      "load": 5903,
      "Ġterlebih": 5904,
      "oth": 5905,
      "ĠBuku": 5906,
      "ukti": 5907,
      "ĠTenggara": 5908,
      "grafi": 5909,
      "Ġpolisi": 5910,
      "ĠSm": 5911,
      "Ġpenerb": 5912,
      "ĠIT": 5913,
      "Ġgol": 5914,
      "Macam": 5915,
      "pu": 5916,
      "Ġdibawah": 5917,
      "Ġnegatif": 5918,
      "Ġlapar": 5919,
      "ĠParti": 5920,
      "omba": 5921,
      "Ġketemu": 5922,
      "Ġbertanya": 5923,
      "ument": 5924,
      "Ġlawan": 5925,
      "iiii": 5926,
      "ĠDarul": 5927,
      "Ġnormal": 5928,
      "Ġmon": 5929,
      "ainya": 5930,
      "Ġkemampuan": 5931,
      "ĠCent": 5932,
      "ĠPela": 5933,
      "Ġmakna": 5934,
      "Ġmengemb": 5935,
      "Ġsedangkan": 5936,
      "Ġ45": 5937,
      "ĠInt": 5938,
      "xi": 5939,
      "Ġdijangka": 5940,
      "Ġbased": 5941,
      "Ġtanggal": 5942,
      "Ġperbelanjaan": 5943,
      "Ġurut": 5944,
      "Ġsiasatan": 5945,
      "ĠUnited": 5946,
      "Ġkayu": 5947,
      "indungan": 5948,
      "Pak": 5949,
      "benar": 5950,
      "umiputera": 5951,
      "Ġditemui": 5952,
      "SS": 5953,
      "Ġlaman": 5954,
      "AAN": 5955,
      "Ġhaiwan": 5956,
      "ooo": 5957,
      "ĠIl": 5958,
      "Ġarahan": 5959,
      "Ġest": 5960,
      "ato": 5961,
      "ebasan": 5962,
      "AHAN": 5963,
      "Ġmahkamah": 5964,
      "irik": 5965,
      "Ġukuran": 5966,
      "Ġmasker": 5967,
      "Ġmempengaruhi": 5968,
      "ĠLepas": 5969,
      "Ġsesebuah": 5970,
      "Lepas": 5971,
      "ĠMALAYSIA": 5972,
      "ct": 5973,
      "eni": 5974,
      "Ġamanah": 5975,
      "Ġinternet": 5976,
      "Ġwhatsapp": 5977,
      "ĠPakatan": 5978,
      "Ġtgh": 5979,
      "Ġshop": 5980,
      "Ġpinjaman": 5981,
      "Ġiz": 5982,
      "Ġkerusi": 5983,
      "Ġterba": 5984,
      "ĠMalaya": 5985,
      "Ġarwah": 5986,
      "Ġsidang": 5987,
      "waan": 5988,
      "Ġkrn": 5989,
      "Ġques": 5990,
      "angguan": 5991,
      "Ġrev": 5992,
      "Ġmenggalakkan": 5993,
      "Ġdifferent": 5994,
      "omun": 5995,
      "ĠKAL": 5996,
      "ayaran": 5997,
      "ashi": 5998,
      "Pertua": 5999,
      "Ġfilm": 6000,
      "hen": 6001,
      "Ġmenilai": 6002,
      "aff": 6003,
      "Dulu": 6004,
      "light": 6005,
      "Ġgadis": 6006,
      "Ġtrain": 6007,
      "Ġberakhir": 6008,
      "empen": 6009,
      "Ġsalam": 6010,
      "Ġmood": 6011,
      "Ġlengan": 6012,
      "Ġpikir": 6013,
      "Ġ%)": 6014,
      "ĠTas": 6015,
      "arif": 6016,
      "Ġobjektif": 6017,
      "gen": 6018,
      "Ġkement": 6019,
      "Akhir": 6020,
      "ĠPP": 6021,
      "Ġfound": 6022,
      "Ġmengan": 6023,
      "Ġundi": 6024,
      "Ġtakda": 6025,
      "ready": 6026,
      "Apakah": 6027,
      "Ġrancangan": 6028,
      "Ġberlangsung": 6029,
      "Ġtingkah": 6030,
      "Ġ36": 6031,
      "iding": 6032,
      "Ġ:')": 6033,
      "Ġjin": 6034,
      "par": 6035,
      "Ġdikenal": 6036,
      "Ġstruktur": 6037,
      "Ġselesa": 6038,
      "Ġwrit": 6039,
      "ĠIG": 6040,
      "Ġpelanggan": 6041,
      "ĠMet": 6042,
      "ulas": 6043,
      "Ġsince": 6044,
      "pon": 6045,
      "Ġama": 6046,
      "Ġsang": 6047,
      "Ġinteg": 6048,
      "Ġval": 6049,
      "ĠKesihatan": 6050,
      "ĠSekarang": 6051,
      "ulung": 6052,
      "Ġcermin": 6053,
      "Ġsarjana": 6054,
      "iqh": 6055,
      "ĠRazak": 6056,
      "CC": 6057,
      "ĠKlang": 6058,
      "ates": 6059,
      "ĠMur": 6060,
      "Ġnet": 6061,
      "IKAN": 6062,
      "Ġdakwah": 6063,
      "ize": 6064,
      "ening": 6065,
      "ĠQuran": 6066,
      "Ġdun": 6067,
      "Ġcel": 6068,
      "Ġmewak": 6069,
      "usa": 6070,
      "ejah": 6071,
      "Ġappro": 6072,
      "ĠJawatankuasa": 6073,
      "tok": 6074,
      "ĠPejabat": 6075,
      "ĠMalaysian": 6076,
      "hab": 6077,
      "Ġperak": 6078,
      "41": 6079,
      "ĠLo": 6080,
      "Ġkenc": 6081,
      "Memang": 6082,
      "Ġjangka": 6083,
      "ĠSeg": 6084,
      "ĠTol": 6085,
      "Ġrele": 6086,
      "Ġsebagaimana": 6087,
      "Ġbekalan": 6088,
      "Ġberdiri": 6089,
      "Ġkemarin": 6090,
      "amping": 6091,
      "Ġkuih": 6092,
      "sok": 6093,
      "self": 6094,
      "ivil": 6095,
      "ĠPertama": 6096,
      "ĠKr": 6097,
      "Ġbantal": 6098,
      "75": 6099,
      "Ġadd": 6100,
      "Tolong": 6101,
      "ĠPelajaran": 6102,
      "AHA": 6103,
      "odo": 6104,
      "Ġ1998": 6105,
      "poh": 6106,
      "Ġsepatutnya": 6107,
      "ĠDEWAN": 6108,
      "lex": 6109,
      "imi": 6110,
      "Ġrequir": 6111,
      "Ġkekurangan": 6112,
      "Ġkapan": 6113,
      "Ġinfrastruktur": 6114,
      "tab": 6115,
      "Ġdefin": 6116,
      "adat": 6117,
      "enangi": 6118,
      "ĠMEL": 6119,
      "indahan": 6120,
      "ĠTID": 6121,
      "Ġkeberk": 6122,
      "Ġkementerian": 6123,
      "asana": 6124,
      "ric": 6125,
      "Ġjom": 6126,
      "Ġlim": 6127,
      "Ġ?!": 6128,
      "nti": 6129,
      "ĠOk": 6130,
      "AIN": 6131,
      "ĠLim": 6132,
      "ĠEm": 6133,
      "ĠSay": 6134,
      ":.": 6135,
      "bel": 6136,
      "Ġmembangunkan": 6137,
      "ristian": 6138,
      "ĠTentera": 6139,
      "ĠPerlembagaan": 6140,
      "ĠProvinsi": 6141,
      "ĠPos": 6142,
      "Ġrawatan": 6143,
      "Ġjud": 6144,
      "Ġtimbul": 6145,
      "Ġmengelak": 6146,
      "Ġpulau": 6147,
      "Ġkemudiannya": 6148,
      "ĠAyam": 6149,
      "unjung": 6150,
      "acara": 6151,
      "On": 6152,
      "Ġkasi": 6153,
      "Ġ500": 6154,
      "Ġanaknya": 6155,
      "Ġmikir": 6156,
      "ĠKomp": 6157,
      "Ġpartic": 6158,
      "Ġstandard": 6159,
      "anas": 6160,
      "UMPUR": 6161,
      "erj": 6162,
      "onsep": 6163,
      "Ġtradisional": 6164,
      "icial": 6165,
      "lay": 6166,
      "eeee": 6167,
      "Ġpermainan": 6168,
      "Ġsam": 6169,
      "ĠBant": 6170,
      "ĠNanti": 6171,
      "Ġstop": 6172,
      "ĠSu": 6173,
      "utin": 6174,
      "count": 6175,
      "Ġgelap": 6176,
      "Ġjodoh": 6177,
      "pres": 6178,
      "hazali": 6179,
      "pect": 6180,
      "Ġincl": 6181,
      "Ġdigital": 6182,
      "Ġpek": 6183,
      "Ġnenek": 6184,
      "echnical": 6185,
      "asilan": 6186,
      "jangan": 6187,
      "Ġ38": 6188,
      "murid": 6189,
      "Moh": 6190,
      "Ġmenit": 6191,
      "ĠBang": 6192,
      "afsir": 6193,
      "ulat": 6194,
      "Hanya": 6195,
      "ĠSO": 6196,
      "ĠBanyak": 6197,
      "Ġenggak": 6198,
      "ĠLUMPUR": 6199,
      "Ġlok": 6200,
      "Ġder": 6201,
      "Ġreb": 6202,
      "Ġjenayah": 6203,
      "Ġ'.": 6204,
      "Ġident": 6205,
      "Ġmenyak": 6206,
      "Ġtab": 6207,
      "untungan": 6208,
      "ĠLaut": 6209,
      "((": 6210,
      "bas": 6211,
      "Lapangan": 6212,
      "ĠKemahiran": 6213,
      "Ġmkn": 6214,
      "tukar": 6215,
      "ĠBI": 6216,
      "Ġaset": 6217,
      "Ġmeletakkan": 6218,
      "ĠChe": 6219,
      "Ġalami": 6220,
      "Ġpertanyaan": 6221,
      "Ġtersenyum": 6222,
      "ombak": 6223,
      "APAN": 6224,
      "jian": 6225,
      "Ġkeje": 6226,
      "ĠID": 6227,
      "Ġdihasilkan": 6228,
      "Ġpanduan": 6229,
      "Ġdipakai": 6230,
      "98": 6231,
      "adbir": 6232,
      "Ġpeduli": 6233,
      "Ġjob": 6234,
      "esuaian": 6235,
      "ĠPetaling": 6236,
      "ĠPress": 6237,
      "Ġperusahaan": 6238,
      "Ġstay": 6239,
      "urnal": 6240,
      "Ġmemperk": 6241,
      "ann": 6242,
      "ĠOrder": 6243,
      "Ġtelur": 6244,
      "Ġangk": 6245,
      "ĠAyah": 6246,
      "Ġmelaka": 6247,
      "agar": 6248,
      "Ġcocok": 6249,
      "ampiran": 6250,
      "Ġbenci": 6251,
      "Ġbig": 6252,
      "Ġdipanggil": 6253,
      "Ġberbentuk": 6254,
      "Ġrendang": 6255,
      "aknya": 6256,
      "Ġ1999": 6257,
      "perk": 6258,
      "Ġbareng": 6259,
      "formation": 6260,
      "Ġtanaman": 6261,
      "ATU": 6262,
      "Ġdarjah": 6263,
      "ADI": 6264,
      "kadang": 6265,
      "ĠQur": 6266,
      "ĠPes": 6267,
      "adinya": 6268,
      "Ġinisiatif": 6269,
      "ovasi": 6270,
      "AMB": 6271,
      "incin": 6272,
      "Ġmc": 6273,
      "sw": 6274,
      "anyol": 6275,
      "uruhanjaya": 6276,
      "ikah": 6277,
      "ĠZain": 6278,
      "Ġperson": 6279,
      "Ġsuasana": 6280,
      "Tetapi": 6281,
      "ĠZah": 6282,
      "Ġpec": 6283,
      "ĠSukan": 6284,
      "Ġsuku": 6285,
      "UC": 6286,
      "fitri": 6287,
      "ĠMasih": 6288,
      "ĠADA": 6289,
      "ending": 6290,
      "Ġbala": 6291,
      "ciri": 6292,
      "Ġbed": 6293,
      "Ġmewakili": 6294,
      "ĠWa": 6295,
      "Ġsin": 6296,
      "yakinan": 6297,
      "DER": 6298,
      "utur": 6299,
      "ĠNAK": 6300,
      "ĠKewangan": 6301,
      "Peny": 6302,
      "Ġrajin": 6303,
      "pecial": 6304,
      "Ġhujung": 6305,
      "Ġbiru": 6306,
      "Ġrisau": 6307,
      "enarnya": 6308,
      "Ġbingung": 6309,
      "ĠJom": 6310,
      "Ġgaris": 6311,
      "Ġbib": 6312,
      "now": 6313,
      "uality": 6314,
      "Ġlaluan": 6315,
      "OB": 6316,
      "Ġmenu": 6317,
      "Ġland": 6318,
      "Ġhijau": 6319,
      "intar": 6320,
      "angnya": 6321,
      "dun": 6322,
      "Ġsecond": 6323,
      "ĠLagi": 6324,
      "Ġengk": 6325,
      "Ġpn": 6326,
      "ugas": 6327,
      "Kemudian": 6328,
      "med": 6329,
      "ĠDipert": 6330,
      "ĠBakar": 6331,
      "ĠLab": 6332,
      "ĠRendah": 6333,
      "Ġdg": 6334,
      "Ġsebaik": 6335,
      "Ġport": 6336,
      "ĠMB": 6337,
      "Ġ):": 6338,
      "Ġkesedaran": 6339,
      "Ġkorban": 6340,
      "Ġviral": 6341,
      "care": 6342,
      "Ġvari": 6343,
      "Ġjur": 6344,
      "Ġhukuman": 6345,
      "Ġberdua": 6346,
      "Ġmalem": 6347,
      "ĠBen": 6348,
      "ĠComm": 6349,
      "Ġwkwkw": 6350,
      "buat": 6351,
      "Ġterkini": 6352,
      "ĠHospital": 6353,
      "antaran": 6354,
      "wards": 6355,
      "ikuti": 6356,
      "ulusan": 6357,
      "Ġtunjuk": 6358,
      "Ġsiri": 6359,
      "Ġakak": 6360,
      "imakasih": 6361,
      "Kampung": 6362,
      "Ġplat": 6363,
      "Ġkirim": 6364,
      "Yuk": 6365,
      "isik": 6366,
      "Ġcuri": 6367,
      "Ġdiv": 6368,
      "Ġibadah": 6369,
      "aren": 6370,
      "tiraf": 6371,
      "Ġitulah": 6372,
      "ĠJadual": 6373,
      "afir": 6374,
      "ĠYA": 6375,
      "Ġmemulakan": 6376,
      "Ġbeda": 6377,
      "ĠTolong": 6378,
      "Ġmemainkan": 6379,
      "ampilan": 6380,
      "Ġjar": 6381,
      "Ġkef": 6382,
      "Ġakal": 6383,
      "ĠCH": 6384,
      "Ġpasang": 6385,
      "ĠSalah": 6386,
      "rig": 6387,
      "Ġnever": 6388,
      "adz": 6389,
      "ler": 6390,
      "Ġmai": 6391,
      "peng": 6392,
      "Ġconsider": 6393,
      "Ġgemb": 6394,
      "ĠHahaha": 6395,
      "Ġbela": 6396,
      "elaki": 6397,
      "ondok": 6398,
      "ĠPalest": 6399,
      "Am": 6400,
      "Ġmenjalani": 6401,
      "ormati": 6402,
      "atusan": 6403,
      "Ġdiw": 6404,
      "Mana": 6405,
      "Ġperpaduan": 6406,
      "Ġkurung": 6407,
      "76": 6408,
      "Ġamik": 6409,
      "Ġadil": 6410,
      "ĠEks": 6411,
      "ĠSci": 6412,
      "SM": 6413,
      "ĠDep": 6414,
      "Ġmahupun": 6415,
      "ĠDua": 6416,
      "Ġloc": 6417,
      "Menteri": 6418,
      "Ġlangit": 6419,
      "58": 6420,
      "ĠSudah": 6421,
      "ection": 6422,
      "Ġcare": 6423,
      "Ġtunt": 6424,
      "Ġterper": 6425,
      "Filem": 6426,
      "Ġdaun": 6427,
      "etengah": 6428,
      "oko": 6429,
      "raf": 6430,
      "Ġwkwkwk": 6431,
      "emah": 6432,
      "alatan": 6433,
      "Ġseks": 6434,
      "unsel": 6435,
      "Ġkuk": 6436,
      "cle": 6437,
      "hatikan": 6438,
      "Ġkerap": 6439,
      "Ġpermintaan": 6440,
      "Ġsebut": 6441,
      "Ġhalus": 6442,
      "Ġlan": 6443,
      "Ġboss": 6444,
      "ITAH": 6445,
      "08": 6446,
      "ĠSosial": 6447,
      "aftaran": 6448,
      "Ġpunca": 6449,
      "Ġhard": 6450,
      "Ġmenimbulkan": 6451,
      "Ġberarti": 6452,
      "OG": 6453,
      "Ġprocess": 6454,
      "Ġakhlak": 6455,
      "onok": 6456,
      "Ġfind": 6457,
      "Ġsapa": 6458,
      "Ġseharusnya": 6459,
      "ath": 6460,
      "avi": 6461,
      "Ġmemandang": 6462,
      "Anak": 6463,
      "Ġlaju": 6464,
      "Ġbreak": 6465,
      "ĠPengerusi": 6466,
      "Ġmenyes": 6467,
      "Ġrasuah": 6468,
      "andakan": 6469,
      "Ġkeg": 6470,
      "ĠPantai": 6471,
      "Ġalways": 6472,
      "Ġalready": 6473,
      "eluar": 6474,
      "Ġditubuhkan": 6475,
      "ĠPerang": 6476,
      "Ġchar": 6477,
      "erv": 6478,
      "Ġtunggal": 6479,
      "tahun": 6480,
      "uruan": 6481,
      "Ġupdate": 6482,
      "egeri": 6483,
      "Ġtrs": 6484,
      "ĠLISAN": 6485,
      "aiki": 6486,
      "ĠBek": 6487,
      "ĠBersatu": 6488,
      "isten": 6489,
      "ĠPand": 6490,
      "ĠTurki": 6491,
      "andangkan": 6492,
      "gasan": 6493,
      "Ġselidik": 6494,
      "Ġbacaan": 6495,
      "Ġdada": 6496,
      "Ġpopulasi": 6497,
      "ĠCity": 6498,
      "Us": 6499,
      "onen": 6500,
      "alur": 6501,
      "ĠTwitter": 6502,
      "Ġsengaja": 6503,
      "Ġ:.": 6504,
      "thing": 6505,
      "awar": 6506,
      "Ġot": 6507,
      "ĠSiti": 6508,
      "ulk": 6509,
      "RA": 6510,
      "ĠAK": 6511,
      "oli": 6512,
      "edit": 6513,
      "ĠAwam": 6514,
      "arapkan": 6515,
      "Bagaimanapun": 6516,
      "Ġlight": 6517,
      "Ġpengeluaran": 6518,
      "iktiraf": 6519,
      "itmen": 6520,
      "Ġay": 6521,
      "Ġberasa": 6522,
      "warna": 6523,
      "Ġmerasakan": 6524,
      "Ġjari": 6525,
      "Ġsubjek": 6526,
      "Ġdipert": 6527,
      "ayangan": 6528,
      "ĠWIB": 6529,
      "ilat": 6530,
      "ording": 6531,
      "Ġlawa": 6532,
      "Ġsungguh": 6533,
      "Haha": 6534,
      "lt": 6535,
      "Ġwomen": 6536,
      "tag": 6537,
      "Kej": 6538,
      "ĠMc": 6539,
      "ĠSK": 6540,
      "Jadual": 6541,
      "ĠGun": 6542,
      "ĠSula": 6543,
      "Ġpemandu": 6544,
      "ĠSubang": 6545,
      "abuk": 6546,
      "Ġtekanan": 6547,
      "Posk": 6548,
      "Ġdimin": 6549,
      "Ġbertambah": 6550,
      "EMBERITAH": 6551,
      "waktu": 6552,
      "34": 6553,
      "Ġmaupun": 6554,
      "Ġmuzik": 6555,
      "lib": 6556,
      "Ġdile": 6557,
      "Ġdial": 6558,
      "angkit": 6559,
      "irst": 6560,
      "ĠRepost": 6561,
      "Poskod": 6562,
      "Im": 6563,
      "Ġrac": 6564,
      "Ġmemudahkan": 6565,
      "ĠEX": 6566,
      "Ġpd": 6567,
      "ĠKas": 6568,
      "ĠComp": 6569,
      "ĠKhas": 6570,
      "Ġperancangan": 6571,
      "Ġdiketahui": 6572,
      "Ġsejumlah": 6573,
      "ĠPelajar": 6574,
      "baiki": 6575,
      "Ġtaman": 6576,
      "ĠEmp": 6577,
      "Ġsesama": 6578,
      "Ġpelik": 6579,
      "Ġdoc": 6580,
      "Ġhuhu": 6581,
      "Ġwatak": 6582,
      "Ġgrab": 6583,
      "Ġkeupayaan": 6584,
      "ĠLembaga": 6585,
      "Ġpemenang": 6586,
      "Ġnder": 6587,
      "viron": 6588,
      "Ġpembentukan": 6589,
      "Ka": 6590,
      "idilfitri": 6591,
      "Ġrupanya": 6592,
      "food": 6593,
      "Ġrej": 6594,
      "Ġmenutup": 6595,
      "ovel": 6596,
      "iriman": 6597,
      "Ġkesempatan": 6598,
      "otan": 6599,
      "Ġucapan": 6600,
      "entuh": 6601,
      "olat": 6602,
      "Ġpalsu": 6603,
      "Ġlancar": 6604,
      "ĠAtau": 6605,
      "can": 6606,
      "aksa": 6607,
      "Ġbesi": 6608,
      "ĠGUK": 6609,
      "vironment": 6610,
      "inter": 6611,
      "Ġpermohonan": 6612,
      "Sekarang": 6613,
      "Ġtujuh": 6614,
      "Ġra": 6615,
      "oka": 6616,
      "Ġkunci": 6617,
      "Ġdoes": 6618,
      "ilin": 6619,
      "Ġnasihat": 6620,
      "que": 6621,
      "Ġsahur": 6622,
      "ko": 6623,
      "Ġsambung": 6624,
      "Ġroh": 6625,
      "ĠKela": 6626,
      "Ġbersatu": 6627,
      "ĠWe": 6628,
      "Ġtv": 6629,
      "Ġhamba": 6630,
      "Ġmemegang": 6631,
      "Masih": 6632,
      "uuuu": 6633,
      "Ġkomputer": 6634,
      "ĠPembelajaran": 6635,
      "Ġtumpuan": 6636,
      "Ġpembangkang": 6637,
      "ĠAng": 6638,
      "Ġbawang": 6639,
      "seb": 6640,
      "Ġbayaran": 6641,
      "37": 6642,
      "ĠPKR": 6643,
      "Ġcent": 6644,
      "Ġmenawarkan": 6645,
      "ĠUmum": 6646,
      "Ġsure": 6647,
      "usak": 6648,
      "Ġsekaligus": 6649,
      "Ġmelip": 6650,
      "Ġmeneruskan": 6651,
      "Ġmemasuki": 6652,
      "ĠNI": 6653,
      "adio": 6654,
      "Ġdiet": 6655,
      "Ġgerak": 6656,
      "Lebih": 6657,
      "eny": 6658,
      "elamat": 6659,
      "ĠMalay": 6660,
      "SP": 6661,
      "gerakan": 6662,
      "ĠFacebook": 6663,
      "Ġpaper": 6664,
      "Ġmoral": 6665,
      "ĠSP": 6666,
      "ĠMesir": 6667,
      "Ġversi": 6668,
      "ago": 6669,
      "ĠBANG": 6670,
      "Ġberlak": 6671,
      "ĠBadan": 6672,
      "Ġsdh": 6673,
      "agama": 6674,
      "NA": 6675,
      "ematik": 6676,
      "ĠKER": 6677,
      "Ġoper": 6678,
      "lee": 6679,
      "Ġtermasuklah": 6680,
      "ĠSw": 6681,
      "ipan": 6682,
      "ĠManusia": 6683,
      "tually": 6684,
      "itive": 6685,
      "aitkan": 6686,
      "Ġsmpai": 6687,
      "essi": 6688,
      "kuan": 6689,
      "Ġvs": 6690,
      "Ġshah": 6691,
      "ĠDipertua": 6692,
      "Ġperibadi": 6693,
      "ĠDALAM": 6694,
      "Ġhantar": 6695,
      "asm": 6696,
      "Ġbengk": 6697,
      "engku": 6698,
      "ĠSalam": 6699,
      "ĠHasan": 6700,
      "INI": 6701,
      "endam": 6702,
      "ihad": 6703,
      "enom": 6704,
      "Ġbelah": 6705,
      "guru": 6706,
      "sikan": 6707,
      "asiat": 6708,
      "Ġmention": 6709,
      "Ġais": 6710,
      "ĠHassan": 6711,
      "Ġtengg": 6712,
      "ĠUk": 6713,
      "Ġberhasil": 6714,
      "Ġparents": 6715,
      "ĠKP": 6716,
      "ĠYuk": 6717,
      "ĠHanya": 6718,
      "intas": 6719,
      "Ġpakcik": 6720,
      "Ġmad": 6721,
      "entikan": 6722,
      "Mah": 6723,
      "Ġkag": 6724,
      "Ġsaiz": 6725,
      "ĠBhd": 6726,
      "OO": 6727,
      "ĠLebih": 6728,
      "agikan": 6729,
      "ĠDAR": 6730,
      "ancing": 6731,
      "Ġspir": 6732,
      "Ġton": 6733,
      "rid": 6734,
      "Ġsadar": 6735,
      "Ġdibangun": 6736,
      "ĠSuruhanjaya": 6737,
      "Ġvis": 6738,
      "Ġword": 6739,
      "Ġwhile": 6740,
      "Ġgelak": 6741,
      "Ġinformasi": 6742,
      "tanian": 6743,
      "Ġbody": 6744,
      "ĠDevelopment": 6745,
      "ists": 6746,
      "rt": 6747,
      "ucapkan": 6748,
      "ĠUT": 6749,
      "Ġpembelian": 6750,
      "Ġlanguage": 6751,
      "Ġmind": 6752,
      "Ġkawalan": 6753,
      "lub": 6754,
      "ĠLuar": 6755,
      "ĠUndang": 6756,
      "ĠMaaf": 6757,
      "ĠMohamed": 6758,
      "Ġrelations": 6759,
      "nilai": 6760,
      "AAAA": 6761,
      "eknik": 6762,
      "ĠKim": 6763,
      "Ġrata": 6764,
      "Sejak": 6765,
      "But": 6766,
      "lh": 6767,
      "Ġsejenis": 6768,
      "Ġpadang": 6769,
      "Ġview": 6770,
      "Ġkemajuan": 6771,
      "ather": 6772,
      "Ġrum": 6773,
      "ĠMu": 6774,
      "Ġkg": 6775,
      "Ġservice": 6776,
      "Malah": 6777,
      "ĠDAT": 6778,
      "anjutnya": 6779,
      "ĠBand": 6780,
      "ĠHigh": 6781,
      "]]": 6782,
      "ĠDip": 6783,
      "Ġperistiwa": 6784,
      "Ġpelakon": 6785,
      "Ġkemana": 6786,
      "Ġmembers": 6787,
      "ici": 6788,
      "ekaan": 6789,
      "ĠPL": 6790,
      "Ġcina": 6791,
      "ĠSabtu": 6792,
      "ĠSE": 6793,
      "krip": 6794,
      "Ġcover": 6795,
      "Ġabg": 6796,
      "afiz": 6797,
      "Ġmeter": 6798,
      "ĠGa": 6799,
      "ĠNa": 6800,
      "Ġmn": 6801,
      "Ġbuy": 6802,
      "Ġgovernment": 6803,
      "ĠPersatuan": 6804,
      "REE": 6805,
      "Ġpublic": 6806,
      "Ġfalsafah": 6807,
      "Ġskills": 6808,
      "Ġkilang": 6809,
      "reet": 6810,
      "Ġkreatif": 6811,
      "Ġplak": 6812,
      "Ġsekalian": 6813,
      "emerlang": 6814,
      "faatkan": 6815,
      "boleh": 6816,
      "Ġsewa": 6817,
      "imen": 6818,
      "Ġeconom": 6819,
      "emak": 6820,
      "Ġkemenangan": 6821,
      "Ġhib": 6822,
      "Ġberbeda": 6823,
      "Ġtapak": 6824,
      "Mat": 6825,
      "endol": 6826,
      "otor": 6827,
      "ejahteraan": 6828,
      "Ġskor": 6829,
      "Ġmembayar": 6830,
      "ĠRepublik": 6831,
      "iya": 6832,
      "ambang": 6833,
      "Ġkefahaman": 6834,
      "Ġharian": 6835,
      "awanan": 6836,
      "Ġdream": 6837,
      "Ġmembincangkan": 6838,
      "Ġplastik": 6839,
      "ĠFar": 6840,
      "lor": 6841,
      "endalikan": 6842,
      "Ġditulis": 6843,
      "Ġsd": 6844,
      "Ġdoh": 6845,
      "Ġujar": 6846,
      "Ġmahasiswa": 6847,
      "Az": 6848,
      "66": 6849,
      "Ġkol": 6850,
      "pektif": 6851,
      "ĠAfr": 6852,
      "--": 6853,
      "utrisi": 6854,
      "ĠKor": 6855,
      "Ġfizikal": 6856,
      "Ġdikenakan": 6857,
      "Ġbotol": 6858,
      "Ġplus": 6859,
      "Ġputus": 6860,
      "acy": 6861,
      "Ġklinik": 6862,
      "Ġcuci": 6863,
      "inga": 6864,
      "ĠPart": 6865,
      "Beberapa": 6866,
      "31": 6867,
      "ĠBerhormat": 6868,
      "Ġfar": 6869,
      "Ġgangguan": 6870,
      "anjutkan": 6871,
      "ket": 6872,
      "ĠKing": 6873,
      "Tu": 6874,
      "pasti": 6875,
      "Ġjela": 6876,
      "Ġkelihatan": 6877,
      "Ġpengkaji": 6878,
      "Ġjantung": 6879,
      "LI": 6880,
      "Ġmembuktikan": 6881,
      "Me": 6882,
      "ĠIPG": 6883,
      "Ġtrav": 6884,
      "Ib": 6885,
      "ĠAy": 6886,
      "49": 6887,
      "Ġtips": 6888,
      "Saat": 6889,
      "pm": 6890,
      "thman": 6891,
      "uasaan": 6892,
      "Ġsekadar": 6893,
      "Ġmemakai": 6894,
      "ĠAmp": 6895,
      "ister": 6896,
      "ĠNik": 6897,
      "EAN": 6898,
      "KUALA": 6899,
      "angkaian": 6900,
      "urga": 6901,
      "ĠTu": 6902,
      "Ġberminat": 6903,
      "52": 6904,
      "Ġjarak": 6905,
      "Ġjap": 6906,
      "ambing": 6907,
      "ĠPengurusan": 6908,
      "Ġfakta": 6909,
      "Ġcourse": 6910,
      "ĠSPR": 6911,
      "Ġsize": 6912,
      "Ġperubatan": 6913,
      "Ġanother": 6914,
      "DB": 6915,
      "upuk": 6916,
      "Ġdinyatakan": 6917,
      "Ketua": 6918,
      "Ġdenger": 6919,
      "Ġpsik": 6920,
      "ĠDesa": 6921,
      "ĠPrabowo": 6922,
      "kon": 6923,
      "yn": 6924,
      "ĠMor": 6925,
      "iskinan": 6926,
      "Ġhead": 6927,
      "Ġkotak": 6928,
      "Ġperjanjian": 6929,
      "CA": 6930,
      "ENGAN": 6931,
      "Ġperund": 6932,
      "Ġkehad": 6933,
      "Ġcomel": 6934,
      "ĠSepanyol": 6935,
      "ĠIr": 6936,
      "ĠHARI": 6937,
      "ĠJenis": 6938,
      "EF": 6939,
      "Kementerian": 6940,
      "Nama": 6941,
      "ĠHa": 6942,
      "ĠPegawai": 6943,
      "Ġakaun": 6944,
      "Pernah": 6945,
      "imbing": 6946,
      "Kata": 6947,
      "Ġdiikuti": 6948,
      "ĠKhal": 6949,
      "Ku": 6950,
      "ajang": 6951,
      "ĠYG": 6952,
      "band": 6953,
      "Ġakses": 6954,
      "hor": 6955,
      "59": 6956,
      "ero": 6957,
      "ikirkan": 6958,
      "Ġshopee": 6959,
      "Kedua": 6960,
      "pes": 6961,
      "ĠPutra": 6962,
      "Ġpotong": 6963,
      "Ġmodern": 6964,
      "ĠItali": 6965,
      "amanan": 6966,
      "ĠBelanda": 6967,
      "ĠDin": 6968,
      "ĠSetiap": 6969,
      "ĠIntern": 6970,
      "Ġlingkungan": 6971,
      "Ye": 6972,
      "Ġpresent": 6973,
      "Ġpacar": 6974,
      "Ġpelan": 6975,
      "ĠHus": 6976,
      "Ġberkahwin": 6977,
      "rin": 6978,
      "Udah": 6979,
      "Ġgetah": 6980,
      "yk": 6981,
      "UAR": 6982,
      "ĠInstitut": 6983,
      "Ġbohong": 6984,
      "ĠInfo": 6985,
      "ried": 6986,
      "ĠBahru": 6987,
      "ĠKM": 6988,
      "Ġtuhan": 6989,
      "Ġir": 6990,
      "Ġdoktor": 6991,
      "ĠSus": 6992,
      "Ġ32": 6993,
      "Ġmengamalkan": 6994,
      "Ġoh": 6995,
      "tiga": 6996,
      "Wah": 6997,
      "vo": 6998,
      "ĠSistem": 6999,
      "alaysi": 7000,
      "Ġpemilihan": 7001,
      "Ġrisiko": 7002,
      "2020": 7003,
      "ĠMal": 7004,
      "How": 7005,
      "Ġdokumen": 7006,
      "Ġlepastu": 7007,
      "ĠTanjung": 7008,
      "GB": 7009,
      "Maj": 7010,
      "Ins": 7011,
      "Oh": 7012,
      "ĠSEB": 7013,
      "Ġmenyus": 7014,
      "lement": 7015,
      "ĠAP": 7016,
      "Ġcuman": 7017,
      "ĠAlor": 7018,
      "ĠWorld": 7019,
      "Ġgap": 7020,
      "onth": 7021,
      "ĠKUR": 7022,
      "Ġpindah": 7023,
      "Ġsilam": 7024,
      "enangkan": 7025,
      "atal": 7026,
      "Kan": 7027,
      "Ġmembunuh": 7028,
      "Ġdibah": 7029,
      "yg": 7030,
      "inginan": 7031,
      "Ġkemungkinan": 7032,
      "Ġmemutuskan": 7033,
      "ĠKedua": 7034,
      "ANI": 7035,
      "Kadang": 7036,
      "Ġmethod": 7037,
      "ustaka": 7038,
      "uduh": 7039,
      "Ġmeans": 7040,
      "Ġmengekalkan": 7041,
      "Ġbn": 7042,
      "ĠBU": 7043,
      "Ġpemilik": 7044,
      "Ġsociety": 7045,
      "ĠBest": 7046,
      "Pel": 7047,
      "Ġsempena": 7048,
      "ĠAf": 7049,
      "Ġdapatan": 7050,
      "ĠJournal": 7051,
      "Ġext": 7052,
      "Ġpm": 7053,
      "ĠDo": 7054,
      "ĠAngk": 7055,
      "Ġtetep": 7056,
      "ĠRamadan": 7057,
      "ĠMark": 7058,
      "Ġtelefon": 7059,
      "Ġkondisi": 7060,
      "Hahahaha": 7061,
      "Ġdoakan": 7062,
      "Ġhy": 7063,
      "Ġdijual": 7064,
      "rong": 7065,
      "DN": 7066,
      "ĠHahah": 7067,
      "Ġsomething": 7068,
      "Ġmenyumbang": 7069,
      "amal": 7070,
      "Ġsetengah": 7071,
      "hidmat": 7072,
      "Ġmembah": 7073,
      "Ġeach": 7074,
      "Ġstrateg": 7075,
      "dengan": 7076,
      "operasi": 7077,
      "Ġunik": 7078,
      "eliti": 7079,
      "manfaat": 7080,
      "ceed": 7081,
      "Ġdipercayai": 7082,
      "We": 7083,
      "Ġdilaporkan": 7084,
      "Ġboy": 7085,
      "atim": 7086,
      "yani": 7087,
      "Ġtalk": 7088,
      "Ġ>": 7089,
      "ĠPanjang": 7090,
      "epet": 7091,
      "Ġsir": 7092,
      "Ġmenekan": 7093,
      "agang": 7094,
      "ĠEnglish": 7095,
      "))": 7096,
      "Cara": 7097,
      "Ġmeliputi": 7098,
      "memb": 7099,
      "Ġwalau": 7100,
      "Ġtaraf": 7101,
      "ĠMuk": 7102,
      "sych": 7103,
      "Ġinilah": 7104,
      "Ġmencat": 7105,
      "Ġ1997": 7106,
      "uw": 7107,
      "Ġseolah": 7108,
      "Ġseparuh": 7109,
      "Ġobor": 7110,
      "hluk": 7111,
      "ĠAri": 7112,
      "ogle": 7113,
      "anah": 7114,
      "okasional": 7115,
      "Ġpotensi": 7116,
      "yes": 7117,
      "utuhan": 7118,
      "Ġmesyuarat": 7119,
      "Mer": 7120,
      "masalah": 7121,
      "Ġchi": 7122,
      "eheh": 7123,
      "Ġbarangan": 7124,
      "Ġbercakap": 7125,
      "iksa": 7126,
      "Ġentah": 7127,
      "orn": 7128,
      "Ġ300": 7129,
      "iasaan": 7130,
      "ĠAdam": 7131,
      "Ġkerjaya": 7132,
      "ĠEnd": 7133,
      "Ġkehendak": 7134,
      "ĠPasir": 7135,
      "Ġmakl": 7136,
      "Ġnyanyi": 7137,
      "Ġgamb": 7138,
      "Ġmbak": 7139,
      "ĠAss": 7140,
      "Ġhus": 7141,
      "Ġmari": 7142,
      "itual": 7143,
      "Ġmala": 7144,
      "Ġmemperkenalkan": 7145,
      "ĠNamun": 7146,
      "Ġstok": 7147,
      "ĠIsra": 7148,
      "masalahan": 7149,
      "Ġpegang": 7150,
      "round": 7151,
      "Ġposisi": 7152,
      "ĠBersama": 7153,
      "Ġnnti": 7154,
      "ejar": 7155,
      "HAHAH": 7156,
      "Ġkecewa": 7157,
      "Sampai": 7158,
      "inci": 7159,
      "ĠPustaka": 7160,
      "ĠHaha": 7161,
      "ĠMaha": 7162,
      "sat": 7163,
      "Ġpihaknya": 7164,
      "Ġsisa": 7165,
      "Ġblm": 7166,
      "Ġpip": 7167,
      "Ġdihadapi": 7168,
      "Ġtoday": 7169,
      "Sama": 7170,
      "Ġgojek": 7171,
      "Ġkebun": 7172,
      "dom": 7173,
      "Ġmengandung": 7174,
      "Ġubat": 7175,
      "ĠFit": 7176,
      "Dua": 7177,
      "ĠPekan": 7178,
      "ĠMedia": 7179,
      "Ġinstagram": 7180,
      "atural": 7181,
      "Ġmenyi": 7182,
      "Ġberfungsi": 7183,
      "ĠBAR": 7184,
      "What": 7185,
      "impunan": 7186,
      "jata": 7187,
      "Nah": 7188,
      "Ġ1996": 7189,
      "emban": 7190,
      "umsi": 7191,
      "off": 7192,
      "ebak": 7193,
      "App": 7194,
      "Ġlot": 7195,
      "Ġimportant": 7196,
      "ĠKET": 7197,
      "Ġgunakan": 7198,
      "irip": 7199,
      "yanan": 7200,
      "aktor": 7201,
      "Dem": 7202,
      "ive": 7203,
      "Ġperalatan": 7204,
      "gag": 7205,
      "bitkan": 7206,
      "Ġberpendapat": 7207,
      "Indonesia": 7208,
      "Ġmamak": 7209,
      "iayaan": 7210,
      "Ġplace": 7211,
      "Ġtamu": 7212,
      "Mar": 7213,
      "KI": 7214,
      "embahan": 7215,
      "sb": 7216,
      "Ġdagang": 7217,
      "Ġkehadiran": 7218,
      "ĠSumat": 7219,
      "Ġold": 7220,
      "ĠOtak": 7221,
      "ĠStudi": 7222,
      "bila": 7223,
      "umba": 7224,
      "Ġberikutan": 7225,
      "Ġkelebihan": 7226,
      "idd": 7227,
      "Ġkeuntungan": 7228,
      "ants": 7229,
      "Ġadat": 7230,
      "Ġstate": 7231,
      "ulihan": 7232,
      "Ġperasan": 7233,
      "Ġdiperkenalkan": 7234,
      "ĠYork": 7235,
      "Ġtajuk": 7236,
      "Ġkejar": 7237,
      "Bag": 7238,
      "hak": 7239,
      "Ġcustomer": 7240,
      "Ġkawin": 7241,
      "ĠAT": 7242,
      "SA": 7243,
      "pos": 7244,
      "Ġsukses": 7245,
      "Ġtitik": 7246,
      "EST": 7247,
      "Ġringan": 7248,
      "EMP": 7249,
      "upan": 7250,
      "anch": 7251,
      "arkoba": 7252,
      "Ġkasar": 7253,
      "International": 7254,
      "Ġtuntutan": 7255,
      "aklum": 7256,
      "Ġmakcik": 7257,
      "Ġmengut": 7258,
      "Ġmulu": 7259,
      "AIL": 7260,
      "Ġelektrik": 7261,
      "Ga": 7262,
      "uncak": 7263,
      "Ġgara": 7264,
      "Ġpedas": 7265,
      "Ġkonflik": 7266,
      "ebu": 7267,
      "Res": 7268,
      "Ġperlahan": 7269,
      "ujur": 7270,
      "Ġsate": 7271,
      "Ġaksi": 7272,
      "ĠGR": 7273,
      "ĠUtama": 7274,
      "uluskan": 7275,
      "EMBERITAHUAN": 7276,
      "Ġfre": 7277,
      "Ġbertahan": 7278,
      "mo": 7279,
      "ĠSAW": 7280,
      "lad": 7281,
      "ambung": 7282,
      "Ġterkejut": 7283,
      "ĠKata": 7284,
      "Ġmengkaji": 7285,
      "ĠRest": 7286,
      "Ġbend": 7287,
      "Ġengkau": 7288,
      "Ġtumbuh": 7289,
      "itis": 7290,
      "Rasa": 7291,
      "idangan": 7292,
      "imau": 7293,
      "ĠJumaat": 7294,
      "edahkan": 7295,
      "Ġterbaru": 7296,
      "jan": 7297,
      "IVE": 7298,
      "There": 7299,
      "ĠProduk": 7300,
      "ido": 7301,
      "Ġmenjelang": 7302,
      "ISA": 7303,
      "Ġmemenangi": 7304,
      "Ġlanggar": 7305,
      "INE": 7306,
      "airan": 7307,
      "echnology": 7308,
      "Program": 7309,
      "Ġbersedia": 7310,
      "Ġhome": 7311,
      "Ġditahan": 7312,
      "ĠKEL": 7313,
      "wh": 7314,
      "Ġsasaran": 7315,
      "ĠGu": 7316,
      "los": 7317,
      "Ġmenemp": 7318,
      "usantara": 7319,
      "isip": 7320,
      "Ġnd": 7321,
      "Ġsim": 7322,
      "ĠMacam": 7323,
      "Ġslow": 7324,
      "Se": 7325,
      "Ġteachers": 7326,
      "ahulu": 7327,
      "Ġdn": 7328,
      "Ġtegur": 7329,
      "Ġevent": 7330,
      "Ġstyle": 7331,
      "thday": 7332,
      "Ġartis": 7333,
      "like": 7334,
      "kkk": 7335,
      "friend": 7336,
      "alisasi": 7337,
      "Ġdian": 7338,
      "Ġopini": 7339,
      "KWKW": 7340,
      "Ġsore": 7341,
      "asti": 7342,
      "Ġkeyakinan": 7343,
      "Ġkla": 7344,
      "ultim": 7345,
      "owok": 7346,
      "sila": 7347,
      "daerah": 7348,
      "bab": 7349,
      "Ġkesian": 7350,
      "Ġsn": 7351,
      "Ġmenegaskan": 7352,
      "va": 7353,
      "egahan": 7354,
      "Ġanc": 7355,
      "Ġmulia": 7356,
      "Ġberadik": 7357,
      "yaAllah": 7358,
      "Ġbeban": 7359,
      "Ġmempertahankan": 7360,
      "Ġdalaman": 7361,
      "Ġkelantan": 7362,
      "Ġtag": 7363,
      "ĠProphet": 7364,
      "elayan": 7365,
      "Ġbosan": 7366,
      "haha": 7367,
      "Ġkuning": 7368,
      "Ġsegar": 7369,
      "libatan": 7370,
      "asai": 7371,
      "ello": 7372,
      "Ġnumber": 7373,
      "Guru": 7374,
      "Ġpenumpang": 7375,
      "Ġbijak": 7376,
      "Seperti": 7377,
      "eor": 7378,
      "ĠPertanian": 7379,
      "Ġketurunan": 7380,
      "enomena": 7381,
      "Ġrujukan": 7382,
      "ĠMenc": 7383,
      "Ġterang": 7384,
      "Ġteaching": 7385,
      "Ang": 7386,
      "ĠMall": 7387,
      "ysis": 7388,
      "MP": 7389,
      "Ġucap": 7390,
      "ukuhkan": 7391,
      "macam": 7392,
      "Ġnikmat": 7393,
      "ĠArt": 7394,
      "Ġws": 7395,
      "Ġmelindungi": 7396,
      "lahirkan": 7397,
      "nama": 7398,
      "ĠSdn": 7399,
      "ges": 7400,
      "argai": 7401,
      "incip": 7402,
      "Ġ1990": 7403,
      "asy": 7404,
      "Isu": 7405,
      "Ġreligious": 7406,
      "ĠFoto": 7407,
      "Ġtl": 7408,
      "Ġgil": 7409,
      "ody": 7410,
      "ĠJohn": 7411,
      "ĠDiraja": 7412,
      "ĠRed": 7413,
      "arta": 7414,
      "ĠMari": 7415,
      "km": 7416,
      "ĠBaik": 7417,
      "Ġkelemahan": 7418,
      "ective": 7419,
      "Ġumumnya": 7420,
      "Ġkompet": 7421,
      "Ġwajar": 7422,
      "Ġmajoriti": 7423,
      "ĠBandung": 7424,
      "97": 7425,
      "Ġdrop": 7426,
      "ĠKek": 7427,
      "OV": 7428,
      "ared": 7429,
      "ĠPRU": 7430,
      "BER": 7431,
      "Ġ$": 7432,
      "Re": 7433,
      "Anda": 7434,
      "Ġmenganggap": 7435,
      "raga": 7436,
      "entak": 7437,
      "alleng": 7438,
      "Pener": 7439,
      "unter": 7440,
      "engkapi": 7441,
      "Ġpersepsi": 7442,
      "Ġperumahan": 7443,
      "tp": 7444,
      "Ġleast": 7445,
      "Ġpertandingan": 7446,
      "ĠTanpa": 7447,
      "Ġcita": 7448,
      "Ġsignifikan": 7449,
      "uatku": 7450,
      "ekutif": 7451,
      "ingatkan": 7452,
      "unei": 7453,
      "fe": 7454,
      "Ġcahaya": 7455,
      "Ġreti": 7456,
      "Ġistim": 7457,
      "Ġfb": 7458,
      "epak": 7459,
      "Ġdiatas": 7460,
      "Ġmenuntut": 7461,
      "Ġmasakan": 7462,
      "Ġkelab": 7463,
      "Ġelektronik": 7464,
      "Begitu": 7465,
      "akwah": 7466,
      "Ġketidak": 7467,
      "ĠSuk": 7468,
      "Ġpenjelasan": 7469,
      "Ġaff": 7470,
      "Ġnyata": 7471,
      "oks": 7472,
      "irikan": 7473,
      "ugian": 7474,
      "Ġnovel": 7475,
      "Ġlow": 7476,
      "ĠMul": 7477,
      "Ġgant": 7478,
      "Ġijazah": 7479,
      "ĠUKM": 7480,
      "Ġinterest": 7481,
      "ices": 7482,
      "ooks": 7483,
      "Ġmengumumkan": 7484,
      "Ġhab": 7485,
      "Ġsubuh": 7486,
      "omunikasi": 7487,
      "YAK": 7488,
      "asing": 7489,
      "ĠAkhir": 7490,
      "upaya": 7491,
      "val": 7492,
      "Ġrelationship": 7493,
      "ĠSW": 7494,
      "jam": 7495,
      "iy": 7496,
      "abaran": 7497,
      "ĠOne": 7498,
      "ĠJAW": 7499,
      "press": 7500,
      "Ġmatahari": 7501,
      "Ġmusuh": 7502,
      "Ti": 7503,
      "Ġhist": 7504,
      "Ġdevelop": 7505,
      "Ibu": 7506,
      "ĠLondon": 7507,
      "Muh": 7508,
      "aduh": 7509,
      "ĠShe": 7510,
      "ĠSampai": 7511,
      "saya": 7512,
      "emaah": 7513,
      "53": 7514,
      "Ġbs": 7515,
      "IRI": 7516,
      "ihah": 7517,
      "obi": 7518,
      "ids": 7519,
      "FC": 7520,
      "ĠResearch": 7521,
      "ĠPerkhidmatan": 7522,
      "Mur": 7523,
      "apain": 7524,
      "ĠKong": 7525,
      "atap": 7526,
      "ITI": 7527,
      "Ġpangg": 7528,
      "Ġfut": 7529,
      "Ġeveryone": 7530,
      "lick": 7531,
      "Ġyakni": 7532,
      "Ġms": 7533,
      "ĠImp": 7534,
      "ĠPadahal": 7535,
      "ĠKolej": 7536,
      "Ġcompany": 7537,
      "istic": 7538,
      "Ġdont": 7539,
      "Ġkesemua": 7540,
      "Ġlulus": 7541,
      "ubang": 7542,
      "Ġpetani": 7543,
      "ĠSejarah": 7544,
      "ogor": 7545,
      "Ġusing": 7546,
      "Te": 7547,
      "arahkan": 7548,
      "Ġkomitmen": 7549,
      "ĠKen": 7550,
      "angkawi": 7551,
      "Betul": 7552,
      "Ġpurata": 7553,
      "Ġtolak": 7554,
      "kawan": 7555,
      "Ġmengawal": 7556,
      "alil": 7557,
      "imbingan": 7558,
      "67": 7559,
      "Ġsyariah": 7560,
      "aikkan": 7561,
      "Ġhapp": 7562,
      "Ġpola": 7563,
      "Ġhom": 7564,
      "Ġsad": 7565,
      "Ġepis": 7566,
      "pop": 7567,
      "iTM": 7568,
      "keb": 7569,
      "KA": 7570,
      "edahan": 7571,
      "ĠCara": 7572,
      "ĠLee": 7573,
      "elihara": 7574,
      "Mod": 7575,
      "Ġsempadan": 7576,
      "Ġditambah": 7577,
      "ĠInstagram": 7578,
      "aliz": 7579,
      "earning": 7580,
      "fl": 7581,
      "Ġbernilai": 7582,
      "Ġmemohon": 7583,
      "nes": 7584,
      "ankan": 7585,
      "Ġberikan": 7586,
      "Ġii": 7587,
      "Ġuntil": 7588,
      "Ġbibir": 7589,
      "ĠLaw": 7590,
      "Ġgreat": 7591,
      "Ġketawa": 7592,
      "eksi": 7593,
      "Ġkangen": 7594,
      "Ġdlu": 7595,
      "Ġsop": 7596,
      "Ġlive": 7597,
      "Ġbekerj": 7598,
      "Ġpenubuhan": 7599,
      "osedur": 7600,
      "ifi": 7601,
      "ĠCr": 7602,
      "DI": 7603,
      "Ġduring": 7604,
      "Ġthought": 7605,
      "isy": 7606,
      "Ġgt": 7607,
      "Ġready": 7608,
      "makan": 7609,
      "Ġbeng": 7610,
      "ĠAPA": 7611,
      "Ġayo": 7612,
      "Ġkemalangan": 7613,
      "usahawanan": 7614,
      "Melalui": 7615,
      "ries": 7616,
      "Ġalih": 7617,
      "ped": 7618,
      "aint": 7619,
      "Ġtema": 7620,
      "asic": 7621,
      "ls": 7622,
      "ĠPadang": 7623,
      "42": 7624,
      "Ġaltern": 7625,
      "ĠKuantan": 7626,
      "Ġbintang": 7627,
      "Buk": 7628,
      "Ġtravel": 7629,
      "Ġnam": 7630,
      "Ġ150": 7631,
      "Ġwithout": 7632,
      "Para": 7633,
      "room": 7634,
      "Ġkabar": 7635,
      "atic": 7636,
      "ĠKumpulan": 7637,
      "Ġwater": 7638,
      "Ġtotal": 7639,
      "ĠAgong": 7640,
      "Ġproper": 7641,
      "Ġtakleh": 7642,
      "Ġberhampiran": 7643,
      "ALAH": 7644,
      "Ġdingin": 7645,
      "inggalan": 7646,
      "Ġkebajikan": 7647,
      "ĠIkh": 7648,
      "ĠCal": 7649,
      "Ġthings": 7650,
      "kurang": 7651,
      "Ġmonth": 7652,
      "Ġmengapa": 7653,
      "omi": 7654,
      "Ġparah": 7655,
      "sebab": 7656,
      "ĠKok": 7657,
      "Ġdrive": 7658,
      "Ġvol": 7659,
      "Ġkebebasan": 7660,
      "Ġmenyeluruh": 7661,
      "Mari": 7662,
      "Ġaneh": 7663,
      "Ġbanc": 7664,
      "Ġconfirm": 7665,
      "Ġthing": 7666,
      "Ġtpi": 7667,
      "Ġmove": 7668,
      "ilah": 7669,
      "pis": 7670,
      "ĠShari": 7671,
      "Ġcincin": 7672,
      "Ġpemahaman": 7673,
      "Sel": 7674,
      "Ġlum": 7675,
      "ĠSetelah": 7676,
      "ĠPap": 7677,
      "PH": 7678,
      "ĠMungkin": 7679,
      "cak": 7680,
      "Ġberumur": 7681,
      "ptop": 7682,
      "Ġbual": 7683,
      "Ġperlindungan": 7684,
      "Ġberoperasi": 7685,
      "cel": 7686,
      "uangan": 7687,
      "Ġuntung": 7688,
      "ĠBaju": 7689,
      "aria": 7690,
      "Ala": 7691,
      "Ġkampus": 7692,
      "ĠSuper": 7693,
      "Ġnanya": 7694,
      "Ġface": 7695,
      "jen": 7696,
      "Ġikhlas": 7697,
      "Ġpertemuan": 7698,
      "Ġmencegah": 7699,
      "Ġseneng": 7700,
      "Ġgus": 7701,
      "Ġgembira": 7702,
      "erdekaan": 7703,
      "Ġpenerbangan": 7704,
      "Ġdaftar": 7705,
      "Ġlaaa": 7706,
      "ĠDENGAN": 7707,
      "Ġetc": 7708,
      "ĠGood": 7709,
      "udu": 7710,
      "Ġmembenarkan": 7711,
      "Ġmenggambarkan": 7712,
      "Ġaway": 7713,
      "Ġagenda": 7714,
      "Ġkind": 7715,
      "Ġberjuang": 7716,
      "Ġkebudayaan": 7717,
      "jil": 7718,
      "chie": 7719,
      "Ġbangga": 7720,
      "ĠTo": 7721,
      "32": 7722,
      "ahagiaan": 7723,
      "Kh": 7724,
      "ĠSiap": 7725,
      "Ġ37": 7726,
      "ĠAR": 7727,
      "oooo": 7728,
      "Ġtipu": 7729,
      "Abdul": 7730,
      "ĠKanan": 7731,
      "ĠOh": 7732,
      "ĠPalestin": 7733,
      "Ġspes": 7734,
      "Ġkejap": 7735,
      "Ġ55": 7736,
      "ips": 7737,
      "Ġpenyelidik": 7738,
      "Ġoffice": 7739,
      "Okay": 7740,
      "atnya": 7741,
      "Ġsulit": 7742,
      "ANAN": 7743,
      "imbangkan": 7744,
      "Ġfam": 7745,
      "Ġberwarna": 7746,
      "Ġlatar": 7747,
      "Ġnomor": 7748,
      "krim": 7749,
      "Ġsap": 7750,
      "ĠAsh": 7751,
      "Ġdemokrasi": 7752,
      "impulan": 7753,
      "ANJ": 7754,
      "Ġpengundi": 7755,
      "afikan": 7756,
      "ĠAll": 7757,
      "ĠMAU": 7758,
      "Ġdimiliki": 7759,
      "ĠMend": 7760,
      "ĠFakulti": 7761,
      "ĠRE": 7762,
      "Ġhanyalah": 7763,
      "Rep": 7764,
      "Ġkus": 7765,
      "Ġtulang": 7766,
      "amsung": 7767,
      "leep": 7768,
      "ĠAidilfitri": 7769,
      "Ġsorry": 7770,
      "tional": 7771,
      "Akhirnya": 7772,
      "ampu": 7773,
      "Ġkacau": 7774,
      "enak": 7775,
      "Ġberjumlah": 7776,
      "ĠMinyak": 7777,
      "Ġbusiness": 7778,
      "Ġol": 7779,
      "Ġpenjaga": 7780,
      "deka": 7781,
      "Ġeg": 7782,
      "Ġmendalam": 7783,
      "Ġrekod": 7784,
      "Ġmenyaksikan": 7785,
      "itra": 7786,
      "oro": 7787,
      "Ġmotivasi": 7788,
      "Ġmelawan": 7789,
      "struc": 7790,
      "Ġkebutuhan": 7791,
      "hile": 7792,
      "urikulum": 7793,
      "Ġperg": 7794,
      "Ġkemiskinan": 7795,
      "Ġjujur": 7796,
      "Ġ42": 7797,
      "ĠKES": 7798,
      "nies": 7799,
      "Ġsenjata": 7800,
      "Ġquestion": 7801,
      "ajam": 7802,
      "Ġbh": 7803,
      "ĠBerhad": 7804,
      "atangan": 7805,
      "sss": 7806,
      "ingapore": 7807,
      "Ġjus": 7808,
      "Eng": 7809,
      "empor": 7810,
      "Ġmoney": 7811,
      "ĠMuslims": 7812,
      "ĠKorang": 7813,
      "ĠHasil": 7814,
      "No": 7815,
      "Ġakhirat": 7816,
      "utkan": 7817,
      "Ġkeep": 7818,
      "Ġpria": 7819,
      "Ġdikemukakan": 7820,
      "Ġcemerlang": 7821,
      "aktif": 7822,
      "esok": 7823,
      "XL": 7824,
      "itung": 7825,
      "Ġfinal": 7826,
      "Ġsenarai": 7827,
      "ANC": 7828,
      "struk": 7829,
      "nin": 7830,
      "andom": 7831,
      "Ġdiperolehi": 7832,
      "ĠPark": 7833,
      "Ġgampang": 7834,
      "ekanan": 7835,
      "Ġmenyed": 7836,
      "nan": 7837,
      "udak": 7838,
      "Ġbermanfaat": 7839,
      "nye": 7840,
      "ously": 7841,
      "Ġkeren": 7842,
      "Ġbahaya": 7843,
      "Ġmemer": 7844,
      "enderung": 7845,
      "ĠIsrael": 7846,
      "plin": 7847,
      "05": 7848,
      "Ġramadhan": 7849,
      "Ġpk": 7850,
      "ĠDIS": 7851,
      "Ġ',": 7852,
      "ombong": 7853,
      "Ġrosak": 7854,
      "Ġdicapai": 7855,
      "lass": 7856,
      "ĠTIDAK": 7857,
      "ĠPa": 7858,
      "bukan": 7859,
      "Ġkomponen": 7860,
      "ohan": 7861,
      "ced": 7862,
      "aila": 7863,
      "idin": 7864,
      "utuhkan": 7865,
      "ambutan": 7866,
      "Ġsesetengah": 7867,
      "ides": 7868,
      "ĠRasa": 7869,
      "bon": 7870,
      "pool": 7871,
      "Ġbersep": 7872,
      "Ġjaj": 7873,
      "ging": 7874,
      "Ġongk": 7875,
      "Ġpermasalahan": 7876,
      "Ġpatah": 7877,
      "lop": 7878,
      "sp": 7879,
      "zim": 7880,
      "Ġdone": 7881,
      "Ġbiji": 7882,
      "Ġmakhluk": 7883,
      "hair": 7884,
      "Ġperintah": 7885,
      "osiding": 7886,
      "Ġmengec": 7887,
      "Ġkecantikan": 7888,
      "Ġberbuat": 7889,
      "unjungi": 7890,
      "Ġmendorong": 7891,
      "wati": 7892,
      "Ġberkongsi": 7893,
      "ĠModel": 7894,
      "jol": 7895,
      "ubahan": 7896,
      "Ġfun": 7897,
      "Ġbunuh": 7898,
      "gabung": 7899,
      "Dr": 7900,
      "lack": 7901,
      "ĠCont": 7902,
      "sue": 7903,
      "Ġdu": 7904,
      "Ġtinggalkan": 7905,
      "jalan": 7906,
      "Ġhol": 7907,
      "Ġjadual": 7908,
      "Ġterhad": 7909,
      "Jakarta": 7910,
      "verse": 7911,
      "Ġhadis": 7912,
      "Ġmenemukan": 7913,
      "Ġram": 7914,
      "Bismillah": 7915,
      "Ġtopik": 7916,
      "Ġpriv": 7917,
      "BA": 7918,
      "irman": 7919,
      "Ġrokok": 7920,
      "azar": 7921,
      "Ġdibenarkan": 7922,
      "IPADA": 7923,
      "Ġlho": 7924,
      "ĠBAH": 7925,
      "Ġpinggang": 7926,
      "Ġkualitas": 7927,
      "ĠSET": 7928,
      "akaian": 7929,
      "ĠRom": 7930,
      "ĠUnit": 7931,
      "taf": 7932,
      "Ġyaaa": 7933,
      "pers": 7934,
      "ĠFREE": 7935,
      "paskan": 7936,
      "emput": 7937,
      "ĠRabu": 7938,
      "Ġsimple": 7939,
      "Str": 7940,
      "Ġmud": 7941,
      "Or": 7942,
      "Ġfew": 7943,
      "ĠSemenanjung": 7944,
      "====": 7945,
      "ĠSetiausaha": 7946,
      "cara": 7947,
      "Ġcerit": 7948,
      "Ġkafir": 7949,
      "ĠMalam": 7950,
      "Ġkantor": 7951,
      "TR": 7952,
      "mau": 7953,
      "elb": 7954,
      "obat": 7955,
      "TH": 7956,
      "aklumkan": 7957,
      "Ġcontact": 7958,
      "ĠHotel": 7959,
      "ĠKeluarga": 7960,
      "ĠNy": 7961,
      "Ġenvironment": 7962,
      "Ġtersendiri": 7963,
      "nivers": 7964,
      "Ġberguna": 7965,
      "embah": 7966,
      "ĠInter": 7967,
      "Ġnah": 7968,
      "Ġgur": 7969,
      "Ġgunung": 7970,
      "elamatkan": 7971,
      "ror": 7972,
      "ĠAgung": 7973,
      "Ġngerasa": 7974,
      "ambahkan": 7975,
      "Ġgaduh": 7976,
      "Ġwife": 7977,
      "tugas": 7978,
      "ĠWarna": 7979,
      "Ġmaybe": 7980,
      "iber": 7981,
      "ĠPAK": 7982,
      "Ġjiran": 7983,
      "ashion": 7984,
      "Ġmenggantikan": 7985,
      "inggah": 7986,
      "Ġsuc": 7987,
      "Ġ48": 7988,
      "ĠMinggu": 7989,
      "Ġbekerjasama": 7990,
      "ĠJa": 7991,
      "Ġjamb": 7992,
      "etua": 7993,
      "Wak": 7994,
      "Ġindividual": 7995,
      "Ha": 7996,
      "ĠIya": 7997,
      "uite": 7998,
      "Ġmisalnya": 7999,
      "Ġbelie": 8000,
      "irus": 8001,
      "Ġbagai": 8002,
      "ĠPublic": 8003,
      "Ġalhamdulillah": 8004,
      "ury": 8005,
      "Ġsuci": 8006,
      "0061": 8007,
      "Ġorig": 8008,
      "elda": 8009,
      "Ġrole": 8010,
      "ĠUr": 8011,
      "ĠDARIPADA": 8012,
      "Ġchild": 8013,
      "ebarkan": 8014,
      "Bisa": 8015,
      "Ġpolitical": 8016,
      "Berikut": 8017,
      "iptakan": 8018,
      "Hidup": 8019,
      "ĠTerus": 8020,
      "xy": 8021,
      "Ġmabuk": 8022,
      "Ġsaluran": 8023,
      "Ġhouse": 8024,
      "Ġrap": 8025,
      "Ġmenahan": 8026,
      "ĠBumiputera": 8027,
      "ĠPEM": 8028,
      "Ġalm": 8029,
      "den": 8030,
      "ements": 8031,
      "Ġsarawak": 8032,
      "Ġxde": 8033,
      "Ġgiveaway": 8034,
      "tors": 8035,
      "Ġberkualiti": 8036,
      "Ġlantai": 8037,
      "Ġhakim": 8038,
      "Masalah": 8039,
      "Ġwes": 8040,
      "Ġdisampaikan": 8041,
      "ujudan": 8042,
      "ĠPenj": 8043,
      "engahan": 8044,
      "Ġobser": 8045,
      "ĠASEAN": 8046,
      "ĠMIN": 8047,
      "Ġnunggu": 8048,
      "65": 8049,
      "Ġdilahirkan": 8050,
      "Ġgitar": 8051,
      "ĠEr": 8052,
      "Mu": 8053,
      "Ġkesejahteraan": 8054,
      "Ġsurah": 8055,
      "Ġpembayaran": 8056,
      "ĠUkuran": 8057,
      "ohanan": 8058,
      "ghat": 8059,
      "Ġbiaya": 8060,
      "ĠBerb": 8061,
      "ĠMengh": 8062,
      "ao": 8063,
      "My": 8064,
      "Malaysi": 8065,
      "uruteraan": 8066,
      "ahar": 8067,
      "Ġtamat": 8068,
      "Ġseharian": 8069,
      "iki": 8070,
      "Ġkeberkesanan": 8071,
      "Ġthree": 8072,
      "Ġsewaktu": 8073,
      "gug": 8074,
      "andas": 8075,
      "ĠContoh": 8076,
      "Ġcak": 8077,
      "ford": 8078,
      "ĠRAYA": 8079,
      "engaruh": 8080,
      "Ġgabisa": 8081,
      "ĠYusuf": 8082,
      "Ġtoko": 8083,
      "Ġmerek": 8084,
      "Ġdimensi": 8085,
      "Ġlebaran": 8086,
      "Ġsign": 8087,
      "asihat": 8088,
      "Ġner": 8089,
      "Ġstock": 8090,
      "Ġdiket": 8091,
      "ĠSimp": 8092,
      "redit": 8093,
      "onc": 8094,
      "Ġhaji": 8095,
      "Had": 8096,
      "ĠApakah": 8097,
      "eikh": 8098,
      "Ġizin": 8099,
      "bank": 8100,
      "dis": 8101,
      "ujung": 8102,
      "ĠKin": 8103,
      "anye": 8104,
      "Ġscreen": 8105,
      "emaran": 8106,
      "Ġ1995": 8107,
      "Ġmengal": 8108,
      "kuat": 8109,
      "ĠPolit": 8110,
      "pin": 8111,
      "Ġconduc": 8112,
      "Ġmencadangkan": 8113,
      "Ġsembuh": 8114,
      "asinya": 8115,
      "ĠLu": 8116,
      "utar": 8117,
      "AWAY": 8118,
      "Ġdipas": 8119,
      "Ġhaih": 8120,
      "Ġluck": 8121,
      "Ġlearn": 8122,
      "isnis": 8123,
      "Ġhadith": 8124,
      "Ġteringat": 8125,
      "kerja": 8126,
      "ĠTen": 8127,
      "Ġmemat": 8128,
      "tage": 8129,
      "ungkus": 8130,
      "ĠSeni": 8131,
      "els": 8132,
      "ĠPor": 8133,
      "ĠKEN": 8134,
      "ĠHis": 8135,
      "ĠTerbaik": 8136,
      "alai": 8137,
      "nyk": 8138,
      "Ġkpd": 8139,
      "ected": 8140,
      "Ġclear": 8141,
      "Ġjan": 8142,
      "orban": 8143,
      "Ġaspect": 8144,
      "ery": 8145,
      "ided": 8146,
      "Ġketerangan": 8147,
      "ĠHP": 8148,
      "Ġspecial": 8149,
      "Ġkimia": 8150,
      "ĠLokasi": 8151,
      "ĠORDER": 8152,
      "ĠÐ": 8153,
      "KP": 8154,
      "'.": 8155,
      "sApp": 8156,
      "Ġasam": 8157,
      "Ġmelaporkan": 8158,
      "rakan": 8159,
      "Ġaround": 8160,
      "Ġmba": 8161,
      "Ġdidakwa": 8162,
      "ĠHij": 8163,
      "Ġbetapa": 8164,
      "sal": 8165,
      "Ġsilap": 8166,
      "ĠJen": 8167,
      "Ġturn": 8168,
      "sidi": 8169,
      "erusnya": 8170,
      "pem": 8171,
      "Ġdemam": 8172,
      "ĠSis": 8173,
      "ĠLah": 8174,
      "edd": 8175,
      "Ġdinamakan": 8176,
      "Ġsil": 8177,
      "oint": 8178,
      "Ġhalaman": 8179,
      "utamaan": 8180,
      "Seg": 8181,
      "shsh": 8182,
      "Ġmenjej": 8183,
      "fik": 8184,
      "epi": 8185,
      "Ramai": 8186,
      "ĠNO": 8187,
      "Ġnight": 8188,
      "Ġlek": 8189,
      "ĠUstaz": 8190,
      "Ġtalian": 8191,
      "Ġburung": 8192,
      "Ġmirip": 8193,
      "ademic": 8194,
      "oe": 8195,
      "osok": 8196,
      "Ġartikel": 8197,
      "Ġkari": 8198,
      "ĠJU": 8199,
      "Ġmakluman": 8200,
      "Ġlam": 8201,
      "Ġpenguasaan": 8202,
      "Ġmendakwa": 8203,
      "thers": 8204,
      "ĠMENG": 8205,
      "ĠMohon": 8206,
      "Ġusahawan": 8207,
      "Ġfriends": 8208,
      "Ġkeber": 8209,
      "IV": 8210,
      "Ġkempen": 8211,
      "ĠSaudi": 8212,
      "Ġpass": 8213,
      "ĠKecil": 8214,
      "68": 8215,
      "ativ": 8216,
      "ĠLAGI": 8217,
      "uble": 8218,
      "ĠBeb": 8219,
      "tik": 8220,
      "Daripada": 8221,
      "Ġpulsa": 8222,
      "ĠKereta": 8223,
      "ocational": 8224,
      "Ġsambutan": 8225,
      "ĠSaat": 8226,
      "usiaan": 8227,
      "ean": 8228,
      "entuan": 8229,
      "Ġbersalah": 8230,
      "Ġrutin": 8231,
      "Ġkasut": 8232,
      "just": 8233,
      "Ġinstit": 8234,
      "Ġsew": 8235,
      "gue": 8236,
      "Ġdepa": 8237,
      "Ġtgok": 8238,
      "New": 8239,
      "iana": 8240,
      "Ġmeskipun": 8241,
      "Kel": 8242,
      "Ġinclud": 8243,
      "Ġpantas": 8244,
      "fiq": 8245,
      "Ġapproach": 8246,
      "Ġintelek": 8247,
      "Ġngn": 8248,
      "ĠDARI": 8249,
      "ĠBali": 8250,
      "Ġbangs": 8251,
      "ersi": 8252,
      "inese": 8253,
      "mula": 8254,
      "Ġminda": 8255,
      "ple": 8256,
      "lig": 8257,
      "loma": 8258,
      "ĠBad": 8259,
      "GG": 8260,
      "Ġkop": 8261,
      "ĠPerh": 8262,
      "ĠBulan": 8263,
      "icy": 8264,
      "ols": 8265,
      "awangan": 8266,
      "ĠKeh": 8267,
      "Ġgatau": 8268,
      "ukupi": 8269,
      "lahraga": 8270,
      "ĠIstana": 8271,
      "elitian": 8272,
      "Ġhala": 8273,
      "Ġpusing": 8274,
      "ĠPolitik": 8275,
      "ĠXL": 8276,
      "Ġ33": 8277,
      "visyen": 8278,
      "Ġbt": 8279,
      "Ġaktiv": 8280,
      "Ġstesen": 8281,
      "Ġpesakit": 8282,
      "ĠGak": 8283,
      "Ġmantan": 8284,
      "Ġterbukti": 8285,
      "Ġakhbar": 8286,
      "Ġbukit": 8287,
      "Ed": 8288,
      "ĠIkan": 8289,
      "esti": 8290,
      "ancam": 8291,
      "pret": 8292,
      "ĠBUKAN": 8293,
      "Ġiklan": 8294,
      "ajat": 8295,
      "aza": 8296,
      "Ġboc": 8297,
      "Ġdisiplin": 8298,
      "ox": 8299,
      "itangan": 8300,
      "banyak": 8301,
      "alem": 8302,
      "osir": 8303,
      "Ġmovie": 8304,
      "Ġ1994": 8305,
      "EO": 8306,
      "Ġobat": 8307,
      "araya": 8308,
      "ĠBharu": 8309,
      "Ġmemandangkan": 8310,
      "ejala": 8311,
      "ubern": 8312,
      "Ġbub": 8313,
      "amn": 8314,
      "Ġnyari": 8315,
      "ĠSyeikh": 8316,
      "Malam": 8317,
      "unting": 8318,
      "ĠBeli": 8319,
      "kem": 8320,
      "Ġgais": 8321,
      "Mus": 8322,
      "ĠWal": 8323,
      "Sebenarnya": 8324,
      "umbu": 8325,
      "ogja": 8326,
      "ĠDay": 8327,
      "Ġreason": 8328,
      "dari": 8329,
      "uatkan": 8330,
      "ĠSchool": 8331,
      "ĠMU": 8332,
      "ĠOf": 8333,
      "enger": 8334,
      "Ġmekan": 8335,
      "Ġblack": 8336,
      "Ġlebar": 8337,
      "aranya": 8338,
      "Ġmenghadiri": 8339,
      "Ġrangkaian": 8340,
      "orak": 8341,
      "ĠICT": 8342,
      "ĠKomunikasi": 8343,
      "ĠUdah": 8344,
      "Ġjelah": 8345,
      "ĠDes": 8346,
      "Ġpeperiksaan": 8347,
      "TT": 8348,
      "Ġluka": 8349,
      "IMB": 8350,
      "ĠBola": 8351,
      "Ġstabil": 8352,
      "69": 8353,
      "Ġnur": 8354,
      "apakah": 8355,
      "Ġ39": 8356,
      "ĠSelasa": 8357,
      "Ġrupa": 8358,
      "egini": 8359,
      "abut": 8360,
      "Ġlilin": 8361,
      "Inilah": 8362,
      "Ġmeman": 8363,
      "Ghazali": 8364,
      "MDB": 8365,
      "ĠIND": 8366,
      "ANYA": 8367,
      "Ġchange": 8368,
      "ĠRm": 8369,
      "ently": 8370,
      "ĠCuma": 8371,
      "Ġ[[": 8372,
      "ubernur": 8373,
      "Ġbulu": 8374,
      "Ġ34": 8375,
      "oice": 8376,
      "ĠTengku": 8377,
      "amm": 8378,
      "verpool": 8379,
      "Masjid": 8380,
      "ekor": 8381,
      "ocus": 8382,
      "Ġditerbitkan": 8383,
      "ĠKons": 8384,
      "Ġpaket": 8385,
      "Ġsangka": 8386,
      "entif": 8387,
      "emat": 8388,
      "Ġbil": 8389,
      "ĠHARGA": 8390,
      "Ġdikit": 8391,
      "estinya": 8392,
      "ĠBrunei": 8393,
      "sara": 8394,
      "Ġperdana": 8395,
      "ipu": 8396,
      "ĠKH": 8397,
      "Ġditanya": 8398,
      "ðŁ": 8399,
      "ekolah": 8400,
      "Ġhamil": 8401,
      "Ġless": 8402,
      "Ġbasuh": 8403,
      "Ġcard": 8404,
      "ĠBarisan": 8405,
      "ultimedia": 8406,
      "Ġberagama": 8407,
      "ĠTAH": 8408,
      "ĠUnd": 8409,
      "Ġeth": 8410,
      "action": 8411,
      "mmmm": 8412,
      "fir": 8413,
      "pol": 8414,
      "Ġgabungan": 8415,
      "ĠTerb": 8416,
      "Ġlaptop": 8417,
      "unseling": 8418,
      "angkitan": 8419,
      "ukuran": 8420,
      "Ġadakah": 8421,
      "Ġkeinginan": 8422,
      "Ġcivil": 8423,
      "Ġditutup": 8424,
      "Ġemak": 8425,
      "lection": 8426,
      "essional": 8427,
      "arut": 8428,
      "Ġgraduan": 8429,
      "-'": 8430,
      "Ġhangat": 8431,
      "ĠFin": 8432,
      "ĠNe": 8433,
      "Ġnafsu": 8434,
      "eluh": 8435,
      "Ġtemu": 8436,
      "oyal": 8437,
      "CH": 8438,
      "vey": 8439,
      "Ġsomeone": 8440,
      "anjurkan": 8441,
      "Ġkakitangan": 8442,
      "Ġsegini": 8443,
      "Ġtetiba": 8444,
      "ĠSebelum": 8445,
      "Ġkup": 8446,
      "Ġdet": 8447,
      "ĠVal": 8448,
      "yun": 8449,
      "ĠLama": 8450,
      "ership": 8451,
      "untung": 8452,
      "utu": 8453,
      "ged": 8454,
      "UKA": 8455,
      "KON": 8456,
      "Ġmengangkat": 8457,
      "Ġstrong": 8458,
      "utus": 8459,
      "Ġmelancarkan": 8460,
      "Ġmaterial": 8461,
      "Ġselanjutnya": 8462,
      "Ġgede": 8463,
      "Ġhot": 8464,
      "ĠEc": 8465,
      "utor": 8466,
      "Ġbelia": 8467,
      "ĠIpoh": 8468,
      "Ġsabah": 8469,
      "andal": 8470,
      "Ġrequires": 8471,
      "Seorang": 8472,
      "Ġjohor": 8473,
      "Ko": 8474,
      "Ġhakikat": 8475,
      "elbaga": 8476,
      "Ġformal": 8477,
      "Ġge": 8478,
      "Semasa": 8479,
      "inah": 8480,
      "Ġlarut": 8481,
      "Ġngantuk": 8482,
      "ĠTR": 8483,
      "Ġgoing": 8484,
      "OLL": 8485,
      "Ġenc": 8486,
      "Ġberdoa": 8487,
      "Ġkod": 8488,
      "ĠUiTM": 8489,
      "yek": 8490,
      "otes": 8491,
      "ĠStud": 8492,
      "ram": 8493,
      "Ġpil": 8494,
      "Ġmeraih": 8495,
      "ĠMaret": 8496,
      "Gak": 8497,
      "Ġmemperbaiki": 8498,
      "ifest": 8499,
      "Ġtransfer": 8500,
      "bak": 8501,
      "Ġcompet": 8502,
      "tidak": 8503,
      "BB": 8504,
      "uple": 8505,
      "pat": 8506,
      "ĠSize": 8507,
      "ĠYog": 8508,
      "ĠPla": 8509,
      "ersihan": 8510,
      "ĠKal": 8511,
      "ĠSarjana": 8512,
      "ergi": 8513,
      "Ġeffort": 8514,
      "Ġdetail": 8515,
      "Ġkerugian": 8516,
      "ĠPuan": 8517,
      "izan": 8518,
      "bers": 8519,
      "Ġsiswa": 8520,
      "uatkuasaan": 8521,
      "Ġemplo": 8522,
      "ĠPutih": 8523,
      "ĠHati": 8524,
      "ĠIlmu": 8525,
      "Ġtela": 8526,
      "Ġtegas": 8527,
      "Ġtamadun": 8528,
      "Ġ59": 8529,
      "Ġpack": 8530,
      "cond": 8531,
      "IG": 8532,
      "itatif": 8533,
      "Ġjaman": 8534,
      "Ġsebesar": 8535,
      "Ġpapa": 8536,
      "ombang": 8537,
      "ĠBul": 8538,
      "Ġjas": 8539,
      "Weh": 8540,
      "eritakan": 8541,
      "ĠPOS": 8542,
      "ession": 8543,
      "Ġberkhidmat": 8544,
      "ave": 8545,
      "kit": 8546,
      "Ġhur": 8547,
      "ĠSam": 8548,
      "Ġkritik": 8549,
      "ĠBiar": 8550,
      "Ġremp": 8551,
      "ĠSebagai": 8552,
      "ĠMemang": 8553,
      "kenapa": 8554,
      "Ġ:-": 8555,
      "endaki": 8556,
      "Ġkasus": 8557,
      "Ġmenetapkan": 8558,
      "Ġsekurang": 8559,
      "estiv": 8560,
      "Ġmencukupi": 8561,
      "Ġdul": 8562,
      "ĠAst": 8563,
      "ĠPengajaran": 8564,
      "Ġkonon": 8565,
      "ilos": 8566,
      "undur": 8567,
      "Ġemg": 8568,
      "CL": 8569,
      "tung": 8570,
      "Ġ1991": 8571,
      "With": 8572,
      "ological": 8573,
      "Jokowi": 8574,
      "0074": 8575,
      "Maaf": 8576,
      "At": 8577,
      "Ġothers": 8578,
      "anto": 8579,
      "ĠKalim": 8580,
      "Ġkamp": 8581,
      "Ġtarikh": 8582,
      "Ġperundangan": 8583,
      "Ġaccount": 8584,
      "bl": 8585,
      "Ġterkait": 8586,
      "Ġnmp": 8587,
      "ĠAnugerah": 8588,
      "ĠOnline": 8589,
      "yakarta": 8590,
      "ĠBerita": 8591,
      "Kat": 8592,
      "Ġrog": 8593,
      "Ġmempelajari": 8594,
      "Ġmengelakkan": 8595,
      "Ġjahit": 8596,
      "Ġkub": 8597,
      "ĠMi": 8598,
      "ĠSat": 8599,
      "Ġfasa": 8600,
      "aching": 8601,
      "Ġinspirasi": 8602,
      "ĠPan": 8603,
      "ĠAla": 8604,
      "ion": 8605,
      "Ġlawak": 8606,
      "Ġmemerintah": 8607,
      "ĠSama": 8608,
      "jok": 8609,
      "etika": 8610,
      "kandar": 8611,
      "ĠAfrika": 8612,
      "LIM": 8613,
      "Ġdiminta": 8614,
      "Ġaras": 8615,
      "Ġeffect": 8616,
      "ĠPed": 8617,
      "Pagi": 8618,
      "Ġmencoba": 8619,
      "ĠDR": 8620,
      "Ġbicara": 8621,
      "Ġpohon": 8622,
      "ĠBus": 8623,
      "Ġmatang": 8624,
      "ĠKristian": 8625,
      "Ġringkasnya": 8626,
      "Ġkuah": 8627,
      "pecially": 8628,
      "ĠCap": 8629,
      "Sehingga": 8630,
      "ĠSeorang": 8631,
      "itude": 8632,
      "Ġpercuma": 8633,
      "ihatkan": 8634,
      "Ġcorona": 8635,
      "ĠHakim": 8636,
      "alih": 8637,
      "isata": 8638,
      "Ġcream": 8639,
      "lagi": 8640,
      "Ġpam": 8641,
      "Ġpintar": 8642,
      "Ġkebahagiaan": 8643,
      "Ġobjek": 8644,
      "come": 8645,
      "Ġsilahkan": 8646,
      "Ġwei": 8647,
      "akini": 8648,
      "onda": 8649,
      "mudahkan": 8650,
      "ĠDUN": 8651,
      "Ġtell": 8652,
      "ĠSumatera": 8653,
      "asaskan": 8654,
      "Ġliv": 8655,
      "Ġterkena": 8656,
      "sep": 8657,
      "ĠTeam": 8658,
      "Ġnelayan": 8659,
      "Ġbkn": 8660,
      "ĠUP": 8661,
      "ĠRt": 8662,
      "ĠWhatsapp": 8663,
      "Ġmenekankan": 8664,
      "uasan": 8665,
      "ĠKulit": 8666,
      "Ġpic": 8667,
      "ether": 8668,
      "64": 8669,
      "Ġpikiran": 8670,
      "etulan": 8671,
      "Ġsak": 8672,
      "ĠAntara": 8673,
      "Ġpej": 8674,
      "amiin": 8675,
      "ĠBangsa": 8676,
      "Perkara": 8677,
      "Ġmenghantar": 8678,
      "Ġilm": 8679,
      "Ġsetempat": 8680,
      "ĠCari": 8681,
      "Ġtanggung": 8682,
      "Ġsebentar": 8683,
      "Ġselaras": 8684,
      "uaikan": 8685,
      "ĠKEM": 8686,
      "ĠMA": 8687,
      "dk": 8688,
      "Ġschola": 8689,
      "Sedih": 8690,
      "uhh": 8691,
      "ĠPagi": 8692,
      "ibur": 8693,
      "Ġkeman": 8694,
      "udara": 8695,
      "ĠMuz": 8696,
      "ĠEN": 8697,
      "ican": 8698,
      "Ġvitamin": 8699,
      "ĠCinta": 8700,
      "Ġsambal": 8701,
      "Ġteriak": 8702,
      "Ġcommunity": 8703,
      "Ġjuara": 8704,
      "AKU": 8705,
      "Ġpergerakan": 8706,
      "Muslim": 8707,
      "ĠPEMB": 8708,
      "otograp": 8709,
      "Kebanyakan": 8710,
      "Ġikutan": 8711,
      "itions": 8712,
      "raz": 8713,
      "ongsian": 8714,
      "tory": 8715,
      "Ġblock": 8716,
      "ajukan": 8717,
      "ĠEur": 8718,
      "Ġpersembahan": 8719,
      "tua": 8720,
      "ustakaan": 8721,
      "ĠOrgan": 8722,
      "isk": 8723,
      "ahahahah": 8724,
      "Ġkeker": 8725,
      "Ġmajikan": 8726,
      "Ġcrush": 8727,
      "oci": 8728,
      "esies": 8729,
      "Ġhealth": 8730,
      "ures": 8731,
      "Ġsit": 8732,
      "Ġprincip": 8733,
      "empurn": 8734,
      "dalam": 8735,
      "Ph": 8736,
      "ĠHalim": 8737,
      "Ġhahahah": 8738,
      "Ġtowards": 8739,
      "ĠNilai": 8740,
      "Ġkenaikan": 8741,
      "efin": 8742,
      "Gue": 8743,
      "ĠDapatkan": 8744,
      "ongkok": 8745,
      "Ġkambing": 8746,
      "Ġinget": 8747,
      "ĠSum": 8748,
      "ĠKul": 8749,
      "Ġregard": 8750,
      "Ġterpilih": 8751,
      "Ġnature": 8752,
      "ĠHamid": 8753,
      "Ġmerancang": 8754,
      "gagalan": 8755,
      "Ġarg": 8756,
      "Ġmisi": 8757,
      "ĠJuni": 8758,
      "chi": 8759,
      "ĠOF": 8760,
      "ĠQu": 8761,
      "angkut": 8762,
      "uling": 8763,
      "Ġistana": 8764,
      "Ġreka": 8765,
      "Ġmelainkan": 8766,
      "ereja": 8767,
      "neo": 8768,
      "ayanya": 8769,
      "ĠLearning": 8770,
      "injauan": 8771,
      "Ġnormally": 8772,
      "Ġubah": 8773,
      "Ġintel": 8774,
      "ella": 8775,
      "ĠDit": 8776,
      "Ġkolej": 8777,
      "Ġauthor": 8778,
      "ĠYun": 8779,
      "mud": 8780,
      "ĠKasih": 8781,
      "inat": 8782,
      "yarak": 8783,
      "unca": 8784,
      "estival": 8785,
      "Ġibunya": 8786,
      "They": 8787,
      "imer": 8788,
      "Ġimpro": 8789,
      "ĠALLAH": 8790,
      "Ġanjir": 8791,
      "54": 8792,
      "Ġmending": 8793,
      "Ġkebiasaan": 8794,
      "03": 8795,
      "Ġntar": 8796,
      "abiskan": 8797,
      "uching": 8798,
      "Ġpromosi": 8799,
      "Rah": 8800,
      "Ġden": 8801,
      "Ġmembant": 8802,
      "Ġancaman": 8803,
      "ĠMenurut": 8804,
      "Ġperka": 8805,
      "aplik": 8806,
      "Ġdest": 8807,
      "Ġpengangkutan": 8808,
      "ĠPEL": 8809,
      "Ġbelom": 8810,
      "kali": 8811,
      "ĠSocial": 8812,
      "Ġdad": 8813,
      "Ġistimewa": 8814,
      "Ġenable": 8815,
      "Ġmenubuhkan": 8816,
      "Ġmax": 8817,
      "Ġban": 8818,
      "ĠStar": 8819,
      "WA": 8820,
      "mark": 8821,
      "Ġsmart": 8822,
      "Ġangka": 8823,
      "Ġtugasan": 8824,
      "Ġsape": 8825,
      "Ġsejauh": 8826,
      "isahkan": 8827,
      "Ġhan": 8828,
      "abak": 8829,
      "API": 8830,
      "oriti": 8831,
      "ĠUmar": 8832,
      "Ġpor": 8833,
      "Raja": 8834,
      "azhab": 8835,
      "ĠDib": 8836,
      "ĠAzmin": 8837,
      "Ġketiak": 8838,
      "Ġperlukan": 8839,
      "ĠSPRM": 8840,
      "fikir": 8841,
      "ĠPort": 8842,
      "kurangnya": 8843,
      ";&": 8844,
      "Ġdikasih": 8845,
      "Ġmarkah": 8846,
      "Ġpelancongan": 8847,
      "Ġ1993": 8848,
      "Ġruangan": 8849,
      "Ġcut": 8850,
      "Ġnyawa": 8851,
      "yiddin": 8852,
      "ALI": 8853,
      "sik": 8854,
      "Ġachie": 8855,
      "Ġwal": 8856,
      "iro": 8857,
      "afaz": 8858,
      "Ġinterview": 8859,
      "Ġmengucapkan": 8860,
      "ucap": 8861,
      "top": 8862,
      "ĠBor": 8863,
      "Perb": 8864,
      "aduat": 8865,
      "Ġmlm": 8866,
      "Ġsuam": 8867,
      "Ġlorong": 8868,
      "ĠTel": 8869,
      "Ġapply": 8870,
      "Ġwatch": 8871,
      "ĠTai": 8872,
      "Ġbtw": 8873,
      "Ġtern": 8874,
      "Ġbap": 8875,
      "ĠDIA": 8876,
      "Ġtakpe": 8877,
      "Ġsweet": 8878,
      "Ġpenyanyi": 8879,
      "Ġkeadilan": 8880,
      "Ġquite": 8881,
      "unaikan": 8882,
      "ilosop": 8883,
      "osen": 8884,
      "isma": 8885,
      "ĠAbang": 8886,
      "SO": 8887,
      "Ġcamp": 8888,
      "ĠRI": 8889,
      "Ġshi": 8890,
      "ipina": 8891,
      "ended": 8892,
      "Ġcewek": 8893,
      "Ġmales": 8894,
      "hahaha": 8895,
      "artment": 8896,
      "urung": 8897,
      "eller": 8898,
      "Ġinvol": 8899,
      "hadapan": 8900,
      "aksiran": 8901,
      "elaksanaan": 8902,
      "Ġpelatih": 8903,
      "pn": 8904,
      "Ġpelaku": 8905,
      "Ġrugi": 8906,
      "Ġperf": 8907,
      "Ġdisab": 8908,
      "Ġsong": 8909,
      "ĠPasar": 8910,
      "Ġwait": 8911,
      "Ġketupat": 8912,
      "Ġbf": 8913,
      "ĠThis": 8914,
      "ampaian": 8915,
      "Ġmenges": 8916,
      "Sen": 8917,
      "Ġmarket": 8918,
      "ukah": 8919,
      "Ġkukuh": 8920,
      "Ġfund": 8921,
      "Ġcontin": 8922,
      "Ġhands": 8923,
      "agat": 8924,
      "ĠAkan": 8925,
      "ĠSMA": 8926,
      "auty": 8927,
      "0072": 8928,
      "ĠNoor": 8929,
      "Ġissu": 8930,
      "Ġconcept": 8931,
      "Ġpok": 8932,
      "iraan": 8933,
      "Ġmenjamin": 8934,
      "Ġpractic": 8935,
      "Ġtrue": 8936,
      "Ġmr": 8937,
      "Ġklu": 8938,
      "then": 8939,
      "Ġmakeup": 8940,
      "ampah": 8941,
      "Ġrangka": 8942,
      "Ġsg": 8943,
      "Ġclaim": 8944,
      "Rindu": 8945,
      "indahkan": 8946,
      "HAT": 8947,
      "MI": 8948,
      "Ġupaya": 8949,
      "ĠCentre": 8950,
      "Ġexist": 8951,
      "Pengen": 8952,
      "antauan": 8953,
      "Ag": 8954,
      "ibah": 8955,
      "Ġworks": 8956,
      "ĠBERS": 8957,
      "Ġreligion": 8958,
      "Contohnya": 8959,
      "En": 8960,
      "ittle": 8961,
      "Ġbnyk": 8962,
      "Ġpanggilan": 8963,
      "Ġmengemukakan": 8964,
      "ĠBunga": 8965,
      "Ġmendukung": 8966,
      "Ġdirimu": 8967,
      "ĠSER": 8968,
      "ablish": 8969,
      "Ġexam": 8970,
      "Ġkeempat": 8971,
      "Meny": 8972,
      "Ġretweet": 8973,
      "andatangani": 8974,
      "EA": 8975,
      "HA": 8976,
      "Ġplatform": 8977,
      "Ġ,,": 8978,
      "Ġharitu": 8979,
      "Korang": 8980,
      "Ġbok": 8981,
      "ĠNaz": 8982,
      "Ġnek": 8983,
      "Ġho": 8984,
      "ĠTempat": 8985,
      "Ġpenya": 8986,
      "ĠRestoran": 8987,
      "ĠKont": 8988,
      "06": 8989,
      "ĠKali": 8990,
      "ĠJamb": 8991,
      "okan": 8992,
      "Sk": 8993,
      "ĠMoga": 8994,
      "roses": 8995,
      "ĠMER": 8996,
      "Ġtype": 8997,
      "Ġpersatuan": 8998,
      "Ġjadikan": 8999,
      "Tahun": 9000,
      "ĠLangkawi": 9001,
      "urther": 9002,
      "ĠKemb": 9003,
      "Ġurus": 9004,
      "lunya": 9005,
      "baikan": 9006,
      "Ġkemerdekaan": 9007,
      "Ġongkir": 9008,
      "Em": 9009,
      "Ġkedi": 9010,
      "Ġwin": 9011,
      "Ġnice": 9012,
      "Ġcop": 9013,
      "zan": 9014,
      "ĠGue": 9015,
      "ends": 9016,
      "eon": 9017,
      "ĠBAN": 9018,
      "Ġpasir": 9019,
      "uitm": 9020,
      "Ġkarangan": 9021,
      "isis": 9022,
      "ĠAmir": 9023,
      "ĠFree": 9024,
      "Ġdibentuk": 9025,
      "ĠBert": 9026,
      "ril": 9027,
      "02": 9028,
      "Ġtit": 9029,
      "Ġdeket": 9030,
      "ĠMasalah": 9031,
      "ĠManagement": 9032,
      "ĠMag": 9033,
      "icken": 9034,
      "Ġberupaya": 9035,
      "ĠDok": 9036,
      "Ġcendol": 9037,
      "ujuh": 9038,
      "langkah": 9039,
      "Ġmek": 9040,
      "ĠPertubuhan": 9041,
      "eneral": 9042,
      "ĠRi": 9043,
      "Ġbirthday": 9044,
      "Biar": 9045,
      "Ġbini": 9046,
      "To": 9047,
      "Ġteknikal": 9048,
      "Tanpa": 9049,
      "ĠTabung": 9050,
      "Ġtelinga": 9051,
      "Ġcontr": 9052,
      "Ġcenderung": 9053,
      "Ġcontrol": 9054,
      "Ġnews": 9055,
      "Ġcrit": 9056,
      "imes": 9057,
      "iptaan": 9058,
      "Ġmengangg": 9059,
      "Seterusnya": 9060,
      "ujan": 9061,
      "Ken": 9062,
      "ariat": 9063,
      "Ġnatural": 9064,
      "Ġsemester": 9065,
      "arac": 9066,
      "Ġjempol": 9067,
      "CO": 9068,
      "uha": 9069,
      "Ġbusy": 9070,
      "Ġpanc": 9071,
      "Ġsaran": 9072,
      "Kini": 9073,
      "Mel": 9074,
      "Ġ...": 9075,
      "astera": 9076,
      "Ġ46": 9077,
      "malaysia": 9078,
      "Ġcerah": 9079,
      "epatan": 9080,
      "Ġmenerangkan": 9081,
      "Ġpia": 9082,
      "Ġmenyerang": 9083,
      "dir": 9084,
      "elai": 9085,
      "Ġhormat": 9086,
      "ĠAwak": 9087,
      "antina": 9088,
      "However": 9089,
      "Ġkediaman": 9090,
      "Ġrespon": 9091,
      "Ġjaringan": 9092,
      "satunya": 9093,
      "Ġkomunis": 9094,
      "ĠDh": 9095,
      "Ġmelanjutkan": 9096,
      "Ġissue": 9097,
      "ADY": 9098,
      "work": 9099,
      "Ġiman": 9100,
      "Tiada": 9101,
      "ĠYusof": 9102,
      "ectiv": 9103,
      "Ġ0812": 9104,
      "ĠStadium": 9105,
      "Ġtraining": 9106,
      "ĠLatihan": 9107,
      "Ġpimpinan": 9108,
      "ĠDapat": 9109,
      "Ġposs": 9110,
      "ancur": 9111,
      "Ġpermula": 9112,
      "Undang": 9113,
      "ential": 9114,
      "Ġmengakui": 9115,
      "reh": 9116,
      "Click": 9117,
      "alahkan": 9118,
      "Ġtabung": 9119,
      "idan": 9120,
      "ayasan": 9121,
      "ART": 9122,
      "Kaedah": 9123,
      "Bahkan": 9124,
      "Ġdewan": 9125,
      "uff": 9126,
      "ĠAirport": 9127,
      "Ġpendaftaran": 9128,
      "ucuk": 9129,
      "ahat": 9130,
      "Ġinflu": 9131,
      "Ġsettle": 9132,
      "ĠPertahanan": 9133,
      "urans": 9134,
      "ĠVocational": 9135,
      "DAT": 9136,
      "over": 9137,
      "Mohd": 9138,
      "Ġpapers": 9139,
      "bh": 9140,
      "Ġfans": 9141,
      "outube": 9142,
      "tivities": 9143,
      "Ġbecome": 9144,
      "Ġhusband": 9145,
      "erdasan": 9146,
      "abalu": 9147,
      "0069": 9148,
      "ĠHarian": 9149,
      "gih": 9150,
      "Ġketara": 9151,
      "Kek": 9152,
      "tick": 9153,
      "ĠFalsafah": 9154,
      "Ġmobile": 9155,
      "Sc": 9156,
      "ĠRob": 9157,
      "Ġfast": 9158,
      "Keadaan": 9159,
      "Ġai": 9160,
      "Ġparticip": 9161,
      "Ġexplain": 9162,
      "lusif": 9163,
      "siapa": 9164,
      "Ġpadu": 9165,
      "ĠLib": 9166,
      "rown": 9167,
      "apt": 9168,
      "Ġcountry": 9169,
      "Ġawalnya": 9170,
      "urian": 9171,
      "Ġskincare": 9172,
      "ĠTers": 9173,
      "ĠGold": 9174,
      "Ġca": 9175,
      "Ð¾": 9176,
      "ĠSec": 9177,
      "elf": 9178,
      "JK": 9179,
      "eransi": 9180,
      "Baik": 9181,
      "Ġkeutamaan": 9182,
      "kkkk": 9183,
      "Ġbeneran": 9184,
      "Ġnda": 9185,
      "Ġbertentangan": 9186,
      "Ġkhid": 9187,
      "Ġdisana": 9188,
      "Ġpemesanan": 9189,
      "Ġjaminan": 9190,
      "ĠBarang": 9191,
      "Ġsant": 9192,
      "ney": 9193,
      "ĠMerah": 9194,
      "Ġkeusahawanan": 9195,
      "Ġgaram": 9196,
      "ĠJAK": 9197,
      "ĠDig": 9198,
      "Ġmajalah": 9199,
      "Ġ41": 9200,
      "ĠSMK": 9201,
      "Ġefektif": 9202,
      "Ġ65": 9203,
      "Ġinformation": 9204,
      "agih": 9205,
      "ietnam": 9206,
      "Ġberiman": 9207,
      "Ġradio": 9208,
      "Ġsugg": 9209,
      "kep": 9210,
      "ĠMalik": 9211,
      "ĠSila": 9212,
      "Ġcet": 9213,
      "Ġkite": 9214,
      "alifah": 9215,
      "Ġkebaya": 9216,
      "Ġadv": 9217,
      "Ġdifahami": 9218,
      "Pat": 9219,
      "Seri": 9220,
      "Ġharm": 9221,
      "Ġpink": 9222,
      "enjak": 9223,
      "ĠIndah": 9224,
      "orit": 9225,
      "ĠPROM": 9226,
      "Ġbimbingan": 9227,
      "Ġmestilah": 9228,
      "jar": 9229,
      "Ġbasah": 9230,
      "cantik": 9231,
      "Ġincre": 9232,
      "Ġprosedur": 9233,
      "anam": 9234,
      "vin": 9235,
      "Br": 9236,
      "ĠNah": 9237,
      "Ġmaut": 9238,
      "ĠTeme": 9239,
      "ĠGroup": 9240,
      "ĠSayang": 9241,
      "ĠAnti": 9242,
      "joy": 9243,
      "itorial": 9244,
      "Ġsatunya": 9245,
      "akibatkan": 9246,
      "Beli": 9247,
      "kota": 9248,
      "bin": 9249,
      "ĠANDA": 9250,
      "Ġngeb": 9251,
      "rumah": 9252,
      "Ġmenyentuh": 9253,
      "ĠAmanah": 9254,
      "Ġdate": 9255,
      "ĠMic": 9256,
      "vensi": 9257,
      "Ġpengarah": 9258,
      "Ġmencintai": 9259,
      "UJ": 9260,
      "Ġkhidmat": 9261,
      "gam": 9262,
      "Ġsembang": 9263,
      "Ġsesungguhnya": 9264,
      "Ġpenambah": 9265,
      "Ġdress": 9266,
      "Be": 9267,
      "time": 9268,
      "ĠTechnical": 9269,
      "Ġpertengahan": 9270,
      "ILA": 9271,
      "bil": 9272,
      "Ġdinding": 9273,
      "Ġpenglibatan": 9274,
      "ilet": 9275,
      "lasi": 9276,
      "Ġsekeliling": 9277,
      "ĠIsu": 9278,
      "Ġtarget": 9279,
      "Ġbuta": 9280,
      "zen": 9281,
      "Ġdiman": 9282,
      "Ġinovasi": 9283,
      "Ġditawarkan": 9284,
      "apuskan": 9285,
      "lumat": 9286,
      "ĠSD": 9287,
      "ĠKah": 9288,
      "Ġsense": 9289,
      "Proses": 9290,
      "Ġcewe": 9291,
      "Ġanugerah": 9292,
      "Ġrealiti": 9293,
      "Ġspeak": 9294,
      "Baca": 9295,
      "osis": 9296,
      "Ġpls": 9297,
      "Din": 9298,
      "ĠTangan": 9299,
      "Ġterdekat": 9300,
      "ĠMenj": 9301,
      "ĠFilipina": 9302,
      "Gu": 9303,
      "uments": 9304,
      "irahat": 9305,
      "Ġterperinci": 9306,
      "300": 9307,
      "entangkan": 9308,
      "ampas": 9309,
      "ĠAyo": 9310,
      "Ġori": 9311,
      "angkitkan": 9312,
      "ĠBerat": 9313,
      "Ġhatinya": 9314,
      "Ġkeluarkan": 9315,
      "ĠKanak": 9316,
      "ARANG": 9317,
      "Ġladang": 9318,
      "Ġpesanan": 9319,
      "Adakah": 9320,
      "Ġhiasan": 9321,
      "ased": 9322,
      "Ġih": 9323,
      "Ġsarapan": 9324,
      "irt": 9325,
      "Ġberulang": 9326,
      "ĠMart": 9327,
      "Ġnutrisi": 9328,
      "Ġkarpet": 9329,
      "diq": 9330,
      "Ġbertukar": 9331,
      "Ġ75": 9332,
      "ĠWaktu": 9333,
      "Sehubungan": 9334,
      "imbol": 9335,
      "Ġkil": 9336,
      "Bagaimana": 9337,
      "sana": 9338,
      "Ras": 9339,
      "Ġintegr": 9340,
      "Ġgelaran": 9341,
      "asia": 9342,
      "Ġproject": 9343,
      "ijak": 9344,
      "bahan": 9345,
      "Ġcomment": 9346,
      "ĠRem": 9347,
      "ĠGab": 9348,
      "ĠPent": 9349,
      "Ġmengk": 9350,
      "Ġdibangunkan": 9351,
      "Ġselagi": 9352,
      "iji": 9353,
      "Ġhg": 9354,
      "Ġrad": 9355,
      "Ġdisabled": 9356,
      "ĠBay": 9357,
      "ĠPDRM": 9358,
      "ĠRiau": 9359,
      "otensi": 9360,
      "ĠBaj": 9361,
      "Ġtong": 9362,
      "Ġkeamanan": 9363,
      "ĠMama": 9364,
      "Ġbelas": 9365,
      "Ġberbahaya": 9366,
      "ĠWhatsApp": 9367,
      "ĠBagaimana": 9368,
      "ĠOmar": 9369,
      "cy": 9370,
      "Ġbertanding": 9371,
      "Ġespecially": 9372,
      "OTA": 9373,
      "Ġmenyambut": 9374,
      "Ġdengannya": 9375,
      "oris": 9376,
      "Ġnar": 9377,
      "Ġyoung": 9378,
      "Ġcontohnya": 9379,
      "ĠOleh": 9380,
      "ĠPad": 9381,
      "minal": 9382,
      "ĠLang": 9383,
      "utions": 9384,
      "ific": 9385,
      "Ġrob": 9386,
      "Ġmiss": 9387,
      "afsiran": 9388,
      "Ġpenampilan": 9389,
      "Ġpersen": 9390,
      "esak": 9391,
      "aaaaa": 9392,
      "Ġditunjukkan": 9393,
      "ĠDulu": 9394,
      "Ġdibandingkan": 9395,
      "Ġdesc": 9396,
      "Ġculture": 9397,
      "Ġgratis": 9398,
      "Ġpele": 9399,
      "Jumlah": 9400,
      "ĠMakanan": 9401,
      "Ġren": 9402,
      "ometer": 9403,
      "Ġeat": 9404,
      "Ġcowok": 9405,
      "Kec": 9406,
      "Ġkedah": 9407,
      "ertaan": 9408,
      "Ġganteng": 9409,
      "ĠPerumahan": 9410,
      "Ġlesen": 9411,
      "Ġauto": 9412,
      "ĠUK": 9413,
      "Ġminimum": 9414,
      "ambilan": 9415,
      "tin": 9416,
      "Ġmusik": 9417,
      "Ġcem": 9418,
      "Ġkencing": 9419,
      "ĠSeremban": 9420,
      "ading": 9421,
      "Ġdikaitkan": 9422,
      "ady": 9423,
      "itz": 9424,
      "Ġmerawat": 9425,
      "Ġmembuatkan": 9426,
      "rene": 9427,
      "Put": 9428,
      "ĠLelaki": 9429,
      "Ġfaedah": 9430,
      "ATA": 9431,
      "yap": 9432,
      "ĠProjek": 9433,
      "laku": 9434,
      "lue": 9435,
      "Ġrefer": 9436,
      "Ġinvest": 9437,
      "ĠNEG": 9438,
      "enam": 9439,
      "Ġpembiayaan": 9440,
      "Nanti": 9441,
      "ĠHutan": 9442,
      "Ġdiamalkan": 9443,
      "Ġlawatan": 9444,
      "Ġpertubuhan": 9445,
      "imaan": 9446,
      "esel": 9447,
      "ĠKetika": 9448,
[...]
